{
  "version": "1.0",
  "truncation": null,
  "padding": null,
  "added_tokens": [
    {
      "id": 0,
      "content": "<|endoftext|>",
      "single_word": false,
      "lstrip": false,
      "rstrip": false,
      "normalized": true,
      "special": true
    }
  ],
  "normalizer": null,
  "pre_tokenizer": {
    "type": "ByteLevel",
    "add_prefix_space": false,
    "trim_offsets": true,
    "use_regex": true
  },
  "post_processor": {
    "type": "ByteLevel",
    "add_prefix_space": true,
    "trim_offsets": false,
    "use_regex": true
  },
  "decoder": {
    "type": "ByteLevel",
    "add_prefix_space": true,
    "trim_offsets": true,
    "use_regex": true
  },
  "model": {
    "type": "BPE",
    "dropout": null,
    "unk_token": null,
    "continuing_subword_prefix": "",
    "end_of_word_suffix": "",
    "fuse_unk": false,
    "byte_fallback": false,
    "ignore_merges": false,
    "vocab": {
      "<|endoftext|>": 0,
      "!": 1,
      "\"": 2,
      "#": 3,
      "$": 4,
      "%": 5,
      "&": 6,
      "'": 7,
      "(": 8,
      ")": 9,
      "*": 10,
      "+": 11,
      ",": 12,
      "-": 13,
      ".": 14,
      "/": 15,
      "0": 16,
      "1": 17,
      "2": 18,
      "3": 19,
      "4": 20,
      "5": 21,
      "6": 22,
      "7": 23,
      "8": 24,
      "9": 25,
      ":": 26,
      ";": 27,
      "<": 28,
      "=": 29,
      ">": 30,
      "?": 31,
      "@": 32,
      "A": 33,
      "B": 34,
      "C": 35,
      "D": 36,
      "E": 37,
      "F": 38,
      "G": 39,
      "H": 40,
      "I": 41,
      "J": 42,
      "K": 43,
      "L": 44,
      "M": 45,
      "N": 46,
      "O": 47,
      "P": 48,
      "Q": 49,
      "R": 50,
      "S": 51,
      "T": 52,
      "U": 53,
      "V": 54,
      "W": 55,
      "X": 56,
      "Y": 57,
      "Z": 58,
      "[": 59,
      "\\": 60,
      "]": 61,
      "^": 62,
      "_": 63,
      "`": 64,
      "a": 65,
      "b": 66,
      "c": 67,
      "d": 68,
      "e": 69,
      "f": 70,
      "g": 71,
      "h": 72,
      "i": 73,
      "j": 74,
      "k": 75,
      "l": 76,
      "m": 77,
      "n": 78,
      "o": 79,
      "p": 80,
      "q": 81,
      "r": 82,
      "s": 83,
      "t": 84,
      "u": 85,
      "v": 86,
      "w": 87,
      "x": 88,
      "y": 89,
      "z": 90,
      "{": 91,
      "|": 92,
      "}": 93,
      "~": 94,
      "¡": 95,
      "¢": 96,
      "£": 97,
      "¤": 98,
      "¥": 99,
      "¦": 100,
      "§": 101,
      "¨": 102,
      "©": 103,
      "ª": 104,
      "«": 105,
      "¬": 106,
      "®": 107,
      "¯": 108,
      "°": 109,
      "±": 110,
      "²": 111,
      "³": 112,
      "´": 113,
      "µ": 114,
      "¶": 115,
      "·": 116,
      "¸": 117,
      "¹": 118,
      "º": 119,
      "»": 120,
      "¼": 121,
      "½": 122,
      "¾": 123,
      "¿": 124,
      "À": 125,
      "Á": 126,
      "Â": 127,
      "Ã": 128,
      "Ä": 129,
      "Å": 130,
      "Æ": 131,
      "Ç": 132,
      "È": 133,
      "É": 134,
      "Ê": 135,
      "Ë": 136,
      "Ì": 137,
      "Í": 138,
      "Î": 139,
      "Ï": 140,
      "Ð": 141,
      "Ñ": 142,
      "Ò": 143,
      "Ó": 144,
      "Ô": 145,
      "Õ": 146,
      "Ö": 147,
      "×": 148,
      "Ø": 149,
      "Ù": 150,
      "Ú": 151,
      "Û": 152,
      "Ü": 153,
      "Ý": 154,
      "Þ": 155,
      "ß": 156,
      "à": 157,
      "á": 158,
      "â": 159,
      "ã": 160,
      "ä": 161,
      "å": 162,
      "æ": 163,
      "ç": 164,
      "è": 165,
      "é": 166,
      "ê": 167,
      "ë": 168,
      "ì": 169,
      "í": 170,
      "î": 171,
      "ï": 172,
      "ð": 173,
      "ñ": 174,
      "ò": 175,
      "ó": 176,
      "ô": 177,
      "õ": 178,
      "ö": 179,
      "÷": 180,
      "ø": 181,
      "ù": 182,
      "ú": 183,
      "û": 184,
      "ü": 185,
      "ý": 186,
      "þ": 187,
      "ÿ": 188,
      "Ā": 189,
      "ā": 190,
      "Ă": 191,
      "ă": 192,
      "Ą": 193,
      "ą": 194,
      "Ć": 195,
      "ć": 196,
      "Ĉ": 197,
      "ĉ": 198,
      "Ċ": 199,
      "ċ": 200,
      "Č": 201,
      "č": 202,
      "Ď": 203,
      "ď": 204,
      "Đ": 205,
      "đ": 206,
      "Ē": 207,
      "ē": 208,
      "Ĕ": 209,
      "ĕ": 210,
      "Ė": 211,
      "ė": 212,
      "Ę": 213,
      "ę": 214,
      "Ě": 215,
      "ě": 216,
      "Ĝ": 217,
      "ĝ": 218,
      "Ğ": 219,
      "ğ": 220,
      "Ġ": 221,
      "ġ": 222,
      "Ģ": 223,
      "ģ": 224,
      "Ĥ": 225,
      "ĥ": 226,
      "Ħ": 227,
      "ħ": 228,
      "Ĩ": 229,
      "ĩ": 230,
      "Ī": 231,
      "ī": 232,
      "Ĭ": 233,
      "ĭ": 234,
      "Į": 235,
      "į": 236,
      "İ": 237,
      "ı": 238,
      "Ĳ": 239,
      "ĳ": 240,
      "Ĵ": 241,
      "ĵ": 242,
      "Ķ": 243,
      "ķ": 244,
      "ĸ": 245,
      "Ĺ": 246,
      "ĺ": 247,
      "Ļ": 248,
      "ļ": 249,
      "Ľ": 250,
      "ľ": 251,
      "Ŀ": 252,
      "ŀ": 253,
      "Ł": 254,
      "ł": 255,
      "Ń": 256,
      "ï¼": 257,
      "ä¸": 258,
      "ï¼Į": 259,
      "äº": 260,
      "çļ": 261,
      "çļĦ": 262,
      "ä»": 263,
      "ĢĤ": 264,
      "ãĢĤ": 265,
      "å¤": 266,
      "ä»ĸ": 267,
      "ä¸į": 268,
      "äºĨ": 269,
      "è¿": 270,
      "åı": 271,
      "æĺ": 272,
      "ä¹": 273,
      "ä¸Ģ": 274,
      "æĺ¯": 275,
      "åŃ": 276,
      "æľ": 277,
      "åŃĲ": 278,
      "å¥": 279,
      "çĿ": 280,
      "ä½": 281,
      "åĪ": 282,
      "çĿĢ": 283,
      "å¾": 284,
      "å°": 285,
      "æĿ": 286,
      "åľ": 287,
      "åĲ": 288,
      "æľī": 289,
      "åĩ": 290,
      "å®": 291,
      "åİ": 292,
      "ä¸ª": 293,
      "æī": 294,
      "ï¼ģ": 295,
      "æĿ¥": 296,
      "ä¸Ĭ": 297,
      "å¿": 298,
      "è¯": 299,
      "çľ": 300,
      "è¿Ļ": 301,
      "è½": 302,
      "åħ": 303,
      "ĥ½": 304,
      "åİ»": 305,
      "åľ¨": 306,
      "å·": 307,
      "Ħ¿": 308,
      "æĪ": 309,
      "æ²": 310,
      "èµ": 311,
      "äºº": 312,
      "èĢ": 313,
      "å¾Ĺ": 314,
      "ç¥": 315,
      "æĹ": 316,
      "ä¹Ī": 317,
      "åĦ¿": 318,
      "è½¦": 319,
      "ä¹Ł": 320,
      "æ²¡": 321,
      "¥åŃĲ": 322,
      "èĩ": 323,
      "ç¥¥åŃĲ": 324,
      "çĶ": 325,
      "åį": 326,
      "åı¯": 327,
      "åĪ°": 328,
      "ï¼Ľ": 329,
      "æĥ": 330,
      "å¥¹": 331,
      "ä¼": 332,
      "æĬ": 333,
      "åĩº": 334,
      "æĭ": 335,
      "éĤ": 336,
      "éĩ": 337,
      "èĩª": 338,
      "éĤ£": 339,
      "æĢ": 340,
      "ç»": 341,
      "åĽ": 342,
      "åĳ": 343,
      "å°±": 344,
      "å¤§": 345,
      "å¥½": 346,
      "çĤ": 347,
      "çľĭ": 348,
      "åĨ": 349,
      "éĹ": 350,
      "è¯´": 351,
      "å¤©": 352,
      "å¹": 353,
      "åĬ": 354,
      "çĤ¹": 355,
      "éĩĮ": 356,
      "ä½ł": 357,
      "æĥ³": 358,
      "éĥ½": 359,
      "ä»¬": 360,
      "æ°": 361,
      "Ĵ±": 362,
      "æĪĳ": 363,
      "è§": 364,
      "æĬĬ": 365,
      "å·±": 366,
      "å¼": 367,
      "èĩªå·±": 368,
      "è¿ĺ": 369,
      "å¤´": 370,
      "å¿ĥ": 371,
      "ï¼Ł": 372,
      "å°ı": 373,
      "è·": 374,
      "æł": 375,
      "æķ": 376,
      "¦ģ": 377,
      "æŃ": 378,
      "èĥ½": 379,
      "è¦ģ": 380,
      "ä¸Ń": 381,
      "ä¸ĭ": 382,
      "éĴ±": 383,
      "è¿ĩ": 384,
      "èĢģ": 385,
      "éĿ": 386,
      "äºĽ": 387,
      "åĿ": 388,
      "å¦": 389,
      "âĢ": 390,
      "åı¯æĺ¯": 391,
      "å¸": 392,
      "Ģä¹Ī": 393,
      "ä»Ģä¹Ī": 394,
      "å®¶": 395,
      "ï¼ģ\"": 396,
      "èµ·": 397,
      "æĭī": 398,
      "è®": 399,
      "äºĭ": 400,
      "è¡": 401,
      "åĢ": 402,
      "èĢĮ": 403,
      "èĦ": 404,
      "å¤ļ": 405,
      "âĢĶ": 406,
      "Ļ½": 407,
      "åĵ": 408,
      "æĹ¶": 409,
      "åıĪ": 410,
      "æĦ": 411,
      "è±": 412,
      "æ°Ķ": 413,
      "æł·": 414,
      "çĶŁ": 415,
      "åĴ": 416,
      "è¾": 417,
      "éģ": 418,
      "ä»¥": 419,
      "èµ°": 420,
      "è±¡": 421,
      "ä¸º": 422,
      "åĳ¢": 423,
      "ï¼ļ": 424,
      "æ²¡æľī": 425,
      "åıª": 426,
      "æĶ": 427,
      "çĪ": 428,
      "åħĪ": 429,
      "æĸ": 430,
      "ä¼ļ": 431,
      "æĽ": 432,
      "çĦ": 433,
      "çŁ": 434,
      "å±": 435,
      "åĨį": 436,
      "çĽ": 437,
      "çĦ¶": 438,
      "å¯": 439,
      "ç®": 440,
      "ä¾": 441,
      "å¤ª": 442,
      "æ´": 443,
      "çļĦç": 444,
      "ä¼¼": 445,
      "ç»Ļ": 446,
      "å½": 447,
      "æĦı": 448,
      "åĸ": 449,
      "åĩł": 450,
      "å£": 451,
      "èĻ": 452,
      "æīĵ": 453,
      "çľ¼": 454,
      "çĻ½": 455,
      "èº": 456,
      "ä¸İ": 457,
      "ä»ĸçļĦ": 458,
      "åº": 459,
      "æ¯": 460,
      "åĪ«": 461,
      "åī": 462,
      "åľ°": 463,
      "åĽŀ": 464,
      "åĲĥ": 465,
      "éģĵ": 466,
      "ä¸¤": 467,
      "åĴĮ": 468,
      "é©": 469,
      "æĮ": 470,
      "æ³": 471,
      "å·²": 472,
      "è°": 473,
      "éª": 474,
      "èĻİ": 475,
      "è¯Ŀ": 476,
      "çŁ¥": 477,
      "ä¹°": 478,
      "æīĭ": 479,
      "çī": 480,
      "ä½ľ": 481,
      "å¾Ī": 482,
      "çĥ": 483,
      "¥¿": 484,
      "èĤ": 485,
      "è§ģ": 486,
      "åı£": 487,
      "åĢĻ": 488,
      "è§ī": 489,
      "æĺİ": 490,
      "é¡": 491,
      "å¾Ģ": 492,
      "åĽĽ": 493,
      "æĢİ": 494,
      "è¶": 495,
      "ä¾¿": 496,
      "å£°": 497,
      "åħĪçĶŁ": 498,
      "åįģ": 499,
      "åĲİ": 500,
      "éĻ": 501,
      "éĹ¨": 502,
      "èº«": 503,
      "èĭ": 504,
      "çİ": 505,
      "ä¸įèĥ½": 506,
      "ä¸Ģä¸ª": 507,
      "æĹ¶åĢĻ": 508,
      "åĮ": 509,
      "å¿«": 510,
      "éĢ": 511,
      "è¥¿": 512,
      "åĿĹ": 513,
      "æĻ": 514,
      "çģ": 515,
      "åĲ§": 516,
      "å¯¹": 517,
      "æħ": 518,
      "å½ĵ": 519,
      "æĪĲ": 520,
      "äºĮ": 521,
      "âĢĶâĢĶ": 522,
      "ä¹İ": 523,
      "æİ": 524,
      "ä»ĸä»¬": 525,
      "è¿Ļä¹Ī": 526,
      "è´": 527,
      "èĥ": 528,
      "ä½ı": 529,
      "å¦ŀ": 530,
      "èĻİå¦ŀ": 531,
      "è¢": 532,
      "è¿Ļä¸ª": 533,
      "ï¼Ł\"": 534,
      "æ¸": 535,
      "ä¹Łä¸į": 536,
      "ä½¿": 537,
      "å¹²": 538,
      "èµ·æĿ¥": 539,
      "éļ": 540,
      "å¼Ģ": 541,
      "ï¼ļ\"": 542,
      "é£": 543,
      "æĶ¾": 544,
      "åīį": 545,
      "ç¬": 546,
      "ä¸ī": 547,
      "ä¸ľ": 548,
      "éĤ£ä¹Ī": 549,
      "èĬ": 550,
      "éĺ": 551,
      "åħ¨": 552,
      "éĿ¢": 553,
      "è·ĳ": 554,
      "çŃ": 555,
      "éĽ": 556,
      "èĩªå·±çļĦ": 557,
      "å¤§å®¶": 558,
      "é«": 559,
      "å§": 560,
      "æŀ": 561,
      "äºĨä¸Ģ": 562,
      "é»": 563,
      "çĶ¨": 564,
      "å¿ĥä¸Ń": 565,
      "ç©": 566,
      "æīį": 567,
      "å¹´": 568,
      "åĬ¨": 569,
      "æĽ¹": 570,
      "çŁ¥éģĵ": 571,
      "é«ĺ": 572,
      "åıĳ": 573,
      "æĹł": 574,
      "çº": 575,
      "åįĸ": 576,
      "æ±": 577,
      "æĸ¹": 578,
      "æģ": 579,
      "ä»ĸä¸į": 580,
      "é¥": 581,
      "éĵ": 582,
      "å¤Ħ": 583,
      "æī¾": 584,
      "åĲ¬": 585,
      "åĩºæĿ¥": 586,
      "æķ¢": 587,
      "åĿĲ": 588,
      "åģ": 589,
      "çĹ": 590,
      "å±ĭ": 591,
      "ç§": 592,
      "è¿Ľ": 593,
      "âĳ": 594,
      "å¤«": 595,
      "è¿ŀ": 596,
      "ç«": 597,
      "èħ": 598,
      "å¤ĸ": 599,
      "æĳ": 600,
      "ä¸įæĺ¯": 601,
      "è¶Ĭ": 602,
      "æĭ¿": 603,
      "ç®Ĺ": 604,
      "æŃ»": 605,
      "åħī": 606,
      "ç¦": 607,
      "å°ĳ": 608,
      "ç¢": 609,
      "æ³ķ": 610,
      "åĬĽ": 611,
      "æīĢ": 612,
      "èĦ¸": 613,
      "è§īå¾Ĺ": 614,
      "ç»ı": 615,
      "è°ģ": 616,
      "ä¸ĢçĤ¹": 617,
      "å®Į": 618,
      "ä¸ľè¥¿": 619,
      "åı¯ä»¥": 620,
      "åĽł": 621,
      "å¥³": 622,
      "åĪĺ": 623,
      "å¹¶": 624,
      "è·Ł": 625,
      "çĽ´": 626,
      "æ´»": 627,
      "æħ¢": 628,
      "æ¬": 629,
      "ç´": 630,
      "èĲ": 631,
      "å®ļ": 632,
      "çľŁ": 633,
      "çİ°": 634,
      "èĬ±": 635,
      "è¾¹": 636,
      "åĺ": 637,
      "ä¸»": 638,
      "éĿŀ": 639,
      "ä¿": 640,
      "åĸĿ": 641,
      "å¨": 642,
      "æ£": 643,
      "ä¸Ķ": 644,
      "æĢķ": 645,
      "è¢«": 646,
      "ãĢĤ\"": 647,
      "çĶ±": 648,
      "æ°´": 649,
      "æŃ£": 650,
      "ä¼¼çļĦ": 651,
      "é©¬": 652,
      "éķ": 653,
      "åįĬ": 654,
      "éĹ´": 655,
      "çĪ·": 656,
      "æĽ´": 657,
      "ä¼¼ä¹İ": 658,
      "çļĦäºº": 659,
      "çļĦæĹ¶åĢĻ": 660,
      "å¿½": 661,
      "åĵª": 662,
      "çŃī": 663,
      "çĭ": 664,
      "çļĦäºĭ": 665,
      "åĩºåİ»": 666,
      "å°±æĺ¯": 667,
      "å¸¸": 668,
      "è¡Į": 669,
      "è¾Ĩ": 670,
      "æķĻ": 671,
      "å¦Ī": 672,
      "è®¸": 673,
      "å¤ªå¤ª": 674,
      "ä»İ": 675,
      "æĽ¹åħĪçĶŁ": 676,
      "èĦļ": 677,
      "ç®¡": 678,
      "ç¦ı": 679,
      "æĭīè½¦": 680,
      "è¡Ĺ": 681,
      "ç¬ĳ": 682,
      "é»ĳ": 683,
      "æ»": 684,
      "å¿ħ": 685,
      "è¿ľ": 686,
      "è¿Ļæł·": 687,
      "èĲ½": 688,
      "æĦ¿": 689,
      "è·¯": 690,
      "åķ": 691,
      "æ¸ħ": 692,
      "åĪĩ": 693,
      "æĥħ": 694,
      "åĬŀ": 695,
      "é£İ": 696,
      "çº¢": 697,
      "éķ¿": 698,
      "ç¦ıåŃĲ": 699,
      "æµ": 700,
      "æ·": 701,
      "éħ": 702,
      "å°ıç¦ıåŃĲ": 703,
      "æĸ°": 704,
      "è½¦å¤«": 705,
      "åĽłä¸º": 706,
      "åŁ": 707,
      "å¼º": 708,
      "èĻ½": 709,
      "ä½Ľ": 710,
      "åĪ°äºĨ": 711,
      "çľĭçĿĢ": 712,
      "èĭ¦": 713,
      "çİ°åľ¨": 714,
      "ä»¿": 715,
      "æĿ¡": 716,
      "åĪĺåĽĽ": 717,
      "åıĹ": 718,
      "åĲĮ": 719,
      "åĳ½": 720,
      "ä»¿ä½Ľ": 721,
      "è£": 722,
      "äº®": 723,
      "å¸¦": 724,
      "æ¯Ķ": 725,
      "åľ°æĸ¹": 726,
      "é©¼": 727,
      "éļ¾": 728,
      "ç¨": 729,
      "ç²": 730,
      "Ĩé©¼": 731,
      "åĲĳ": 732,
      "å®ĥ": 733,
      "è½»": 734,
      "æĢĿ": 735,
      "å¹³": 736,
      "èĢģå¤´": 737,
      "åĢĴ": 738,
      "éªĨé©¼": 739,
      "åĺ´": 740,
      "çĥŃ": 741,
      "éĻ¢": 742,
      "éĶ": 743,
      "èī": 744,
      "äºİ": 745,
      "çł": 746,
      "ä¸ĬçļĦ": 747,
      "çĪ±": 748,
      "ç¾": 749,
      "æĢİæł·": 750,
      "èĢģå¤´åŃĲ": 751,
      "èį": 752,
      "å¥¹çļĦ": 753,
      "éĿĻ": 754,
      "å·²ç»ı": 755,
      "èĻ½çĦ¶": 756,
      "èĮ": 757,
      "æľĽ": 758,
      "æĪĸ": 759,
      "é¥Ń": 760,
      "ç«ĭ": 761,
      "é¢": 762,
      "ä¸Ģå¤©": 763,
      "æľĪ": 764,
      "æľīçĤ¹": 765,
      "æĢ¥": 766,
      "ç¼": 767,
      "æľ¬": 768,
      "å¿½çĦ¶": 769,
      "çħ": 770,
      "åı«": 771,
      "ä½İ": 772,
      "åŁİ": 773,
      "æį": 774,
      "çĸ": 775,
      "ä¸ĢäºĽ": 776,
      "ä½Ĩ": 777,
      "æĹ¢": 778,
      "è¿ĺæĺ¯": 779,
      "æļ": 780,
      "ä¸ĢåĪĩ": 781,
      "èĤ¯": 782,
      "èĩ³": 783,
      "ç§į": 784,
      "å®ŀ": 785,
      "åį³": 786,
      "éĤ£ä¸ª": 787,
      "è¡£": 788,
      "èĢĮä¸Ķ": 789,
      "åĽŀæĿ¥": 790,
      "ï¼Į\"": 791,
      "ä¹±": 792,
      "å·¥": 793,
      "æ¥": 794,
      "åı¥": 795,
      "è¿ĩåİ»": 796,
      "æľĢ": 797,
      "æĪ¿": 798,
      "æĹ©": 799,
      "æ¡": 800,
      "åİĤ": 801,
      "çķ": 802,
      "èµ¶": 803,
      "çľĭè§ģ": 804,
      "åĴ±": 805,
      "çĿ¡": 806,
      "æŃ¤": 807,
      "ç©º": 808,
      "åĪĺåĽĽçĪ·": 809,
      "åĶ": 810,
      "åĪļ": 811,
      "ä¸»æĦı": 812,
      "éĴ": 813,
      "éľ": 814,
      "æľīäºĽ": 815,
      "çł´": 816,
      "åŃ©": 817,
      "æĶ¶": 818,
      "åºĶ": 819,
      "åĮħ": 820,
      "åĹ": 821,
      "ç³": 822,
      "äºĶ": 823,
      "ä¸įæķ¢": 824,
      "åĪĨ": 825,
      "æŃ¥": 826,
      "æ¯Ľ": 827,
      "å²": 828,
      "æľį": 829,
      "ç¥ŀ": 830,
      "æĹ¥": 831,
      "æ±Ĺ": 832,
      "éĵº": 833,
      "å¨ĺ": 834,
      "åł": 835,
      "æı": 836,
      "æĲ": 837,
      "äº¤": 838,
      "ç¥¥åŃĲçļĦ": 839,
      "åĪ«çļĦ": 840,
      "æĻļ": 841,
      "çĹĽ": 842,
      "ä»¶": 843,
      "å®ī": 844,
      "ä¼ļåĦ¿": 845,
      "åĸľ": 846,
      "èĭ¥": 847,
      "åĮĹ": 848,
      "ç´§": 849,
      "éħĴ": 850,
      "æĺ¯ä¸ª": 851,
      "çģ«": 852,
      "åĤ": 853,
      "æĴ": 854,
      "é¦": 855,
      "äººçļĦ": 856,
      "åĨ³": 857,
      "å¾®": 858,
      "æĢ»": 859,
      "åĨ·": 860,
      "éĹ¹": 861,
      "éļı": 862,
      "éĿŀå¸¸": 863,
      "ä½ķ": 864,
      "å¿ĺ": 865,
      "åĳĢ": 866,
      "åºķ": 867,
      "æĺİçĻ½": 868,
      "çģ¯": 869,
      "èħ¿": 870,
      "è¾Ĩè½¦": 871,
      "èĪ": 872,
      "åľ¨è¿Ļ": 873,
      "è¦ģæĺ¯": 874,
      "å¸Į": 875,
      "èº«ä¸Ĭ": 876,
      "æ»¡": 877,
      "Ł³": 878,
      "çļĦè¯Ŀ": 879,
      "å¦Ĥ": 880,
      "çĹħ": 881,
      "æīĢä»¥": 882,
      "åĴ±ä»¬": 883,
      "æĤ": 884,
      "çĲ": 885,
      "ĵå¾Ĺ": 886,
      "ä»ĸä¸Ģ": 887,
      "åħ«": 888,
      "æĥ³åĪ°": 889,
      "åĵį": 890,
      "åĿĹéĴ±": 891,
      "ä½¿ä»ĸ": 892,
      "æŀģ": 893,
      "ç½": 894,
      "çĮ": 895,
      "åıĭ": 896,
      "ä½ĵ": 897,
      "åĲĹ": 898,
      "å®ħ": 899,
      "åĳĬ": 900,
      "éĹ®": 901,
      "æķ°": 902,
      "éĽª": 903,
      "åģĩ": 904,
      "èĮ¶": 905,
      "å¤ľ": 906,
      "æľīçļĦ": 907,
      "æľīäºĨ": 908,
      "ä¸ĬäºĨ": 909,
      "è¿ĻäºĽ": 910,
      "å¥½è±¡": 911,
      "å¼ł": 912,
      "è¿ĩæĿ¥": 913,
      "ç©¿": 914,
      "å¸ĮæľĽ": 915,
      "ç¡": 916,
      "ĨçļĦ": 917,
      "ä¸įåĩº": 918,
      "åĩĢ": 919,
      "åĩī": 920,
      "è½¬": 921,
      "åħ³": 922,
      "åıªæľī": 923,
      "æĻĵå¾Ĺ": 924,
      "åħµ": 925,
      "äººå®¶": 926,
      "æ´ĭ": 927,
      "å¢": 928,
      "äº²": 929,
      "ä¸įä¼ļ": 930,
      "æĺ¯éĤ£ä¹Ī": 931,
      "å°Ĩ": 932,
      "ä¹Łæ²¡": 933,
      "çľĭçľĭ": 934,
      "æĥ³èµ·": 935,
      "ä¸¤ä¸ª": 936,
      "æĮ£": 937,
      "æĢİä¹Ī": 938,
      "ç¢Ĺ": 939,
      "ç¨ĭ": 940,
      "èī²": 941,
      "å¿Ļ": 942,
      "éĤ£äºĽ": 943,
      "ä¸ĭåİ»": 944,
      "åĩłä¹İ": 945,
      "æ¬¢": 946,
      "æ··": 947,
      "éĶĻ": 948,
      "é¸": 949,
      "éĨ": 950,
      "å®¹": 951,
      "éģĩ": 952,
      "åĪ«äºº": 953,
      "ä¹°åįĸ": 954,
      "é¡¾": 955,
      "æĦ¿æĦı": 956,
      "åŃ©åŃĲ": 957,
      "çĹĽå¿«": 958,
      "æĩ": 959,
      "çª": 960,
      "çļĦä¸Ģ": 961,
      "éĹ²": 962,
      "èĢģç¨ĭ": 963,
      "å¤ļå°ĳ": 964,
      "å±±": 965,
      "é«ĺå¦Ī": 966,
      "åĬĽæ°Ķ": 967,
      "å²ģ": 968,
      "çļĦå°ı": 969,
      "å¤ı": 970,
      "åıį": 971,
      "åİŁ": 972,
      "è¯ī": 973,
      "æķ´": 974,
      "éĽ¨": 975,
      "æħ¢æħ¢": 976,
      "ä¸įè¿ĩ": 977,
      "ä¸įç®¡": 978,
      "åĪ©": 979,
      "æĭ¾": 980,
      "è®¤": 981,
      "éªĤ": 982,
      "å§ĳ": 983,
      "è®¸å¤ļ": 984,
      "çħ§": 985,
      "ä½Ĩæĺ¯": 986,
      "ä¸ĩ": 987,
      "ä¸įå¾Ĺ": 988,
      "ä¸įèĤ¯": 989,
      "åıĺ": 990,
      "ä¸ĢåĿĹ": 991,
      "ä¸Ģè¾¹": 992,
      "èĢħ": 993,
      "è½¦çļĦ": 994,
      "è·³": 995,
      "âĢ¦": 996,
      "æĭīçĿĢ": 997,
      "æĦŁ": 998,
      "çĲĨ": 999,
      "å©": 1000,
      "æ¶": 1001,
      "çŀ": 1002,
      "ä»ĸæĥ³": 1003,
      "ä¹ĭ": 1004,
      "æĿ¥çļĦ": 1005,
      "æĢª": 1006,
      "å¼Ł": 1007,
      "å¿ĥéĩĮ": 1008,
      "æ´Ĺ": 1009,
      "åº§": 1010,
      "é¡¶": 1011,
      "çļ®": 1012,
      "çļĦæĺ¯": 1013,
      "çļĦåľ°æĸ¹": 1014,
      "ä»Ĭ": 1015,
      "ä»ĸä¹Ł": 1016,
      "çĿĢå¤´": 1017,
      "åĩĨ": 1018,
      "åįķ": 1019,
      "æłĳ": 1020,
      "è®º": 1021,
      "çĪ¸": 1022,
      "åĩłä¸ª": 1023,
      "åī©": 1024,
      "çĥŁ": 1025,
      "é¡»": 1026,
      "é©¬ä¸Ĭ": 1027,
      "æ¨": 1028,
      "ç£": 1029,
      "ĭåıĭ": 1030,
      "ä»»": 1031,
      "ä»ĸå°±": 1032,
      "ä»ĸèĩªå·±": 1033,
      "æľĭåıĭ": 1034,
      "åľŁ": 1035,
      "æľīä¸ª": 1036,
      "æľīæĹ¶åĢĻ": 1037,
      "ä»¥ä¸º": 1038,
      "èĥĮ": 1039,
      "é»Ħ": 1040,
      "ä¸ĥ": 1041,
      "æĺĵ": 1042,
      "åħŃ": 1043,
      "éĤ£æł·": 1044,
      "åĳ³": 1045,
      "å¤§çļĦ": 1046,
      "è¯´äºĨ": 1047,
      "åĬ²": 1048,
      "æ°¸": 1049,
      "å±ĭéĩĮ": 1050,
      "âĳł": 1051,
      "åķ¦": 1052,
      "å§ĳå¨ĺ": 1053,
      "¨Ģ": 1054,
      "è¨Ģ": 1055,
      "ä»ĸæ²¡": 1056,
      "æĺ¾": 1057,
      "åŃĹ": 1058,
      "å¦ĩ": 1059,
      "åĵŃ": 1060,
      "æİ¥": 1061,
      "éĺ³": 1062,
      "éĺµ": 1063,
      "é¼": 1064,
      "çļĦè½¦": 1065,
      "åľº": 1066,
      "å·¦": 1067,
      "ä¼Ļ": 1068,
      "éĩĳ": 1069,
      "ç»ĵ": 1070,
      "éĥ½æĺ¯": 1071,
      "å¼Ħ": 1072,
      "å¸®": 1073,
      "å¸ĥ": 1074,
      "æĦıæĢĿ": 1075,
      "åľ°ä¸Ĭ": 1076,
      "é¡º": 1077,
      "èĥ¡": 1078,
      "åĿĲåľ¨": 1079,
      "è·ŁçĿĢ": 1080,
      "åĳĬè¯ī": 1081,
      "æ¦": 1082,
      "ä»ĸè§īå¾Ĺ": 1083,
      "ä¹Ĳ": 1084,
      "å®³": 1085,
      "è¿Ļæĺ¯": 1086,
      "æķ£": 1087,
      "äºĭæĥħ": 1088,
      "çİ©": 1089,
      "äºĮåįģ": 1090,
      "éĺ®": 1091,
      "éĵľ": 1092,
      "ä¿¡": 1093,
      "è¡Ĺä¸Ĭ": 1094,
      "éľ²": 1095,
      "éĿŀå¸¸çļĦ": 1096,
      "åģĩèĭ¥": 1097,
      "å¤Ł": 1098,
      "ä»ĸæĬĬ": 1099,
      "ä¸įçŁ¥": 1100,
      "è¿Ļä¸Ģ": 1101,
      "åĬł": 1102,
      "æł¹": 1103,
      "èĤī": 1104,
      "è¿Ľåİ»": 1105,
      "åįĬå¤©": 1106,
      "åĬŀæ³ķ": 1107,
      "éĺ®æĺİ": 1108,
      "ä»½": 1109,
      "ä»ĸå¿ĥä¸Ń": 1110,
      "å¥Ķ": 1111,
      "æĿ¥äºĨ": 1112,
      "çľĭäºĨ": 1113,
      "è®²": 1114,
      "è±¡ä¸ª": 1115,
      "åĸĬ": 1116,
      "çī¹": 1117,
      "çīĩ": 1118,
      "èĤļ": 1119,
      "éĢģ": 1120,
      "äºĮå¼º": 1121,
      "å¼ĢäºĨ": 1122,
      "å§ĭ": 1123,
      "èħ°": 1124,
      "åºĶå½ĵ": 1125,
      "å¿ĺäºĨ": 1126,
      "å¢Ļ": 1127,
      "éŁ³": 1128,
      "ä»ĸåıĪ": 1129,
      "è¯¥": 1130,
      "äººåĴĮ": 1131,
      "çĶ·": 1132,
      "å¥½äºĨ": 1133,
      "ç»Ļä»ĸ": 1134,
      "æ¯ı": 1135,
      "çīĻ": 1136,
      "èĦ¸ä¸Ĭ": 1137,
      "å®Įåħ¨": 1138,
      "ç¾İ": 1139,
      "æļĹ": 1140,
      "åį³ä½¿": 1141,
      "æ¡¥": 1142,
      "ç³»": 1143,
      "æ°¸è¿ľ": 1144,
      "æ¦Ĥ": 1145,
      "å«": 1146,
      "æ¼": 1147,
      "ç¤": 1148,
      "ä»ĸåıª": 1149,
      "ä¸įäºĨ": 1150,
      "åįĹ": 1151,
      "éĩı": 1152,
      "å¤§æ¦Ĥ": 1153,
      "è®©": 1154,
      "æ³ª": 1155,
      "éĢĥ": 1156,
      "æĳ¸": 1157,
      "æ£ļ": 1158,
      "çķĻ": 1159,
      "åĸľæ¬¢": 1160,
      "æ¢": 1161,
      "ä¸įå¥½": 1162,
      "äºĨäºĽ": 1163,
      "ä½į": 1164,
      "åĲĪ": 1165,
      "åħ¥": 1166,
      "åĪ°åºķ": 1167,
      "æĭĽ": 1168,
      "æĶ¾åľ¨": 1169,
      "åģ·": 1170,
      "å±ĭä¸Ń": 1171,
      "âĳ¡": 1172,
      "å¹¶ä¸į": 1173,
      "èį¯": 1174,
      "åĤ»": 1175,
      "æĩĴ": 1176,
      "æħ¢æħ¢çļĦ": 1177,
      "¢äºĨ": 1178,
      "çĻ": 1179,
      "ĵ¦": 1180,
      "ä¸ĸ": 1181,
      "ä¹Łè®¸": 1182,
      "å¥½çļĦ": 1183,
      "è§ģäºĨ": 1184,
      "æĺİå¤©": 1185,
      "è¶³": 1186,
      "æİ¢": 1187,
      "æĳĩ": 1188,
      "å¥³åĦ¿": 1189,
      "å¨¶": 1190,
      "çļĦä¸ľè¥¿": 1191,
      "è¿·": 1192,
      "ä¸ĢçĽ´": 1193,
      "ä¸Ģä¼ļåĦ¿": 1194,
      "æĺ¯ä¸Ģ": 1195,
      "æĿĤ": 1196,
      "åĲ¸": 1197,
      "æĹģ": 1198,
      "éĹ·": 1199,
      "è¯´è¯Ŀ": 1200,
      "åĿı": 1201,
      "æĮĤ": 1202,
      "æ¸Ĳ": 1203,
      "æģ¶": 1204,
      "å®¹æĺĵ": 1205,
      "¬¼": 1206,
      "èŃ": 1207,
      "é¬¼": 1208,
      "ä»ĸè¿ĺ": 1209,
      "åı¦": 1210,
      "çĿĢçĤ¹": 1211,
      "ä¹Łå¾Ĺ": 1212,
      "ä¹Łå°±": 1213,
      "èĩªçĦ¶": 1214,
      "éĤ£çĤ¹": 1215,
      "ç»¿": 1216,
      "è¦ģå¼º": 1217,
      "åĢŁ": 1218,
      "å±Ī": 1219,
      "çĽ¸": 1220,
      "ç®Ģ": 1221,
      "ç»Ļä½ł": 1222,
      "çģ°": 1223,
      "é£ŀ": 1224,
      "æģ¨": 1225,
      "åģľ": 1226,
      "æ¬¡": 1227,
      "çĭ¬": 1228,
      "æ¥ŀ": 1229,
      "åħ³ç³»": 1230,
      "å©Ĩ": 1231,
      "èĤļåŃĲ": 1232,
      "äºĮå¼ºåŃĲ": 1233,
      "æŁ": 1234,
      "è¹": 1235,
      "éº": 1236,
      "é½": 1237,
      "ä»ĸçŁ¥éģĵ": 1238,
      "ä¸įåĪ°": 1239,
      "ä¸įå¤§": 1240,
      "ä¸įçĶ¨": 1241,
      "ä¸Ģå£°": 1242,
      "åŃ¦": 1243,
      "åĲĦ": 1244,
      "å®¢": 1245,
      "è¯Ń": 1246,
      "çľģ": 1247,
      "å·®": 1248,
      "äººä»¬": 1249,
      "çĶµ": 1250,
      "è¿ĺæľī": 1251,
      "è¿ĩäºĨ": 1252,
      "ä»¥åīį": 1253,
      "åĨįè¯´": 1254,
      "çĽĸ": 1255,
      "åĽŀäºĭ": 1256,
      "ä¹°ä¸Ĭ": 1257,
      "æģ¯": 1258,
      "ç´¢": 1259,
      "é¦Ļ": 1260,
      "èŃ¦": 1261,
      "æ®": 1262,
      "å¤±": 1263,
      "ä»ĸæĺ¯": 1264,
      "ä»ĸä¸įèĥ½": 1265,
      "åıĬ": 1266,
      "æľ¨": 1267,
      "çĿĢä¸Ģ": 1268,
      "å¾ħ": 1269,
      "æĪĺ": 1270,
      "ç»Ĩ": 1271,
      "è¿ĺæ²¡": 1272,
      "å¤´ä¸Ĭ": 1273,
      "æķħ": 1274,
      "èĢģèĢħ": 1275,
      "åĵ¼": 1276,
      "å¯¿": 1277,
      "å½±": 1278,
      "æħĮ": 1279,
      "æĪĲäºĨ": 1280,
      "ä½ıäºĨ": 1281,
      "ä¸īåįģ": 1282,
      "æĳĨ": 1283,
      "çŃīçĿĢ": 1284,
      "æµ·": 1285,
      "ä½İçĿĢå¤´": 1286,
      "ç¡¬": 1287,
      "éĨĴ": 1288,
      "äººåĴĮåİĤ": 1289,
      "æº": 1290,
      "èģ": 1291,
      "èı": 1292,
      "Ķå±Ī": 1293,
      "äºĨä¸¤": 1294,
      "åĪĿ": 1295,
      "åĲ¹": 1296,
      "æī«": 1297,
      "è¿ĻçĤ¹": 1298,
      "è¿ĻéĩĮ": 1299,
      "æĹ§": 1300,
      "æĹ¥åŃĲ": 1301,
      "ä¹Łæ²¡æľī": 1302,
      "çĶļ": 1303,
      "ç»ķ": 1304,
      "ç»Ŀ": 1305,
      "åĳĨ": 1306,
      "å°±å¾Ĺ": 1307,
      "è®¡": 1308,
      "éªĮ": 1309,
      "çīĮ": 1310,
      "å£°éŁ³": 1311,
      "ç¬¬": 1312,
      "å§Ķå±Ī": 1313,
      "ä¿©": 1314,
      "å¹³æĹ¥": 1315,
      "æį¢": 1316,
      "æ¥ļ": 1317,
      "é½Ĳ": 1318,
      "åĭ": 1319,
      "ä»·": 1320,
      "ä¸įè¦ģ": 1321,
      "äºĨçĤ¹": 1322,
      "ä¹¦": 1323,
      "ä¹Ŀ": 1324,
      "æĿ¨": 1325,
      "åĩĳ": 1326,
      "è¯Ĩ": 1327,
      "æ²¡äºĨ": 1328,
      "èĩŃ": 1329,
      "éĩį": 1330,
      "åĨ°": 1331,
      "åĨ»": 1332,
      "éĹŃ": 1333,
      "æĬĬè½¦": 1334,
      "è¿ĺä¸į": 1335,
      "åĴ¬": 1336,
      "åıªè¦ģ": 1337,
      "çĪ¶": 1338,
      "ä¾¦": 1339,
      "çļĦçģ": 1340,
      "è°ĥ": 1341,
      "è§īåĩº": 1342,
      "å¾Ģä¸ĭ": 1343,
      "èĬĤ": 1344,
      "å®ĥä»¬": 1345,
      "éĻ¢éĩĮ": 1346,
      "éĻ¢ä¸Ń": 1347,
      "æĶ¶æĭ¾": 1348,
      "éĵºçĽĸ": 1349,
      "åº§åĦ¿": 1350,
      "åī©ä¸ĭ": 1351,
      "éľ²åĩº": 1352,
      "äºī": 1353,
      "äºĳ": 1354,
      "ä¸įåİ»": 1355,
      "æľº": 1356,
      "å¥¶": 1357,
      "å°½": 1358,
      "åĩŃ": 1359,
      "å®ľ": 1360,
      "è¯ķ": 1361,
      "åħ´": 1362,
      "å·¡": 1363,
      "å·´": 1364,
      "åı¯çĪ±": 1365,
      "éĤ£éĩĮ": 1366,
      "åĨ¬": 1367,
      "è¯´ä»Ģä¹Ī": 1368,
      "ä½łçļĦ": 1369,
      "æĪĳçļĦ": 1370,
      "è§£": 1371,
      "éĿĴ": 1372,
      "è®°": 1373,
      "å¤ļäºĨ": 1374,
      "çī©": 1375,
      "å¹´è½»": 1376,
      "ç¢°": 1377,
      "ä¿Ŀ": 1378,
      "åĵªåĦ¿": 1379,
      "åĵªéĩĮ": 1380,
      "ç¾¤": 1381,
      "åĨ³å®ļ": 1382,
      "ä»Ĭå¤©": 1383,
      "ä»»ä½ķ": 1384,
      "èıľ": 1385,
      "ä¾¦æİ¢": 1386,
      "å¡": 1387,
      "çĺ": 1388,
      "èĵ": 1389,
      "æĿ¾": 1390,
      "æľīä»Ģä¹Ī": 1391,
      "å¿į": 1392,
      "èĢ³": 1393,
      "åį·": 1394,
      "åĩºäºĨ": 1395,
      "è¡Ģ": 1396,
      "å¤ļä¹Ī": 1397,
      "åıªå¥½": 1398,
      "ä»ĸçļĦå¿ĥ": 1399,
      "éª¨": 1400,
      "å¾Ģåīį": 1401,
      "æİī": 1402,
      "ä¸īä¸ª": 1403,
      "æĭ¿çĿĢ": 1404,
      "ç¦»": 1405,
      "å¸¦çĿĢ": 1406,
      "åŁİéĩĮ": 1407,
      "çªĿ": 1408,
      "æ¨ª": 1409,
      "çĻ¾": 1410,
      "çĭ¬èĩª": 1411,
      "æºľ": 1412,
      "ç¿": 1413,
      "ä»Ĩ": 1414,
      "å¤ĩ": 1415,
      "ä¸įä¸Ĭ": 1416,
      "äºĨä¸ª": 1417,
      "è¿ĳ": 1418,
      "åı·": 1419,
      "ä¸Ģæł·": 1420,
      "ä¸ĢæĿ¡": 1421,
      "æľīäºº": 1422,
      "åħ¶": 1423,
      "å¾Ĺå¾Ī": 1424,
      "æĬ¥": 1425,
      "è¿ĺå¾Ĺ": 1426,
      "æĶ¯": 1427,
      "å¤ªéĺ³": 1428,
      "å£®": 1429,
      "æīĵç®Ĺ": 1430,
      "çĻ½çļĦ": 1431,
      "æĮĩ": 1432,
      "è¶Ł": 1433,
      "ä½¿äºº": 1434,
      "é£Ł": 1435,
      "è¿ĽæĿ¥": 1436,
      "çĭĹ": 1437,
      "æµģ": 1438,
      "è£¤": 1439,
      "èĮ«": 1440,
      "å·¡èŃ¦": 1441,
      "ä¸įçĿĢ": 1442,
      "ä¸įèµ·": 1443,
      "ä¹¡": 1444,
      "ä¸Ģå®ļ": 1445,
      "æĿ¿": 1446,
      "åİī": 1447,
      "è½¯": 1448,
      "åİ»äºĨ": 1449,
      "ç¥¥åŃĲæ²¡": 1450,
      "æĬ¬": 1451,
      "åĽ°": 1452,
      "åĨµ": 1453,
      "è§Ĵ": 1454,
      "éĿł": 1455,
      "è¡¨": 1456,
      "çĶŁæ´»": 1457,
      "çŁ³": 1458,
      "èºº": 1459,
      "å¾Ģå¤ĸ": 1460,
      "ä¾¿å®ľ": 1461,
      "éĻ©": 1462,
      "èĥĨ": 1463,
      "èĩªå·±çļĦè½¦": 1464,
      "åĿĲä¸ĭ": 1465,
      "ç¢İ": 1466,
      "å¹¶æ²¡": 1467,
      "è¿Ļæł·çļĦ": 1468,
      "ç²¾": 1469,
      "çħ¤": 1470,
      "è¡£æľį": 1471,
      "å·¥å¤«": 1472,
      "éĴŁ": 1473,
      "æıĲ": 1474,
      "ä½ĵéĿ¢": 1475,
      "ç£¨": 1476,
      "¯äºĨ": 1477,
      "èľ": 1478,
      "çļĦè¯´": 1479,
      "ä¸įä½ı": 1480,
      "æĺŁ": 1481,
      "ä¸Ģç§į": 1482,
      "åŃĻ": 1483,
      "åľĪ": 1484,
      "åħ¬": 1485,
      "åİ»æī¾": 1486,
      "æ²¹": 1487,
      "åĦ¿æĿ¥": 1488,
      "èĩªä»İ": 1489,
      "ä¸ĭæĿ¥": 1490,
      "èĢģå©Ĩ": 1491,
      "è®¨": 1492,
      "èĦ±": 1493,
      "ä»¥åĲİ": 1494,
      "åıªæĺ¯": 1495,
      "æĸŃ": 1496,
      "èĥ¸": 1497,
      "å¹²åĩĢ": 1498,
      "æĹłè®º": 1499,
      "ä»ĸä¸įæķ¢": 1500,
      "âĳ¢": 1501,
      "æĳĶ": 1502,
      "å¹¶æ²¡æľī": 1503,
      "æ¸ħæ¥ļ": 1504,
      "èįī": 1505,
      "çĸĳ": 1506,
      "åĮħæľĪ": 1507,
      "éļıçĿĢ": 1508,
      "æĺİçĻ½äºĨ": 1509,
      "ç¡®": 1510,
      "é¸¡": 1511,
      "âĢ¦âĢ¦": 1512,
      "éº»": 1513,
      "åİīå®³": 1514,
      "¥åĦ¿": 1515,
      "åļ": 1516,
      "ä¸įçŁ¥éģĵ": 1517,
      "åı³": 1518,
      "ä¹ī": 1519,
      "ä¸Ģæĥ³": 1520,
      "å®Ŀ": 1521,
      "ä¸ªåŃĲ": 1522,
      "æĿ¥æĺ¯": 1523,
      "è¯·": 1524,
      "åĦ¿çļĦ": 1525,
      "ä¹Łæĺ¯": 1526,
      "å¥¹ä¸į": 1527,
      "çĤķ": 1528,
      "åı¯æĺ¯ä»ĸ": 1529,
      "ä»Ģä¹Īä¹Łä¸į": 1530,
      "åĢ¼": 1531,
      "åĵĪ": 1532,
      "ä¸ºä»Ģä¹Ī": 1533,
      "åĩłå¤©": 1534,
      "èĻİå§ĳå¨ĺ": 1535,
      "ä¹°è½¦": 1536,
      "çĥ§": 1537,
      "åı£æ°Ķ": 1538,
      "æŀ¶": 1539,
      "æģĲ": 1540,
      "åĲ¬åĪ°": 1541,
      "åĿĲçĿĢ": 1542,
      "ç«Ļ": 1543,
      "æ´»çĿĢ": 1544,
      "æĢĿç´¢": 1545,
      "é¢Ħ": 1546,
      "çŀ§": 1547,
      "åĬ²åĦ¿": 1548,
      "æŁ³": 1549,
      "çĨ": 1550,
      "éĥ": 1551,
      "ĨåĹ": 1552,
      "ä»ĸå¾Ĺ": 1553,
      "ä¸įåĨį": 1554,
      "ä¸Ģçľ¼": 1555,
      "æĿĢ": 1556,
      "ä¸ªäºº": 1557,
      "æ²³": 1558,
      "èµģ": 1559,
      "å¥¹ä»¬": 1560,
      "æĬĺ": 1561,
      "ç»Ī": 1562,
      "åĳĨçļĦ": 1563,
      "å¸Ĥ": 1564,
      "åĵĨåĹ": 1565,
      "è¾Ī": 1566,
      "æĶ¹": 1567,
      "çĪ½": 1568,
      "æĮº": 1569,
      "çī²": 1570,
      "éĢı": 1571,
      "è´¢": 1572,
      "è¢Ħ": 1573,
      "éĽ¶": 1574,
      "å¤§å®¶éĥ½": 1575,
      "æĽ¹å®ħ": 1576,
      "é«ĺåħ´": 1577,
      "ç»ıéªĮ": 1578,
      "æļĸ": 1579,
      "çķĮ": 1580,
      "é¦Ĩ": 1581,
      "ç©¿çĿĢ": 1582,
      "çĪ¸çĪ¸": 1583,
      "æ¢¦": 1584,
      "åıĬèĩ³": 1585,
      "åĳĨåĳĨçļĦ": 1586,
      "é¢Ħå¤ĩ": 1587,
      "åĵĨåĹ¦": 1588,
      "\"ãĢĤ": 1589,
      "±éĻ©": 1590,
      "åŀ": 1591,
      "æĵ¦": 1592,
      "ä¸¢äºĨ": 1593,
      "ä»ĸåİ»": 1594,
      "ä»ĸä»¥ä¸º": 1595,
      "åı¶": 1596,
      "ä¸Ģè¾Ĩ": 1597,
      "æĺ¯åľ¨": 1598,
      "åŃĲéĩĮ": 1599,
      "æĿĳ": 1600,
      "æī¯": 1601,
      "æĿ¥åĪ°": 1602,
      "è¿Ļç§į": 1603,
      "åħ»": 1604,
      "å¾ĹäºĨ": 1605,
      "è½¦ä¸Ĭ": 1606,
      "è½¦åİĤ": 1607,
      "çĶ»": 1608,
      "çĶŃ": 1609,
      "åį±éĻ©": 1610,
      "æĬ¢": 1611,
      "æĢĢ": 1612,
      "åĬª": 1613,
      "ä½łä»¬": 1614,
      "æĪĳä»¬": 1615,
      "å¿ĥçļĦ": 1616,
      "ä¸ŃçļĦ": 1617,
      "èĦĳ": 1618,
      "èµ°äºĨ": 1619,
      "çĽĺ": 1620,
      "çĦ¶åĲİ": 1621,
      "ä¾Ŀ": 1622,
      "çļĦçĥ": 1623,
      "èº²": 1624,
      "æīĭéĩĮ": 1625,
      "è§īåĪ°": 1626,
      "éĹ¨å¤ĸ": 1627,
      "èº«ä½ĵ": 1628,
      "çİĭ": 1629,
      "ä¸įèĥ½åĨį": 1630,
      "å¿«çļĦ": 1631,
      "éĢļ": 1632,
      "æ±½": 1633,
      "éĵģ": 1634,
      "å¿ħé¡»": 1635,
      "åķĬ": 1636,
      "æ·±": 1637,
      "éļ¾è¿ĩ": 1638,
      "çĥŃéĹ¹": 1639,
      "èĩ³äºİ": 1640,
      "çľĭè§ģäºĨ": 1641,
      "æ¶Ī": 1642,
      "éĵľåŃĲ": 1643,
      "ä»½åĦ¿": 1644,
      "ä¸ĸçķĮ": 1645,
      "ç¿»": 1646,
      "åĨµä¸Ķ": 1647,
      "ªçĿĢ": 1648,
      "åĻ": 1649,
      "æ¹": 1650,
      "æĨ": 1651,
      "é¥¿": 1652,
      "ĺçĿĢ": 1653,
      "äº§": 1654,
      "çļĦå¤§": 1655,
      "ä¸įæĥ³": 1656,
      "ä¸įè±¡": 1657,
      "ä¸įå¿ħ": 1658,
      "åıĮ": 1659,
      "æĺ¥": 1660,
      "ä¸Ģæ°Ķ": 1661,
      "çĿĽ": 1662,
      "çĿĢæĢ¥": 1663,
      "åĲį": 1664,
      "åĲĲ": 1665,
      "å®ĺ": 1666,
      "æīŃ": 1667,
      "è½¦æĬĬ": 1668,
      "å°±è¿Ļä¹Ī": 1669,
      "éĹ»": 1670,
      "å¤©ä¸Ĭ": 1671,
      "æĬĬéĴ±": 1672,
      "å°ıé©¬": 1673,
      "éĴ±çļĦ": 1674,
      "æł·åŃĲ": 1675,
      "ç»ĻäºĨ": 1676,
      "æĦıçļĦ": 1677,
      "å£¶": 1678,
      "çľ¼çĿĽ": 1679,
      "åĽŀåĪ°": 1680,
      "æĮ¤": 1681,
      "æĮ¨": 1682,
      "è°Ī": 1683,
      "éĻ¤": 1684,
      "åĮĸ": 1685,
      "æİı": 1686,
      "è´¦": 1687,
      "çŃĶ": 1688,
      "æŃ»äºĨ": 1689,
      "çľŁçļĦ": 1690,
      "æĭīè½¦çļĦ": 1691,
      "é»ĳæļĹ": 1692,
      "è£³": 1693,
      "çĸ¼": 1694,
      "è¡£è£³": 1695,
      "åłµ": 1696,
      "éļıä¾¿": 1697,
      "åľ¨è¿ĻåĦ¿": 1698,
      "éĨī": 1699,
      "å¤ıåħĪçĶŁ": 1700,
      "æĦŁåĪ°": 1701,
      "é¼»": 1702,
      "çī¹åĪ«çļĦ": 1703,
      "å§ĭç»Ī": 1704,
      "è¾ĪåŃĲ": 1705,
      "\"ï¼Į": 1706,
      "´çĿĢ": 1707,
      "çĬ": 1708,
      "è¤": 1709,
      "è¸": 1710,
      "éŀ": 1711,
      "ä»ĸä¹Łä¸į": 1712,
      "ä¸įéĶĻ": 1713,
      "ä¹ħ": 1714,
      "ä¸ĢæŃ¥": 1715,
      "æľīä¸Ģ": 1716,
      "åİĮ": 1717,
      "ä¸ªå°ı": 1718,
      "æĪ·": 1719,
      "æ²ī": 1720,
      "æ²¡äºº": 1721,
      "æĬ±": 1722,
      "éĩİ": 1723,
      "åĽ¢": 1724,
      "æĪĳè¯´": 1725,
      "è§Ħ": 1726,
      "å¼¯": 1727,
      "ä¸ĭäºĨ": 1728,
      "èĢģå®ŀ": 1729,
      "èĦĸ": 1730,
      "æ²¡æľīä»Ģä¹Ī": 1731,
      "çŁŃ": 1732,
      "å±Ģ": 1733,
      "å±Ĥ": 1734,
      "çĽ®": 1735,
      "å½¢": 1736,
      "ä¸¤å¤©": 1737,
      "é¡¿": 1738,
      "è´§": 1739,
      "èĻİå¦ŀçļĦ": 1740,
      "è¢ĭ": 1741,
      "å¹²åĲĹ": 1742,
      "å¼Ģå§ĭ": 1743,
      "æŀľ": 1744,
      "æ±ī": 1745,
      "é¥±": 1746,
      "åĲ¬çĿĢ": 1747,
      "æ£ī": 1748,
      "è½¦å¤«çļĦ": 1749,
      "ç«ĭèµ·æĿ¥": 1750,
      "åı¥è¯Ŀ": 1751,
      "æ¡Į": 1752,
      "åĪļæīį": 1753,
      "åłĨ": 1754,
      "æĴĴ": 1755,
      "èĪį": 1756,
      "èĪĴ": 1757,
      "åıįåĢĴ": 1758,
      "æĺ¾çĿĢ": 1759,
      "åĨ¬å¤©": 1760,
      "èĵĿ": 1761,
      "ç²¾ç¥ŀ": 1762,
      "åĳĨåĳĨçļĦçľĭçĿĢ": 1763,
      "åĬªåĬĽ": 1764,
      "ä»ĸä¼¼ä¹İ": 1765,
      "ä¸įæĦ¿": 1766,
      "ä¸įåĲĮ": 1767,
      "ä¸Ģè¶Ł": 1768,
      "çĿģ": 1769,
      "åĲµ": 1770,
      "åľ¨ä¸Ģ": 1771,
      "å¾ĹåĪ°": 1772,
      "ä¹Łä¸įèĥ½": 1773,
      "åįĥ": 1774,
      "åįĪ": 1775,
      "åĩºçĤ¹": 1776,
      "éĤ£ä¸Ģ": 1777,
      "çľĭåĪ°": 1778,
      "åĨħ": 1779,
      "éĩĮçļĦ": 1780,
      "å¸½": 1781,
      "è¡¥": 1782,
      "èĦĨ": 1783,
      "ä¸ºæĺ¯": 1784,
      "æĽ¿": 1785,
      "çŁ©": 1786,
      "æ´¾": 1787,
      "çļĦçī": 1788,
      "çľ¼åīį": 1789,
      "åĲĥå®Į": 1790,
      "æĮĳ": 1791,
      "æ³¨": 1792,
      "çĥ¦": 1793,
      "åĮ¹": 1794,
      "ä»ĸä»¬çļĦ": 1795,
      "ç©·": 1796,
      "æ±Ĥ": 1797,
      "é¥¼": 1798,
      "æī¾åĪ°": 1799,
      "å±ĭåŃĲ": 1800,
      "æŃ£åľ¨": 1801,
      "æķĻä»ĸ": 1802,
      "ç¬ĳäºĨ": 1803,
      "æĸ°çļĦ": 1804,
      "æĢĿæĥ³": 1805,
      "ç¼Ŀ": 1806,
      "èĩ³å°ĳ": 1807,
      "èµ¶åĪ°": 1808,
      "åĶ¯": 1809,
      "åĶĩ": 1810,
      "æĲ¬": 1811,
      "æĲŃ": 1812,
      "æĻļä¸Ĭ": 1813,
      "åĮĹå¹³": 1814,
      "åĤ¬": 1815,
      "æĤĶ": 1816,
      "çĮĽ": 1817,
      "èĮ¶é¦Ĩ": 1818,
      "éģĩä¸Ĭ": 1819,
      "è®¤è¯Ĩ": 1820,
      "åıĺæĪĲ": 1821,
      "å¼Łå¼Ł": 1822,
      "å¦ĩå¥³": 1823,
      "é¼ĵ": 1824,
      "çľĭäºĨçľĭ": 1825,
      "ç®ĢçĽ´": 1826,
      "ä¹°ä¸Ĭè½¦": 1827,
      "äºĨçĤ¹å¤´": 1828,
      "æĨĭ": 1829,
      "èĪĴæľį": 1830,
      "¼çĿĢ": 1831,
      "¾æ°Ķ": 1832,
      "çı": 1833,
      "äº«": 1834,
      "ä»ĸä¼ļ": 1835,
      "ä¸įåı¯": 1836,
      "ä¸įå¤ļ": 1837,
      "äºĨè®¸å¤ļ": 1838,
      "äºĨåįĬå¤©": 1839,
      "ä¹ı": 1840,
      "ä¸Ģä¸ĭ": 1841,
      "æĺ¯æĢİ": 1842,
      "çĿĢäºĽ": 1843,
      "æī®": 1844,
      "åİ»æīĵ": 1845,
      "ä¹Łå¥½": 1846,
      "ç¥¥åŃĲåľ¨": 1847,
      "æĬ¹": 1848,
      "æĬĵ": 1849,
      "æĢľ": 1850,
      "åĽ½": 1851,
      "åĨĽ": 1852,
      "çĤ¹äºĨçĤ¹å¤´": 1853,
      "è¿ĩçļĦ": 1854,
      "æĭīåĪ°": 1855,
      "èĢĮæĺ¯": 1856,
      "åĵ¥åĦ¿": 1857,
      "æĦ§": 1858,
      "æł·çļĦ": 1859,
      "è¾£": 1860,
      "èµ°åĪ°": 1861,
      "èµ°åĲ§": 1862,
      "åĨįåİ»": 1863,
      "çļĦç«": 1864,
      "åĸĦ": 1865,
      "åĽŀåİ»": 1866,
      "åĽŀå¤´": 1867,
      "æ³¥": 1868,
      "åĽĽåįģ": 1869,
      "å¿«ä¹Ĳ": 1870,
      "è´µ": 1871,
      "æĶ¾ä¸ĭ": 1872,
      "ä¸īå¤©": 1873,
      "å§Ĳ": 1874,
      "æŀĹ": 1875,
      "æĹłåı¯": 1876,
      "å¤Ħå¤Ħ": 1877,
      "æ¬º": 1878,
      "çĭ±": 1879,
      "å¿ħå®ļ": 1880,
      "äº®çļĦ": 1881,
      "èī¯": 1882,
      "ç¼ĵ": 1883,
      "æľ¬æĿ¥": 1884,
      "ä¸ĢåĪĩéĥ½": 1885,
      "éĹ²çĿĢ": 1886,
      "åıįæŃ£": 1887,
      "ä¸ĩä¸Ģ": 1888,
      "æ¨¡": 1889,
      "ç£ķ": 1890,
      "çī¹åĪ«": 1891,
      "æ¼Ĥ": 1892,
      "çĽ¸ä¿¡": 1893,
      "éĥ¨": 1894,
      "æ±½è½¦": 1895,
      "å°ıé©¬åĦ¿": 1896,
      "åĵ¥åĦ¿ä»¬": 1897,
      "±¼": 1898,
      "´åĦ¿": 1899,
      "¿Ģ": 1900,
      "æ¿Ģ": 1901,
      "ç±": 1902,
      "èĹ": 1903,
      "é±¼": 1904,
      "ä¸ĵ": 1905,
      "ä¸ļ": 1906,
      "ä»ĸéĥ½": 1907,
      "ä»ĸè¦ģ": 1908,
      "ä»ĸå¾Ī": 1909,
      "ä¸įå®ļ": 1910,
      "ä¸įæ¸ħ": 1911,
      "äºĨå¿ĥ": 1912,
      "è¿Ĳ": 1913,
      "ä¸ĢæĬĬ": 1914,
      "ä¸Ģéĺµ": 1915,
      "ä¸Ģçīĩ": 1916,
      "æľª": 1917,
      "æľµ": 1918,
      "åĪº": 1919,
      "çĿĢä»ĸ": 1920,
      "æī¿": 1921,
      "æīİ": 1922,
      "æĿ¥è¶Ĭ": 1923,
      "å¿µ": 1924,
      "å¾Ĺèµ·": 1925,
      "åį°": 1926,
      "åı¯æĢķ": 1927,
      "æĥĬ": 1928,
      "å¥½ä¼¼": 1929,
      "å¥½åĲ§": 1930,
      "éĹª": 1931,
      "è¯´çļĦ": 1932,
      "åĬ³": 1933,
      "åĬĿ": 1934,
      "åĬŁ": 1935,
      "æł¼": 1936,
      "æĭīä¸Ĭ": 1937,
      "è®¾": 1938,
      "èĢĮåĲİ": 1939,
      "è±¡ä¸Ģ": 1940,
      "åıªèĥ½": 1941,
      "çŁ®": 1942,
      "çĽħ": 1943,
      "æ¯į": 1944,
      "æ¯Ĵ": 1945,
      "æĮī": 1946,
      "åı£ä¸Ń": 1947,
      "åįģåĪĨ": 1948,
      "åĲİæĤĶ": 1949,
      "èº«åŃĲ": 1950,
      "ä¸Ģä¸ªäºº": 1951,
      "å¹²ä»Ģä¹Ī": 1952,
      "äºĨä¸ĢäºĽ": 1953,
      "æģ¼": 1954,
      "é©¬è·¯": 1955,
      "çļĦäººä»¬": 1956,
      "å¦ĪçļĦ": 1957,
      "éªĨé©¼çļĦ": 1958,
      "èīº": 1959,
      "ç«ĭåľ¨": 1960,
      "æĪ¿åŃĲ": 1961,
      "éĴ»": 1962,
      "æĶ¶è½¦": 1963,
      "åłĤ": 1964,
      "å°ĨæĿ¥": 1965,
      "é¡¾ä¸įå¾Ĺ": 1966,
      "åĳĬè¯īä½ł": 1967,
      "ç¤º": 1968,
      "è¶³ä»¥": 1969,
      "æ¸Ĳæ¸Ĳ": 1970,
      "æľºä¼ļ": 1971,
      "çĺ¦": 1972,
      "çĨŁ": 1973,
      "çļĦç«ĭ": 1974,
      "¡®": 1975,
      "èİ": 1976,
      "èĴ": 1977,
      "èĸ": 1978,
      "ä¸¥": 1979,
      "çļĦè½¦å¤«": 1980,
      "å¤¹": 1981,
      "å¤į": 1982,
      "ä»ĸæĻĵå¾Ĺ": 1983,
      "äºĨèµ·æĿ¥": 1984,
      "ä¸ĢåĲĳ": 1985,
      "å¥ĩ": 1986,
      "åĪ»": 1987,
      "çĿĢäºĨ": 1988,
      "çĿĢçľ¼": 1989,
      "å°ĸ": 1990,
      "åĲĵ": 1991,
      "æľīæĹ¶": 1992,
      "å®½": 1993,
      "ä¸ªçļĦ": 1994,
      "åİ»æĭīè½¦": 1995,
      "åľ¨å®¶": 1996,
      "åľ¨åľ°ä¸Ĭ": 1997,
      "æ²¡æ³ķ": 1998,
      "ç¥¥åŃĲæĺ¯": 1999,
      "åį´": 2000,
      "ä¼¸": 2001,
      "ä¼ĳ": 2002,
      "ä¼ł": 2003,
      "åĩºä¸Ģ": 2004,
      "æĭ¦": 2005,
      "ç»§": 2006,
      "å°±ä¸į": 2007,
      "å°±èĥ½": 2008,
      "å¥½åĩł": 2009,
      "å¥½å¤Ħ": 2010,
      "è¯´çĿĢ": 2011,
      "åĬ©": 2012,
      "ä½łè¯´": 2013,
      "æŃ¢": 2014,
      "èĦ¾æ°Ķ": 2015,
      "è¾Ľ": 2016,
      "çĪ¬": 2017,
      "çļĦç¡®": 2018,
      "ç»ĻæĪĳ": 2019,
      "æīĵæī®": 2020,
      "çĻ½å¤©": 2021,
      "åº¦": 2022,
      "æĢİèĥ½": 2023,
      "åĲİçļĦ": 2024,
      "æĻ´": 2025,
      "å½ĵçļĦ": 2026,
      "è´¹": 2027,
      "èĥľ": 2028,
      "çº¸": 2029,
      "åįĸäºĨ": 2030,
      "åĲ¬è§ģ": 2031,
      "è¶ĬæĿ¥è¶Ĭ": 2032,
      "åĬĽéĩı": 2033,
      "è°ģä¹Łä¸į": 2034,
      "åĪĺèĢģå¤´åŃĲ": 2035,
      "æ£±": 2036,
      "æ»ļ": 2037,
      "æµ®": 2038,
      "æ·¡": 2039,
      "å°ıç¦ıåŃĲçļĦ": 2040,
      "è½¦å¤«ä»¬": 2041,
      "ç²Ĺ": 2042,
      "éĻ¢åŃĲ": 2043,
      "ç¼º": 2044,
      "æ¥¼": 2045,
      "å¦Ĥä½ķ": 2046,
      "ç½ª": 2047,
      "åĩīé£İ": 2048,
      "æĮ£éĴ±": 2049,
      "éģĩåĪ°": 2050,
      "åŃ©åŃĲä»¬": 2051,
      "åĪ©èĲ½": 2052,
      "çŀª": 2053,
      "åħŃåįģ": 2054,
      "èĥ¡åĲĮ": 2055,
      "æĿĤéĻ¢éĩĮ": 2056,
      "ä»Ĩäºº": 2057,
      "çī²åı£": 2058,
      "éŀĭ": 2059,
      "èĦĸåŃĲ": 2060,
      "æ³¨æĦı": 2061,
      "²ä¹ı": 2062,
      "çĵ": 2063,
      "èļ": 2064,
      "ĹçĿĢ": 2065,
      "ĻçļĦ": 2066,
      "ä»ĸæľī": 2067,
      "ä»ĸæīĢ": 2068,
      "ä¸įæĢķ": 2069,
      "ä¸įå¤Ł": 2070,
      "è¿½": 2071,
      "æĺı": 2072,
      "ä¸Ģè¾Ĩè½¦": 2073,
      "å¥Ĺ": 2074,
      "åľĨ": 2075,
      "è¿Ļä¸įæĺ¯": 2076,
      "åľ¨äºĨ": 2077,
      "åľ¨è¿Ļä¸ª": 2078,
      "èµĶ": 2079,
      "åĦ¿åŃĲ": 2080,
      "åįł": 2081,
      "åĪ°å¤Ħ": 2082,
      "åĩºè½¦": 2083,
      "æĢ§": 2084,
      "ç»Ń": 2085,
      "åĳ¼": 2086,
      "è¯´å¾Ĺ": 2087,
      "è¯´å®Į": 2088,
      "å¤©çļĦ": 2089,
      "å¤©æ¡¥": 2090,
      "å°ıå¿ĥ": 2091,
      "è·º": 2092,
      "èĢģäºº": 2093,
      "äºĭåĦ¿": 2094,
      "åĴ½": 2095,
      "åĴĲ": 2096,
      "éģį": 2097,
      "æ²¡æľīä¸ĢçĤ¹": 2098,
      "æĸĩ": 2099,
      "å±ħ": 2100,
      "å½Ĵ": 2101,
      "åĩłåı¥": 2102,
      "ä»ĸçļĦè½¦": 2103,
      "åĲĥé¥Ń": 2104,
      "ä¹°äºĨ": 2105,
      "æīĭä¸Ń": 2106,
      "éĻĪ": 2107,
      "æħ°": 2108,
      "æĪĲå®¶": 2109,
      "æİ¨": 2110,
      "å¹²èĦĨ": 2111,
      "æĶ¾å¿ĥ": 2112,
      "åħ¨èº«": 2113,
      "è·ĳå¾Ĺ": 2114,
      "æīįèĥ½": 2115,
      "åıĳäºĨ": 2116,
      "åįĸåĬĽæ°Ķ": 2117,
      "æĸ¹æ³ķ": 2118,
      "ä»ĸä¸įèĤ¯": 2119,
      "ç§Ł": 2120,
      "âĳ£": 2121,
      "åĺ±": 2122,
      "æ£Ĵ": 2123,
      "ä¼¼ä¹İæĺ¯": 2124,
      "ä»İæŃ¤": 2125,
      "åķĨ": 2126,
      "çº¢çļĦ": 2127,
      "è£ħ": 2128,
      "ç¨³": 2129,
      "æĹ¢çĦ¶": 2130,
      "å·¥ä½ľ": 2131,
      "èµ¶ç´§": 2132,
      "ç³Ĭ": 2133,
      "äºĶåĿĹéĴ±": 2134,
      "å®ħéĹ¨": 2135,
      "éĶĻåĦ¿": 2136,
      "æĦŁæĥħ": 2137,
      "å·¦åı³": 2138,
      "ä¼ĻåŃĲ": 2139,
      "æł¹æľ¬": 2140,
      "æĩĴå¾Ĺ": 2141,
      "éĤ£çĤ¹éĴ±": 2142,
      "ç¬¬äºĮ": 2143,
      "è¡¨ç¤º": 2144,
      "è¤Ĥ": 2145,
      "è§ĦçŁ©": 2146,
      "æ¼Ĥäº®": 2147,
      "èĹı": 2148,
      "ºèĮ«": 2149,
      "¾ä¼ļ": 2150,
      "æ¤": 2151,
      "çĵ¦": 2152,
      "èĽ": 2153,
      "ä¸ĳ": 2154,
      "äºı": 2155,
      "ä»ĸè¯´": 2156,
      "ä»ĸçľŁ": 2157,
      "ä¸įåĬ¨": 2158,
      "ä¸įä½Ĩ": 2159,
      "äºĨä¼ļåĦ¿": 2160,
      "æľĿ": 2161,
      "åŃĲåĦ¿": 2162,
      "åĪĢ": 2163,
      "å°ĺ": 2164,
      "åĲ«": 2165,
      "æīĩ": 2166,
      "è¿ĻåĦ¿": 2167,
      "èĢį": 2168,
      "ç¥¨": 2169,
      "è½¦åı£": 2170,
      "æ²¡æĥ³åĪ°": 2171,
      "åįİ": 2172,
      "åĪ°åŁİéĩĮ": 2173,
      "æĥ¹": 2174,
      "æĥ¯äºĨ": 2175,
      "æĬ¤": 2176,
      "åĨ¯": 2177,
      "éĥ½æľī": 2178,
      "èĩªå·±æĺ¯": 2179,
      "è¿ĺåľ¨": 2180,
      "è¿ĺèĥ½": 2181,
      "ï¼Łï¼ģ\"": 2182,
      "å°ıçļĦ": 2183,
      "å°ıåŃ©": 2184,
      "æŃĩ": 2185,
      "ä¸ĭçļĦ": 2186,
      "å®¶ä¼Ļ": 2187,
      "è±Ĩ": 2188,
      "è¾ŀ": 2189,
      "çĦ¦": 2190,
      "çĽĨ": 2191,
      "å¯Ĵ": 2192,
      "çļĦç©": 2193,
      "çļĦçº": 2194,
      "ç»Ļå¥¹": 2195,
      "æīĵçĿĢ": 2196,
      "åºĹ": 2197,
      "åĪ«æīŃ": 2198,
      "åĲĥäºĨ": 2199,
      "åĲİéĿ¢": 2200,
      "éĻħ": 2201,
      "éĹ¨åı£": 2202,
      "æĻĥ": 2203,
      "å¯¹äºİ": 2204,
      "è¿Ļä¹Īä¸ª": 2205,
      "æ¸ºèĮ«": 2206,
      "æŀĿ": 2207,
      "åĩºæĿ¥çļĦ": 2208,
      "å®ĮäºĨ": 2209,
      "æ¬ł": 2210,
      "èĲ¥": 2211,
      "åĸĿéħĴ": 2212,
      "åŁĭ": 2213,
      "è£Ĥ": 2214,
      "ç¨į": 2215,
      "æĢİæł·çļĦ": 2216,
      "éĿĻéĿĻ": 2217,
      "æĢ¥äºİ": 2218,
      "æĹ¢æĺ¯": 2219,
      "ç³ĸ": 2220,
      "æ¯ĽéĴ±": 2221,
      "å¨ĺä»¬": 2222,
      "æĲģ": 2223,
      "æĴĩ": 2224,
      "å¾®å¾®": 2225,
      "èĪ¬": 2226,
      "çĮ´": 2227,
      "åħµä»¬": 2228,
      "é¸Ł": 2229,
      "æķ´ä¸ªçļĦ": 2230,
      "æ¶Ĥ": 2231,
      "ä¹ĭåĲİ": 2232,
      "è¨Ģè¯Ń": 2233,
      "éĺ³åħī": 2234,
      "å¸®åĬ©": 2235,
      "äºĮåįģä¸ĥ": 2236,
      "çĶ·äºº": 2237,
      "ç®Ģåįķ": 2238,
      "æ®µ": 2239,
      "èĢ³æľµ": 2240,
      "è®¨åİĮ": 2241,
      "åŀ«": 2242,
      "æ¶Īæģ¯": 2243,
      "çıł": 2244,
      "ä¼ĳæģ¯": 2245,
      "åĺ±åĴĲ": 2246,
      "åª": 2247,
      "åĥ": 2248,
      "Ģè¦ģ": 2249,
      "ä¸¢": 2250,
      "ä¸´": 2251,
      "çļĦèµ°": 2252,
      "çļĦå¸ĮæľĽ": 2253,
      "ä»ĺ": 2254,
      "ä»ĸçľĭ": 2255,
      "ä»ĸä¾¿": 2256,
      "ä»ĸæīį": 2257,
      "ä»ĸåı¯ä»¥": 2258,
      "ä¸įè¡Į": 2259,
      "ä¸įçĶļ": 2260,
      "è¿Ī": 2261,
      "åı¹": 2262,
      "åıĸ": 2263,
      "ä¹ł": 2264,
      "ä¸Ģè¾ĪåŃĲ": 2265,
      "åŃĺ": 2266,
      "çĿĢä¸ª": 2267,
      "ä¸ĬåĵªåĦ¿": 2268,
      "å¿Ĺ": 2269,
      "è¯ĳ": 2270,
      "çľī": 2271,
      "å·§": 2272,
      "å¾Ĺè±¡": 2273,
      "å¾ĹæħĮ": 2274,
      "ç¥¥åŃĲä¸į": 2275,
      "ç¥¥åŃĲåİ»": 2276,
      "æĭļ": 2277,
      "èĩªçĶ±": 2278,
      "éĤ£åĩł": 2279,
      "åĽŃ": 2280,
      "å°±ä¼ļ": 2281,
      "çĤī": 2282,
      "è¯´åĩº": 2283,
      "å¤©å¤©": 2284,
      "å¤©æ°Ķ": 2285,
      "ä½łæĺ¯": 2286,
      "éĥ½åľ¨": 2287,
      "éĥ½å¾Ĺ": 2288,
      "æĬĬä»ĸ": 2289,
      "å¼ķ": 2290,
      "è·ª": 2291,
      "è¦ģä¸į": 2292,
      "åĿĳ": 2293,
      "å¤ļçļĦ": 2294,
      "æĹ¶æĹ¶": 2295,
      "æĹ¶éĹ´": 2296,
      "çĶŁåĳ½": 2297,
      "åĴķ": 2298,
      "æ²¡æľīäºº": 2299,
      "åıªåī©ä¸ĭ": 2300,
      "æĽ¾": 2301,
      "å¯Ĥ": 2302,
      "æ´¥": 2303,
      "çļĦçĸ": 2304,
      "çļĦçŃ": 2305,
      "æīĵåĲ¬": 2306,
      "çľ¼ä¸Ń": 2307,
      "ä»ĸçļĦçľ¼": 2308,
      "æĮģ": 2309,
      "ä½ľäºĽ": 2310,
      "æĺİåĦ¿": 2311,
      "æĢİåĬŀ": 2312,
      "ä¸Ģä¸ªå°ı": 2313,
      "éĢĢ": 2314,
      "å½ĵçĦ¶": 2315,
      "å½ĵä½ľ": 2316,
      "äºĮå¤ªå¤ª": 2317,
      "äºĮå¥¶": 2318,
      "æİĮ": 2319,
      "éĿ¢åīį": 2320,
      "è·ĳåĪ°": 2321,
      "å§ĵ": 2322,
      "é«ĺä¸ªåŃĲ": 2323,
      "æī¾ä¸įåĪ°": 2324,
      "ç«¯": 2325,
      "ä¸ĢçĤ¹ä¹Łä¸į": 2326,
      "åĪĺå®¶": 2327,
      "å¹¶ä¸įæĺ¯": 2328,
      "ç´¯": 2329,
      "ä¸»ä¹ī": 2330,
      "çĭĤ": 2331,
      "æķĻæĪĳ": 2332,
      "éħ±": 2333,
      "åĲĮæĹ¶": 2334,
      "ä»¿ä½Ľæĺ¯": 2335,
      "ç²¥": 2336,
      "ç²ī": 2337,
      "éĶħ": 2338,
      "æļĤ": 2339,
      "å®ŀåľ¨": 2340,
      "å·¥éĴ±": 2341,
      "éľĢè¦ģ": 2342,
      "åĹĵ": 2343,
      "éĵºæĪ·": 2344,
      "ä»¶äºĭ": 2345,
      "åľ¨è¿Ļç§į": 2346,
      "é¡¾å¾Ĺ": 2347,
      "å¤ıå¤ªå¤ª": 2348,
      "åİŁåħĪ": 2349,
      "ä»ĸæ²¡æ³ķ": 2350,
      "æĺ¾åĩº": 2351,
      "å·¦åħĪçĶŁ": 2352,
      "é¡ºçĿĢ": 2353,
      "çİ©èīº": 2354,
      "æĳĩå¤´": 2355,
      "æķħæĦıçļĦ": 2356,
      "ç¬¬ä¸Ģ": 2357,
      "çĪ¶å¥³": 2358,
      "çļĦçģ¯": 2359,
      "ä»»ä½ķäºº": 2360,
      "ä¹¡éĹ´": 2361,
      "åŃĻä¾¦æİ¢": 2362,
      "ç¡®æĺ¯": 2363,
      "çĤķä¸Ĭ": 2364,
      "çļĦçĥŃ": 2365,
      "æ¹¿": 2366,
      "éĻ¤äºĨ": 2367,
      "èĪįä¸įå¾Ĺ": 2368,
      "æ¨¡æł·": 2369,
      "èİ«": 2370,
      "å¥ĩæĢª": 2371,
      "éĻĪäºĮå¥¶": 2372,
      "åĨ¯åħĪçĶŁ": 2373,
      "éĻĪäºĮå¥¶å¥¶": 2374,
      "£è¨Ģ": 2375,
      "èĳ": 2376,
      "ľèī²": 2377,
      "ä»ĸåĩłä¹İ": 2378,
      "äºĨå¥¹": 2379,
      "äºĨåĩł": 2380,
      "ä¸Ģåı£": 2381,
      "æĺ¯çļĦ": 2382,
      "æĺ¯è¿Ļä¹Ī": 2383,
      "åĪ·": 2384,
      "åĪĴ": 2385,
      "çĿĢä»ĸçļĦ": 2386,
      "åĲĬ": 2387,
      "åİ¨": 2388,
      "åİĭ": 2389,
      "ä¸ªå¥½": 2390,
      "æī£": 2391,
      "æīĳ": 2392,
      "ä¸Ĭä¸Ģ": 2393,
      "ä¸Ĭåİ»": 2394,
      "ä¸ĬéĿ¢": 2395,
      "è½¿": 2396,
      "åħĥ": 2397,
      "åİ»åĳ¢": 2398,
      "åİ»åĲ§": 2399,
      "æ²Ļ": 2400,
      "èµı": 2401,
      "äººéĥ½": 2402,
      "ä¹Łæľī": 2403,
      "ç¥¥åŃĲæĬĬ": 2404,
      "åı¯æĢľ": 2405,
      "å¥¹æĺ¯": 2406,
      "å¥¹èĩªå·±": 2407,
      "ä¼¤": 2408,
      "æĬ½": 2409,
      "æĬĦ": 2410,
      "èĩªè¡Į": 2411,
      "éĤ£è¾Ĩè½¦": 2412,
      "å°±æĽ´": 2413,
      "å¤§éĹ¨": 2414,
      "å¥½å¥½çļĦ": 2415,
      "çľĭå¥¹": 2416,
      "ä½łçľĭ": 2417,
      "æĥ³èµ·æĿ¥": 2418,
      "æ°ĳ": 2419,
      "æĬĬè¿Ļ": 2420,
      "å¿ĥçľ¼": 2421,
      "å°ıåŃĲ": 2422,
      "æŃ¹": 2423,
      "æĭīåĮħæľĪ": 2424,
      "èĢĮåıĪ": 2425,
      "èĦı": 2426,
      "éģ¿": 2427,
      "çļĦç¬": 2428,
      "çļĦçĻ½": 2429,
      "çĻ½æĪ¿åŃĲ": 2430,
      "åºĬ": 2431,
      "åĽŀå®¶": 2432,
      "è°£è¨Ģ": 2433,
      "çīĪ": 2434,
      "ä½ľäºĭ": 2435,
      "å¾Ģèµ·": 2436,
      "åĽĽçĤ¹": 2437,
      "èĭ±": 2438,
      "å¿«è·ĳ": 2439,
      "çģµ": 2440,
      "å¯¹ä¸įèµ·": 2441,
      "è´¼": 2442,
      "ç¬Ķ": 2443,
      "éĺ´": 2444,
      "æŀª": 2445,
      "äºĨä¸Ģä¸ĭ": 2446,
      "äºĨä¸Ģä¼ļåĦ¿": 2447,
      "å¹´çļĦ": 2448,
      "æĽ¹å®¶": 2449,
      "æĽ¹å¤ªå¤ª": 2450,
      "åıĳçĿĢ": 2451,
      "æĹłæ³ķ": 2452,
      "é¥¶": 2453,
      "æī¾åĪ°äºĨ": 2454,
      "åĿĲèµ·æĿ¥": 2455,
      "ç§ĭ": 2456,
      "è¿ĽäºĨ": 2457,
      "è¶Ĭæĥ³": 2458,
      "ç®Ĺæĺ¯": 2459,
      "åħīæĺİ": 2460,
      "æīĢèĥ½": 2461,
      "åĽłæŃ¤": 2462,
      "è·Łå¥¹": 2463,
      "çĽ´åĪ°": 2464,
      "æ£µ": 2465,
      "æ£į": 2466,
      "æ»´": 2467,
      "è¿ľå¤Ħ": 2468,
      "èĲ½åľ¨": 2469,
      "æ¸ħéĿĻ": 2470,
      "ç²ĺ": 2471,
      "è½»è½»": 2472,
      "åĺ´éĩĮ": 2473,
      "éĶ£": 2474,
      "é¥ŃåĲĥ": 2475,
      "é¢Ĩ": 2476,
      "é¢ĩ": 2477,
      "é¢ľèī²": 2478,
      "ä¸Ģå¤©çļĦ": 2479,
      "æĢ¥äºĨ": 2480,
      "æĢ¥å¿Ļ": 2481,
      "çĸ²ä¹ı": 2482,
      "èµ¶ä¸Ĭ": 2483,
      "ç©ºä¸Ń": 2484,
      "æ¯ĽçļĦ": 2485,
      "ç¥ŀæ°Ķ": 2486,
      "èĭ¥æĺ¯": 2487,
      "å¿ĺæİī": 2488,
      "æ»¡äºĨ": 2489,
      "æ»¡æĦı": 2490,
      "ç½Ĳ": 2491,
      "çĮľ": 2492,
      "ä¸Ģè¾¹åĦ¿": 2493,
      "ä¸ĥåħ«": 2494,
      "å«ģ": 2495,
      "ç¤¼": 2496,
      "çķĻä¸ĭ": 2497,
      "åħ¥äºĨ": 2498,
      "æĳĩäºĨ": 2499,
      "æ®ĭ": 2500,
      "èģĶ": 2501,
      "æĿ¨å¦Ī": 2502,
      "æĬĬè½¦æĭī": 2503,
      "ä¹¡ä¸ĭ": 2504,
      "èĥĨåŃĲ": 2505,
      "æĨĭéĹ·": 2506,
      "äº«åıĹ": 2507,
      "èĸĦ": 2508,
      "çļĦçº¢": 2509,
      "¼æŃ¤": 2510,
      "¾¡": 2511,
      "æ¾¡": 2512,
      "èĨ": 2513,
      "éĢĤ": 2514,
      "ä¸²": 2515,
      "çļĦåİ»": 2516,
      "çļĦå¤©": 2517,
      "çļĦæĸ°": 2518,
      "ä»ĸè¿ĺæĺ¯": 2519,
      "ä»ĸåĨ³å®ļ": 2520,
      "ä¸įç®Ĺ": 2521,
      "ä¸įè®º": 2522,
      "ä¸įå®¹æĺĵ": 2523,
      "äºĨç¥¥åŃĲ": 2524,
      "åı°": 2525,
      "åı¸": 2526,
      "ä¸ĢæĿ¥": 2527,
      "ä¸ĢæĹ¶": 2528,
      "ä¸Ģèµ°": 2529,
      "ä¸Ģåľº": 2530,
      "ä¸ĢçĻ¾": 2531,
      "åĲŀ": 2532,
      "æĿ¥å¾Ģ": 2533,
      "è¯ļ": 2534,
      "è¿Ļè¾Ĩè½¦": 2535,
      "è½®": 2536,
      "åľ¨éĤ£éĩĮ": 2537,
      "æĪı": 2538,
      "æ²¿": 2539,
      "èµ¤": 2540,
      "èµĦ": 2541,
      "å¾Ĺåĩº": 2542,
      "ç¥¥": 2543,
      "ä¹Łèĥ½": 2544,
      "æ²¡åĩº": 2545,
      "æ²¡çĶ¨": 2546,
      "æ²¡åĬŀæ³ķ": 2547,
      "åĪ°æĻļ": 2548,
      "æĬ¼": 2549,
      "åĩºäºĽ": 2550,
      "èĩªåľ¨": 2551,
      "æĢ¨": 2552,
      "æĢĴ": 2553,
      "ç»´": 2554,
      "åĽ´": 2555,
      "å¥½æŃ¹": 2556,
      "åĨ¤": 2557,
      "åĨĴ": 2558,
      "çĤ¹ä»Ģä¹Ī": 2559,
      "éĩĮåİ»": 2560,
      "ä½łè¿Ļ": 2561,
      "æĥ³æĥ³": 2562,
      "éĥ½åı¯ä»¥": 2563,
      "æĪĳæĺ¯": 2564,
      "å¼ĥ": 2565,
      "å¼ı": 2566,
      "å¤´çļĦ": 2567,
      "å¤´åıĳ": 2568,
      "å¸Ń": 2569,
      "ä»Ģä¹Īä¹Ł": 2570,
      "æĭīæķ£": 2571,
      "æĹ¶èĬĤ": 2572,
      "åĴ§": 2573,
      "éģ®": 2574,
      "æĶ¥": 2575,
      "çĽ¼": 2576,
      "ä¾ĭ": 2577,
      "æ´ŀ": 2578,
      "çļĦçĹ": 2579,
      "çļĦçł": 2580,
      "å½¼æŃ¤": 2581,
      "æīĵäºĨ": 2582,
      "åľ°ä¸ĬçļĦ": 2583,
      "ä¸¤åĿĹéĴ±": 2584,
      "åĴĮæ°Ķ": 2585,
      "æ³¡": 2586,
      "è°¢": 2587,
      "è°ħ": 2588,
      "éªĳ": 2589,
      "éªĹ": 2590,
      "æīĭåĦ¿": 2591,
      "èĤ¡": 2592,
      "åĽĽå¤ĸ": 2593,
      "å£°çļĦ": 2594,
      "éĻĲ": 2595,
      "èº«ä¸ĬçļĦ": 2596,
      "èº«éĩı": 2597,
      "éĢĽ": 2598,
      "æĻ¯": 2599,
      "æĻķ": 2600,
      "å¯¹å¾Ĺèµ·": 2601,
      "æİĴ": 2602,
      "è¿Ļä¹ĪçĿĢ": 2603,
      "è´±": 2604,
      "è´Ł": 2605,
      "èĥİ": 2606,
      "æ¸¸": 2607,
      "ä¸īåĮ¹": 2608,
      "èĬ¦": 2609,
      "çŃĴ": 2610,
      "éĽĦ": 2611,
      "äºĨä¸Ģå£°": 2612,
      "âĳ¤": 2613,
      "æ³ķåĦ¿": 2614,
      "å¹¶ä¸Ķ": 2615,
      "æ´»åĬ¨": 2616,
      "ç´ł": 2617,
      "è¾¹çļĦ": 2618,
      "ä¸»äºº": 2619,
      "åĸĿäºĨ": 2620,
      "å¿½å¿½": 2621,
      "çĭł": 2622,
      "èĦļçļĦ": 2623,
      "æ»ĳ": 2624,
      "è·¯æĹģ": 2625,
      "éļ¾éģĵ": 2626,
      "çĥŃçļĦ": 2627,
      "ç¾ŀ": 2628,
      "é¢¤": 2629,
      "æį®": 2630,
      "åĽŀæĿ¥äºĨ": 2631,
      "è¿ĩåİ»äºĨ": 2632,
      "æĹ©å°±": 2633,
      "åĶ±": 2634,
      "åĮħåŃĲ": 2635,
      "ä¸įæķ¢åĨį": 2636,
      "æıĴ": 2637,
      "å®īæħ°": 2638,
      "åºķä¸ĭ": 2639,
      "å¤ľéĩĮ": 2640,
      "å¼łå¦Ī": 2641,
      "ç©¿ä¸Ĭ": 2642,
      "æ´ĭè½¦": 2643,
      "æĩĤ": 2644,
      "å²ģæķ°": 2645,
      "ä¸ĢåĿĹåĦ¿": 2646,
      "é¡¶å¥½": 2647,
      "èĥĮåĲİ": 2648,
      "åĳ³åĦ¿": 2649,
      "å·¦å®ħ": 2650,
      "éĩĳéĴ±": 2651,
      "èĥ¡æ¶Ĥ": 2652,
      "åĬłä¸Ĭ": 2653,
      "è¿·è¿·": 2654,
      "å®¢äºº": 2655,
      "çľģå¾Ĺ": 2656,
      "ä¸īåįģå¤ļ": 2657,
      "ä¹¦æĪ¿": 2658,
      "çļĦçģ°": 2659,
      "è®°å¾Ĺ": 2660,
      "åļ·": 2661,
      "æĢĢçĸĳ": 2662,
      "ç¿»äºĨ": 2663,
      "çŃĶåºĶ": 2664,
      "çĬ¯": 2665,
      "æĬ±çĿĢ": 2666,
      "æĹłåı¯å¦Ĥä½ķ": 2667,
      "èī¯å¿ĥ": 2668,
      "æī¿è®¤": 2669,
      "è®¾èĭ¥": 2670,
      "æ¤ħ": 2671,
      "çļĦç¬ĳ": 2672,
      "æĳĩäºĨæĳĩå¤´": 2673,
      "«èĬ¦": 2674,
      "ºåĢĻ": 2675,
      "èĿ": 2676,
      "é¹": 2677,
      "éŃ": 2678,
      "ŃæĦ§": 2679,
      "ä¸§": 2680,
      "ä¸Ī": 2681,
      "çļĦéĤ£": 2682,
      "çļĦæīĭ": 2683,
      "çļĦèĭ¦": 2684,
      "çļĦæĦıæĢĿ": 2685,
      "çļĦå£°éŁ³": 2686,
      "çļĦæł·åŃĲ": 2687,
      "ä»ĹçĿĢ": 2688,
      "ä»ĸå·²": 2689,
      "ä»ĸå¿½çĦ¶": 2690,
      "ä»ĸæĦ¿æĦı": 2691,
      "ä»ĸè§īåĩº": 2692,
      "ä»ĸå¿ħé¡»": 2693,
      "ä¸įä¾¿": 2694,
      "ä¸įå¯¹": 2695,
      "ä¸įèµ·æĿ¥": 2696,
      "ä¸įå¼Ģ": 2697,
      "ä¸įå°ĳ": 2698,
      "ä¸įæĦ¿æĦı": 2699,
      "ä¸įä¹ħ": 2700,
      "äºĨè½¦": 2701,
      "äºĨå¥½": 2702,
      "äºĨåı£æ°Ķ": 2703,
      "è¿¹": 2704,
      "ä¸Ģå¹´": 2705,
      "ä¸ĢåįĬ": 2706,
      "ä¸Ģæ¸ħ": 2707,
      "ä¸ĢåĲĮ": 2708,
      "ä¸Ģåı¥": 2709,
      "ä¸Ģé½Ĳ": 2710,
      "ä¸ĢèĪ¬": 2711,
      "æĺ¯ä»ĸçļĦ": 2712,
      "æĺ¯èĩªå·±çļĦ": 2713,
      "æĺ¯ä¸įæĺ¯": 2714,
      "åŃĶ": 2715,
      "æľŁ": 2716,
      "çĿĢåĳ¢": 2717,
      "å°¾": 2718,
      "åĩı": 2719,
      "æīĶ": 2720,
      "ä¸ĬæĿ¥": 2721,
      "è¿Ļæīį": 2722,
      "è¿ĻæĿ¡": 2723,
      "åħĦ": 2724,
      "åľ¨ä»ĸ": 2725,
      "åľ¨ç¥¥åŃĲ": 2726,
      "åľ¨éĤ£": 2727,
      "åľ¨å¤ĸ": 2728,
      "èµĮ": 2729,
      "èĢĲ": 2730,
      "ç¥¸": 2731,
      "æĹĭ": 2732,
      "æĹĹ": 2733,
      "åĦ¿éĩĮ": 2734,
      "ä¹ŁçŁ¥éģĵ": 2735,
      "ç¥¥åŃĲæĥ³": 2736,
      "çĶľ": 2737,
      "åĪ°ä»ĸ": 2738,
      "æĥ§": 2739,
      "æĥ¯": 2740,
      "æĥľ": 2741,
      "æĥŃæĦ§": 2742,
      "ä¼ºåĢĻ": 2743,
      "æĬķ": 2744,
      "æĭĲ": 2745,
      "éĤ£ä»Ģä¹Ī": 2746,
      "åĽ¾": 2747,
      "å¤§å¤ªå¤ª": 2748,
      "å¥½ä¸įå¥½": 2749,
      "å¥½æ±ī": 2750,
      "çĤ®": 2751,
      "çľĭä»ĸ": 2752,
      "åĨ²": 2753,
      "è¯´è¯´": 2754,
      "å¹¸": 2755,
      "çĤ¹åĦ¿": 2756,
      "ä½łæľī": 2757,
      "ä½łåĳ¢": 2758,
      "ä½łè¦ģæĺ¯": 2759,
      "æĥ³äºĨ": 2760,
      "æĥ³ä»Ģä¹Ī": 2761,
      "éĥ½ä¸į": 2762,
      "æĪĳè¦ģ": 2763,
      "æĬĬå¥¹": 2764,
      "å¼Ĥ": 2765,
      "ï¼Łï¼ģ": 2766,
      "ä¸Ńåİ»": 2767,
      "ä¸ŃéĹ´": 2768,
      "èĢģè¿ľ": 2769,
      "åı¯æĺ¯å¿ĥä¸Ń": 2770,
      "è®®": 2771,
      "èĦĬ": 2772,
      "æĹ¶å¸¸": 2773,
      "åıĪè±¡": 2774,
      "ä¾®": 2775,
      "çļĦçİ": 2776,
      "å£«": 2777,
      "åºĻ": 2778,
      "æ¯ģ": 2779,
      "åĪ«äººçļĦ": 2780,
      "åīĥ": 2781,
      "ä¹°ä¸ľè¥¿": 2782,
      "ä½ľçļĦ": 2783,
      "ä½ľäºĨ": 2784,
      "å¾Īéļ¾": 2785,
      "çĥ«": 2786,
      "çĥĤ": 2787,
      "åĽĽä¸ĭ": 2788,
      "éĻªçĿĢ": 2789,
      "éĢĴ": 2790,
      "è¥¿å±±": 2791,
      "æĻ¨": 2792,
      "æĻĴ": 2793,
      "çģŃ": 2794,
      "æħİ": 2795,
      "æĪĲä¸º": 2796,
      "æĪĲåĬŁ": 2797,
      "âĢĶâĢĶ\"": 2798,
      "è¿Ļä¹ĪåĬŀ": 2799,
      "è´£": 2800,
      "è¢į": 2801,
      "é£ķ": 2802,
      "æĶ¾çĿĢ": 2803,
      "éĺŁ": 2804,
      "éĿ¢åŃĲ": 2805,
      "éĿ¢ä¸Ĭ": 2806,
      "äºĨä¸Ģçľ¼": 2807,
      "äºĨä¸ĢåĪĩ": 2808,
      "äºĨä¸Ģéĺµ": 2809,
      "ç©¶": 2810,
      "å¹´çº": 2811,
      "åĬ¨éĿĻ": 2812,
      "çĹĴ": 2813,
      "ç§¯": 2814,
      "ç®ĹäºĨ": 2815,
      "æŃ»çļĦ": 2816,
      "å°ĳçĪ·": 2817,
      "ç¢´åĦ¿": 2818,
      "è°ģä¹Ł": 2819,
      "å¥³äºº": 2820,
      "èĬ±éĴ±": 2821,
      "ä¸»åĦ¿": 2822,
      "ä¿ı": 2823,
      "åĸĿéĨī": 2824,
      "è¢«äºº": 2825,
      "çĶ±çļĦ": 2826,
      "éĹ´å°ı": 2827,
      "çŃīçŃī": 2828,
      "çļĦäºĭåĦ¿": 2829,
      "ç¬ĳçĿĢ": 2830,
      "æĸ°è½¦": 2831,
      "åĳ½çļĦ": 2832,
      "è£¹": 2833,
      "ç¨Ģ": 2834,
      "ç²®": 2835,
      "åĲĳå¤§å®¶": 2836,
      "çĥŃæ°Ķ": 2837,
      "æĪĸèĢħ": 2838,
      "æľīçĤ¹åıĳ": 2839,
      "ç¼ĺ": 2840,
      "æĹ©çļĦ": 2841,
      "æ¡ĥ": 2842,
      "åłª": 2843,
      "å®īéĿĻ": 2844,
      "ç´§è·ŁçĿĢ": 2845,
      "çģ¯åħī": 2846,
      "åľ¨è¿ĻéĩĮ": 2847,
      "çĹħäºĨ": 2848,
      "æĤ²": 2849,
      "æĤł": 2850,
      "ç½Ĺ": 2851,
      "éĽªèĬ±": 2852,
      "å¢ŀ": 2853,
      "å¿ĻçĿĢ": 2854,
      "é¸£": 2855,
      "åİŁè°ħ": 2856,
      "æķ´å¤©": 2857,
      "æ´Ĺæ´Ĺ": 2858,
      "åĩĨçŁ¥éģĵ": 2859,
      "ç»ĵæŀľ": 2860,
      "å®³æĢķ": 2861,
      "å¥ĶäºĨ": 2862,
      "æ¡¥ä¸Ĭ": 2863,
      "åŃ¦çĶŁ": 2864,
      "æĪĺäºī": 2865,
      "ä¸įè¦ģç´§": 2866,
      "çĪ¶æ¯į": 2867,
      "å¡Į": 2868,
      "æĶ¯çĥŁ": 2869,
      "åĽ°èĭ¦": 2870,
      "åĽ°éļ¾": 2871,
      "çĥ§é¥¼": 2872,
      "æģĲæĢķ": 2873,
      "è´¢äº§": 2874,
      "åĻ¨": 2875,
      "ç¬ĳäºĨç¬ĳ": 2876,
      "æ¬ºä¾®": 2877,
      "ç±»": 2878,
      "ç»§ç»Ń": 2879,
      "ä»ĸçľŁæĥ³": 2880,
      "å°ĺåľŁ": 2881,
      "èĳ«èĬ¦": 2882,
      "è½»è½»çļĦ": 2883,
      "çĽ¼æľĽ": 2884,
      "å¹´çºª": 2885,
      "¡çļĦ": 2886,
      "¨æħİ": 2887,
      "³å¦ĩ": 2888,
      "ºæĿ": 2889,
      "ÃĹ": 2890,
      "ĮçļĦ": 2891,
      "ĺçļĦ": 2892,
      "äº¬": 2893,
      "çļĦä¸į": 2894,
      "çļĦæĬĬ": 2895,
      "çļĦæ°´": 2896,
      "çļĦå·¥å¤«": 2897,
      "ä¸įç»Ļ": 2898,
      "ä¸įè§ģ": 2899,
      "ä¸įåĩºåİ»": 2900,
      "äºĨä»ĸ": 2901,
      "äºĨèĩªå·±": 2902,
      "äºĨåĩºæĿ¥": 2903,
      "äºĨåı¥": 2904,
      "æĺ¨": 2905,
      "ä¸ĢçļĦ": 2906,
      "ä¸Ģå¤´": 2907,
      "ä¸Ģè¿Ľ": 2908,
      "ä¸Ģå¤ľ": 2909,
      "æĺ¯ä»ĸ": 2910,
      "æĺ¯ä¸į": 2911,
      "æĺ¯æĢİæł·çļĦ": 2912,
      "æľ«": 2913,
      "åŃĲçļĦ": 2914,
      "ä½©": 2915,
      "çĿĢæ³ª": 2916,
      "å°Ħ": 2917,
      "å®Ī": 2918,
      "åİĨ": 2919,
      "åİļ": 2920,
      "ä¸ªå¤§": 2921,
      "æī§": 2922,
      "ä¸Ĭæľī": 2923,
      "è¯ģ": 2924,
      "åħ½": 2925,
      "æĪª": 2926,
      "æĪ´": 2927,
      "æ²«": 2928,
      "å¾Ĺåıĳ": 2929,
      "æ²¡ä»Ģä¹Ī": 2930,
      "ç¥¥åŃĲåıĪ": 2931,
      "ç¥¥åŃĲå¿ĥä¸Ń": 2932,
      "åı¯ä¹Ł": 2933,
      "åı¯è¯´": 2934,
      "åı¯åıĪ": 2935,
      "å¥¹ä¹Ł": 2936,
      "å¥¹åıĪ": 2937,
      "æĬĹ": 2938,
      "éĤª": 2939,
      "èĩªè¨Ģ": 2940,
      "èĩªè¯Ń": 2941,
      "å°±å¥½": 2942,
      "å¤§å°ı": 2943,
      "å¤§æĿĤéĻ¢éĩĮ": 2944,
      "çĤ¸": 2945,
      "çľĭåĩºæĿ¥": 2946,
      "çĤ¹å¤´": 2947,
      "çĤ¹éĴŁ": 2948,
      "ä½łå°±": 2949,
      "éĥ½èĥ½": 2950,
      "éĥ½è¢«": 2951,
      "æĪĳåı¯": 2952,
      "æĪĳå°±": 2953,
      "æĪĳç»Ļä½ł": 2954,
      "æĬĬä½ł": 2955,
      "èĩªå·±æľī": 2956,
      "è¿ĺä¸įæĺ¯": 2957,
      "æķĳ": 2958,
      "æŃ¦": 2959,
      "ä¸ĭéĿ¢": 2960,
      "ä¸ĭåįĪ": 2961,
      "éĴ±ä¹°": 2962,
      "ä»Ģä¹ĪæĹ¶åĢĻ": 2963,
      "ä»Ģä¹Īä¹Łæ²¡": 2964,
      "å®¶ä¸Ń": 2965,
      "å®¶åº": 2966,
      "èµ·è½¦": 2967,
      "äºĭå®ŀ": 2968,
      "åĵİ": 2969,
      "åĵŁ": 2970,
      "çĶŁæ°Ķ": 2971,
      "çĶŁæĦı": 2972,
      "çĶŁå©Ĩ": 2973,
      "ä¸ºèĩªå·±": 2974,
      "æ²¡æľīäºĨ": 2975,
      "æ²¡æľīä»»ä½ķ": 2976,
      "æĶĴ": 2977,
      "çļĦç¤": 2978,
      "ç»Ļç¥¥åŃĲ": 2979,
      "ç»Ļå¤§å®¶": 2980,
      "èĻ«": 2981,
      "èĻļ": 2982,
      "æīĵæŀ¶": 2983,
      "åĲĥå¾Ĺ": 2984,
      "åĲĥé¥±": 2985,
      "ä¸¤æĿ¡": 2986,
      "è°¨æħİ": 2987,
      "ä¹°è½¦çļĦ": 2988,
      "çĥĪ": 2989,
      "èĤ¥": 2990,
      "å¾ĢåĮĹ": 2991,
      "å¾ĢåįĹ": 2992,
      "ä¾¿æĺ¯": 2993,
      "å£°åĵį": 2994,
      "åįģäºĮ": 2995,
      "ä¸įèĥ½ä¸į": 2996,
      "åĮł": 2997,
      "å¿«æ´»": 2998,
      "éĢĹ": 2999,
      "çģĮ": 3000,
      "å¯¹çĿĢ": 3001,
      "å¯¹ä»ĺ": 3002,
      "æħķ": 3003,
      "æĪĲä¸ª": 3004,
      "è¿Ļä¹Īä¸Ģæĥ³": 3005,
      "è´´": 3006,
      "æ¸©": 3007,
      "ä¹Łä¸įæĺ¯": 3008,
      "éļĶ": 3009,
      "å¼ĢéĹ¨": 3010,
      "æĶ¾äºĨ": 3011,
      "æĶ¾æīĭ": 3012,
      "åīįéĿ¢": 3013,
      "éĺ»": 3014,
      "åħ¨æĺ¯": 3015,
      "èĩªå·±çļĦèº«ä½ĵ": 3016,
      "å¤§å®¶çļĦ": 3017,
      "äºĨä¸Ģå¤©": 3018,
      "å¿ĥä¸ŃçļĦ": 3019,
      "çº¿": 3020,
      "æĸ¹çļĦ": 3021,
      "éĵ¶": 3022,
      "åģı": 3023,
      "å±ĭéĹ¨": 3024,
      "è¿ŀä¸ª": 3025,
      "è§īå¾Ĺèĩªå·±": 3026,
      "è°ģä¹Łæ²¡": 3027,
      "å¹¶éĿŀ": 3028,
      "æ£ºæĿ": 3029,
      "æŃ£æĺ¯": 3030,
      "éĹ´çļĦ": 3031,
      "è¡ĮçļĦ": 3032,
      "è¡Įäºº": 3033,
      "é»ĳäºĳ": 3034,
      "éķ¿å¾Ĺ": 3035,
      "æ·»": 3036,
      "éħ¸": 3037,
      "éħį": 3038,
      "èĭ¦å¥Ķ": 3039,
      "æ¯Ķä»¥åīį": 3040,
      "éļ¾çľĭ": 3041,
      "å®ĥçļĦ": 3042,
      "åĺ´åĶĩ": 3043,
      "éĶģ": 3044,
      "ç¾¡": 3045,
      "ç«ĭçĿĢ": 3046,
      "ä¸Ģå¤©åĪ°æĻļ": 3047,
      "æįī": 3048,
      "æįŁ": 3049,
      "éĤ£ä¸ªäºº": 3050,
      "æĶ¶çĶŁå©Ĩ": 3051,
      "åĹ½": 3052,
      "åĹĿ": 3053,
      "æı£": 3054,
      "æıį": 3055,
      "äº¤ç»ĻäºĨ": 3056,
      "éļıæĹ¶": 3057,
      "ä½ķå¿ħ": 3058,
      "å¦ĤæŃ¤": 3059,
      "ç½®": 3060,
      "äº²åıĭ": 3061,
      "ä¸¤ä¸ªå¼Łå¼Ł": 3062,
      "éģĩè§ģ": 3063,
      "çªĹ": 3064,
      "å¤ıå¤©": 3065,
      "çħ§æĹ§": 3066,
      "åıĺæĪĲäºĨ": 3067,
      "æĭīçĿĢè½¦": 3068,
      "ä¹ĭä¸Ń": 3069,
      "æľĭåıĭä»¬": 3070,
      "å¸®å¿Ļ": 3071,
      "æķ£äºĨ": 3072,
      "éĺ®æĺİçļĦ": 3073,
      "å«©": 3074,
      "å«Ĥ": 3075,
      "æ¼Ĩ": 3076,
      "ç¤¾ä¼ļ": 3077,
      "ä¸įå¥½æĦıæĢĿ": 3078,
      "åģ·åģ·": 3079,
      "çĻ»": 3080,
      "éĹ·èĳ«èĬ¦": 3081,
      "è¹²": 3082,
      "è¹Ń": 3083,
      "éº¦": 3084,
      "è®¡åĪĴ": 3085,
      "åĭ¾": 3086,
      "ä¸įè¦ģèĦ¸": 3087,
      "è§£åĨ³": 3088,
      "å¡Ķ": 3089,
      "å¾Ģåīįèµ°": 3090,
      "ç¦»å¼Ģ": 3091,
      "çŁ³åı£": 3092,
      "ç£¨çŁ³åı£": 3093,
      "æĸŃäºĨ": 3094,
      "âĢ¦âĢ¦\"": 3095,
      "åĵĪåĵĪ": 3096,
      "ç«Ļä½ı": 3097,
      "æŁ³æłĳ": 3098,
      "å§ĭç»Īæ²¡": 3099,
      "æ£īè¢Ħ": 3100,
      "æĴĴæīĭ": 3101,
      "åĶ¯æģĲ": 3102,
      "èĮ¶é¦ĨéĩĮ": 3103,
      "è¾Ľèĭ¦": 3104,
      "çĵľ": 3105,
      "ç¨įå¾®": 3106,
      "å¾®å¾®çļĦ": 3107,
      "åª³å¦ĩ": 3108,
      "çļĦçģ¯åħī": 3109,
      "èĩªè¡Įè½¦": 3110,
      "çļĦæĸ°éĹ»": 3111,
      "ç»´æĮģ": 3112,
      "å¿½å¿½çļĦ": 3113,
      "åħĦå¼Ł": 3114,
      "åĽĽä¸ĭéĩĮ": 3115,
      "è´£ä»»": 3116,
      "èĩªè¨Ģèĩªè¯Ń": 3117,
      "å®¶åºŃ": 3118,
      "æ£ºæĿĲ": 3119,
      "éĹ·èĳ«èĬ¦ç½Ĳ": 3120,
      "£äºº": 3121,
      "¨å¤ªå¤ª": 3122,
      "©çĿĢ": 3123,
      "²ľ": 3124,
      "ãĢ": 3125,
      "èª": 3126,
      "é²ľ": 3127,
      "ä¸¾": 3128,
      "çļĦäºĨ": 3129,
      "çļĦæĥ³": 3130,
      "çļĦéĥ½": 3131,
      "çļĦè¿ĺ": 3132,
      "çļĦæ°Ķ": 3133,
      "çļĦåľ°": 3134,
      "çļĦéķ¿": 3135,
      "çļĦæĹ¶èĬĤ": 3136,
      "ä»¤": 3137,
      "ä»Ļ": 3138,
      "ä»ĸåľ¨": 3139,
      "ä»ĸèµ°": 3140,
      "ä»ĸä¸İ": 3141,
      "ä»ĸçİ°åľ¨": 3142,
      "ä»ĸä»¿ä½Ľ": 3143,
      "ä»ĸå·²ç»ı": 3144,
      "ä»ĸä½İçĿĢå¤´": 3145,
      "ä»ĸå¦ĪçļĦ": 3146,
      "ä¸įæĿ¥": 3147,
      "ä¸įåĲĥ": 3148,
      "ä¸įå¹¸": 3149,
      "äºĨçļĦ": 3150,
      "äºĨåİ»": 3151,
      "äºĨåı£": 3152,
      "äºĨå£°": 3153,
      "è¿«": 3154,
      "è¿Ł": 3155,
      "åı²": 3156,
      "åıī": 3157,
      "åı¼çĿĢ": 3158,
      "ä¸Ģåıª": 3159,
      "ä¸ĢåĬ¨": 3160,
      "ä¸ĢåĪĨ": 3161,
      "ä¸ĢæĿ¥æĺ¯": 3162,
      "ä¸Ģåı¥è¯Ŀ": 3163,
      "æĺ¯ä»¶": 3164,
      "åŃķ": 3165,
      "çĿĢè¿Ļä¸ª": 3166,
      "çĿĢèĩªå·±çļĦ": 3167,
      "çĿĢèĦ¸": 3168,
      "å°¿": 3169,
      "å°Ĭ": 3170,
      "æĿŁ": 3171,
      "åĲī": 3172,
      "æľīåĬŀæ³ķ": 3173,
      "åĩ¡": 3174,
      "æī¶": 3175,
      "æīĽ": 3176,
      "ä¸Ĭä¸ĭ": 3177,
      "ä¸Ĭæµ·": 3178,
      "è¯±": 3179,
      "è¿ĻåĽŀ": 3180,
      "è¿Ļä¸¤": 3181,
      "è¿Ļä»¶äºĭ": 3182,
      "åħ±": 3183,
      "åİ»æĭī": 3184,
      "åİ»ä¹°": 3185,
      "åľ¨ä¹İ": 3186,
      "æ²»": 3187,
      "èµĸ": 3188,
      "å¾Ĺç½ª": 3189,
      "åĦ¿ä¸ª": 3190,
      "è½¦ä»½åĦ¿": 3191,
      "ä¹Łä¼ļ": 3192,
      "ä¹Łæ¯Ķ": 3193,
      "æ²¡åľ°æĸ¹": 3194,
      "ç¥¥åŃĲä¹Ł": 3195,
      "çĶ°": 3196,
      "çĶ¸": 3197,
      "å¥¹ä¸Ģ": 3198,
      "å¥¹å°±": 3199,
      "å¥¹å·²": 3200,
      "ä¼Ĺ": 3201,
      "æĬµ": 3202,
      "æĭ³": 3203,
      "æĭĴ": 3204,
      "éĤ£æĺ¯": 3205,
      "éĤ£å¤©": 3206,
      "éĤ£ä¸¤": 3207,
      "éĤ£åĿĹ": 3208,
      "ç»³": 3209,
      "å°±éĤ£ä¹Ī": 3210,
      "å°±åı¯ä»¥": 3211,
      "å¤§åħµ": 3212,
      "å¤§åħ³ç³»": 3213,
      "è¯´åĩºæĿ¥": 3214,
      "å¤©äº®": 3215,
      "å¤©æ´¥": 3216,
      "åĬĪ": 3217,
      "éĩĮè¾¹": 3218,
      "æĥ³åİ»": 3219,
      "éĥ½æľīäºĽ": 3220,
      "æĪĳä¸į": 3221,
      "æĪĳæĿ¥": 3222,
      "æĪĳåİ»": 3223,
      "æĪĳæ²¡": 3224,
      "æĬĬæĪĳ": 3225,
      "å¼±": 3226,
      "è¿ĺè®¸": 3227,
      "å¤´ä¸Ģ": 3228,
      "å°ıä¹°åįĸ": 3229,
      "å°ıé±¼": 3230,
      "å°ıä¼ĻåŃĲ": 3231,
      "éĴ±æĺ¯": 3232,
      "èĢģè½¦å¤«": 3233,
      "èĢģäººä»¬": 3234,
      "å¦Ļ": 3235,
      "å¸ļ": 3236,
      "ä»Ģä¹ĪçļĦ": 3237,
      "ä»Ģä¹Īäºĭ": 3238,
      "ä»Ģä¹Īä¹Łæ²¡æľī": 3239,
      "æĭīäºĨ": 3240,
      "æĭīè¿ĩ": 3241,
      "æĭīåĪ°äºĨ": 3242,
      "æĭīä¸ĬäºĨ": 3243,
      "èĢĮä¸į": 3244,
      "èĢĮæĬĬ": 3245,
      "èĦĨçļĦ": 3246,
      "å¤ļåĴ±": 3247,
      "åĵĦ": 3248,
      "åĵĳ": 3249,
      "åĵĹ": 3250,
      "æĦģ": 3251,
      "æĦļ": 3252,
      "æł·åĦ¿": 3253,
      "çĶŁæĹ¥": 3254,
      "åĴļ": 3255,
      "è¾©": 3256,
      "è¾ĥ": 3257,
      "èµ°çĿĢ": 3258,
      "èµ°åĲİ": 3259,
      "æ²¡æľīåĪ«çļĦ": 3260,
      "æĶ»": 3261,
      "åħĪåīį": 3262,
      "æĸľ": 3263,
      "å¯¸": 3264,
      "å¯Į": 3265,
      "çļĦç§": 3266,
      "çļĦç²": 3267,
      "ç»Ļäººå®¶": 3268,
      "å½©": 3269,
      "æīĵçīĮ": 3270,
      "çľ¼çľĭçĿĢ": 3271,
      "èºģ": 3272,
      "ä¸İè½¦": 3273,
      "ä»ĸçļĦéĴ±": 3274,
      "ä»ĸçļĦè¯Ŀ": 3275,
      "åĪ«å¤Ħ": 3276,
      "åľ°çĭ±": 3277,
      "éģĵåĦ¿": 3278,
      "ä¸¤ä¸ī": 3279,
      "æ³Ħ": 3280,
      "ä½ľé¥Ń": 3281,
      "ä½ľå°ıä¹°åįĸ": 3282,
      "èĤ¢": 3283,
      "èĤ©": 3284,
      "è§ģè¿ĩ": 3285,
      "æĺİçŁ¥": 3286,
      "åĽĽçĪ·": 3287,
      "è¶£": 3288,
      "ä¾¿éģĵ": 3289,
      "éĹ¨æ´ŀ": 3290,
      "èĭĳ": 3291,
      "èĭĹ": 3292,
      "ä¸Ģä¸ªè½¦å¤«": 3293,
      "åĮĢ": 3294,
      "éĢł": 3295,
      "è¥¿çĽ´": 3296,
      "è¥¿åŁİ": 3297,
      "å½ĵæĺ¯": 3298,
      "æĪĲçļĦ": 3299,
      "æĪĲå¤©": 3300,
      "äºĮä¸ī": 3301,
      "è¿Ļä¹Īå¤§": 3302,
      "è´©": 3303,
      "è´´çĿĢ": 3304,
      "ä¹Łä¸įæĦ¿": 3305,
      "ä½¿ä»ĸä»¬": 3306,
      "ç¬¦": 3307,
      "çŃĭ": 3308,
      "å§¨å¤ªå¤ª": 3309,
      "æŀ£": 3310,
      "æĹłé¡»": 3311,
      "æ±¡": 3312,
      "ä»ĸä¸įå¤§": 3313,
      "ä»ĸä¸įä¼ļ": 3314,
      "éĵĥ": 3315,
      "åģ¶": 3316,
      "èħĲ": 3317,
      "æĭ¿åĩº": 3318,
      "ç»ıè¿ĩ": 3319,
      "å¥³ä»Ĩ": 3320,
      "è·Łä½ł": 3321,
      "çľŁæĺ¯": 3322,
      "èĬ±çļĦ": 3323,
      "åĸĿç¢Ĺ": 3324,
      "å¨ģ": 3325,
      "æŃ£å¥½": 3326,
      "æŃ£å¦Ĥ": 3327,
      "éķĩ": 3328,
      "çĪ·çĪ·": 3329,
      "çĭ®": 3330,
      "ä»İåīį": 3331,
      "æµĩ": 3332,
      "åıĹäºĨ": 3333,
      "åıĹä¸įäºĨ": 3334,
      "éļ¾åłª": 3335,
      "ç²Ĵ": 3336,
      "çł¸": 3337,
      "æĢİæł·åĳ¢": 3338,
      "èį£": 3339,
      "èįĴ": 3340,
      "æĪĸæĺ¯": 3341,
      "é¢ĺ": 3342,
      "æľ¬äºĭ": 3343,
      "åı«ä½ľ": 3344,
      "æļ´": 3345,
      "ä¸ĢåĪĩçļĦ": 3346,
      "æľĢåĲİçļĦ": 3347,
      "æŃ¤ä¹¦": 3348,
      "åĶ¤": 3349,
      "åĪļä¸Ģ": 3350,
      "éĴī": 3351,
      "åĮħè½¦": 3352,
      "æ¯ĽçĹħ": 3353,
      "å²Ĺ": 3354,
      "éĵºæĿ¿": 3355,
      "äº¤æĥħ": 3356,
      "ç¥¥åŃĲçļĦå¿ĥ": 3357,
      "å®īéĹ¨": 3358,
      "ç´§çļĦ": 3359,
      "åĤ²": 3360,
      "æĴĳ": 3361,
      "åĨ³ä¸į": 3362,
      "æĢ»æĺ¯": 3363,
      "åĨ·éĿĻ": 3364,
      "å¿ĺè®°": 3365,
      "æĺİçĻ½è¿ĩæĿ¥": 3366,
      "èĪĮ": 3367,
      "æĤ¨": 3368,
      "åĵįå£°": 3369,
      "ç½ĳ": 3370,
      "è¿ĻäºĽæĹ¥åŃĲ": 3371,
      "å¥½è±¡æĺ¯": 3372,
      "æĮ£æīİ": 3373,
      "æ··èº«": 3374,
      "éĹ²è¯Ŀ": 3375,
      "å©ļ": 3376,
      "ä»ĬåĦ¿ä¸ª": 3377,
      "æłĳæŀĹ": 3378,
      "ä¼Ļè®¡": 3379,
      "ç»ĵå®ŀ": 3380,
      "åĿĲåľ¨äºĨ": 3381,
      "éĵľæĿ¿": 3382,
      "ä¸įçŁ¥æĢİæł·": 3383,
      "åĬłäºĨ": 3384,
      "æĳ¸äºĨ": 3385,
      "æ¢ģ": 3386,
      "åĪ°åºķæĺ¯": 3387,
      "ä¹Łè®¸æĺ¯": 3388,
      "èĤļåŃĲéĩĮ": 3389,
      "æŁ´": 3390,
      "æŁĶ": 3391,
      "æŁľ": 3392,
      "å®¢æ°Ķ": 3393,
      "å·®ä¸į": 3394,
      "å·®ä¸įå¤ļ": 3395,
      "çĶµçģ¯": 3396,
      "çĶµå½±": 3397,
      "æķħæĦı": 3398,
      "æµ·çĶ¸": 3399,
      "éĨĴäºĨ": 3400,
      "èģĬ": 3401,
      "åĭĩ": 3402,
      "éĹŃä¸Ĭ": 3403,
      "éª¨å¤´": 3404,
      "åħ¶å®ŀ": 3405,
      "èľĤ": 3406,
      "åľĪåĦ¿": 3407,
      "åļ¼": 3408,
      "åĢ¼å¾Ĺ": 3409,
      "æĬĺåŃĲ": 3410,
      "æĬĺç£¨": 3411,
      "æĶ¹äºĨ": 3412,
      "çĪ½æĢ§": 3413,
      "é¢Ħå¤ĩçĿĢ": 3414,
      "è½¦åİĤåŃĲ": 3415,
      "çļĦçĥŁ": 3416,
      "çİĭå®¶": 3417,
      "æ¹ĸ": 3418,
      "éļıä¾¿çļĦ": 3419,
      "é¼»åŃĲ": 3420,
      "ä¸įæĦ¿åĨį": 3421,
      "åľ¨ä¸Ģå¤Ħ": 3422,
      "æĺ¯æĢİåĽŀäºĭ": 3423,
      "ç±³": 3424,
      "ä¸ĵä¸º": 3425,
      "é©¬è·¯ä¸Ĭ": 3426,
      "å¤įæĿĤ": 3427,
      "åľ¨å®¶éĩĮ": 3428,
      "åķĨéĩı": 3429,
      "å®ħéĹ¨éĩĮ": 3430,
      "èĽĭ": 3431,
      "è±ĨèħĲ": 3432,
      "è¾ŀå·¥": 3433,
      "çĮ´åŃĲ": 3434,
      "çļĦçŃī": 3435,
      "æĢİåĬŀåĳ¢": 3436,
      "æļĤæĹ¶": 3437,
      "åĹĵåŃĲ": 3438,
      "èĭ±éĽĦ": 3439,
      "æĭīæķ£åº§": 3440,
      "æĶ¥çĿĢ": 3441,
      "çļĦçł´": 3442,
      "ä¸Īå¤«": 3443,
      "éĹ´å°ıå±ĭ": 3444,
      "åİĨåı²": 3445,
      "ç¾¡æħķ": 3446,
      "åģ·åģ·çļĦ": 3447,
      "¨åĶ": 3448,
      "³åĹ½": 3449,
      "·è¡": 3450,
      "ºçī²": 3451,
      "»éĿĻ": 3452,
      "ĤçĿĢ": 3453,
      "ĩåı": 3454,
      "ä¸¹": 3455,
      "çļ±": 3456,
      "çļĦä»ĸ": 3457,
      "çļĦè¦ģ": 3458,
      "çļĦçľ¼": 3459,
      "çļĦä¸ĢåĪĩ": 3460,
      "çļĦç»¿": 3461,
      "ä»°": 3462,
      "å¤®": 3463,
      "ä»ĸèĥ½": 3464,
      "ä»ĸèĢģ": 3465,
      "ä»ĸåı¯æĺ¯": 3466,
      "ä»ĸå¯¹": 3467,
      "ä»ĸè¿ŀ": 3468,
      "ä»ĸè¶Ĭ": 3469,
      "ä»ĸå¿ħ": 3470,
      "ä»ĸæĥ³èµ·": 3471,
      "ä»ĸå¹¶ä¸į": 3472,
      "ä»ĸä»Ģä¹Īä¹Łä¸į": 3473,
      "ä»ĸå¼Ģå§ĭ": 3474,
      "ä»ĸé¡¾ä¸įå¾Ĺ": 3475,
      "ä¸įä¸º": 3476,
      "ä¸įæĭ¿": 3477,
      "ä¸įæĻĵå¾Ĺ": 3478,
      "ä¸įçĹĽå¿«": 3479,
      "ä¸įæĶ¾å¿ĥ": 3480,
      "äºĨå¤´": 3481,
      "äºĨæķ°": 3482,
      "åı¨åĶ": 3483,
      "ä¹ĸ": 3484,
      "ä¸Ģäºº": 3485,
      "ä¸Ģå¤§": 3486,
      "ä¸Ģå¯¹": 3487,
      "ä¸Ģå¤Ħ": 3488,
      "ä¸Ģä»¶": 3489,
      "æĺ¯çĶ±": 3490,
      "åŃĺçĿĢ": 3491,
      "åŃĲæĿ¥": 3492,
      "åŃĲåİ»": 3493,
      "çĿĢå¤§": 3494,
      "çĿĢæĪĳ": 3495,
      "çĿĢæīĭ": 3496,
      "çĿĢèĦļ": 3497,
      "å°Ķ": 3498,
      "åľ£äºº": 3499,
      "åĲĨ": 3500,
      "æľīäºĭ": 3501,
      "æľīæ²¡æľī": 3502,
      "æľīè®¸å¤ļ": 3503,
      "å®«": 3504,
      "ä¸ªäººçļĦ": 3505,
      "ä¸ªä¹°åįĸ": 3506,
      "æīĺ": 3507,
      "ï¼ģâĢĶâĢĶ": 3508,
      "æĿ¥ä¸ª": 3509,
      "ä¸Ĭå·¥": 3510,
      "ä¸ĬåĵªéĩĮ": 3511,
      "å¿§": 3512,
      "è¯¯": 3513,
      "è¿Ļåĩł": 3514,
      "è¿ĻæĹ¶åĢĻ": 3515,
      "è¿ĻåĦ¿æĿ¥": 3516,
      "åħħ": 3517,
      "åİ»æĥ³": 3518,
      "åľ¨å¥¹": 3519,
      "åľ¨å¤§": 3520,
      "åľ¨æ°´": 3521,
      "åľ¨è¡Ĺ": 3522,
      "åľ¨å±ĭéĩĮ": 3523,
      "åľ¨è¡Ĺä¸Ĭ": 3524,
      "åľ¨ä»ĸå¿ĥä¸Ń": 3525,
      "åľ¨å±ĭä¸Ń": 3526,
      "èµŀ": 3527,
      "äººå£°": 3528,
      "å¾ĹåħĪ": 3529,
      "å¾ĹæĽ´": 3530,
      "å¾Ĺè±¡ä¸ª": 3531,
      "åĦ¿å¥³": 3532,
      "æ²¡è¯´ä»Ģä¹Ī": 3533,
      "åı¯ä¹Łä¸į": 3534,
      "åı¯æĥľ": 3535,
      "åĪ°çİ°åľ¨": 3536,
      "å¥¹å¾Ĺ": 3537,
      "å¥¹è¯´": 3538,
      "å¥¹æĬĬ": 3539,
      "å¥¹æīį": 3540,
      "ä¼ĺ": 3541,
      "ä¼Ł": 3542,
      "åĩºçīĪ": 3543,
      "æĭ§": 3544,
      "æĭ´": 3545,
      "æĭĶ": 3546,
      "éĤ£å°±": 3547,
      "éĤ£è¾Ĩ": 3548,
      "æĢģ": 3549,
      "ç»©": 3550,
      "ç»¸": 3551,
      "ç»ĩ": 3552,
      "å°±åİ»": 3553,
      "å°±è¦ģ": 3554,
      "å°±è±¡": 3555,
      "å¥½ä¸ľè¥¿": 3556,
      "å¥½å®¹æĺĵ": 3557,
      "çľĭå¾Ĺ": 3558,
      "å¤©åľ°": 3559,
      "å¹¼": 3560,
      "éĩĮéĿ¢": 3561,
      "ä½łä¸į": 3562,
      "ä½łåı¯": 3563,
      "ä½łèĩªå·±": 3564,
      "æĥ³è¦ģ": 3565,
      "æĥ³åĨį": 3566,
      "æĪĳä¹Ł": 3567,
      "æĪĳæĬĬ": 3568,
      "æĬĬå¤´": 3569,
      "æĬĬå®ĥ": 3570,
      "æĬĬéĵºçĽĸ": 3571,
      "å¼¹": 3572,
      "è¿ĺä¸Ĭ": 3573,
      "å¤´æĿ¥": 3574,
      "å¤´åĦ¿": 3575,
      "å°ıåŃ©åŃĲ": 3576,
      "å°ıè¤Ĥ": 3577,
      "æł¸": 3578,
      "æķ²": 3579,
      "æķ·è¡": 3580,
      "æŃª": 3581,
      "è¿ĩè¿Ļä¸ª": 3582,
      "èĢģçļĦ": 3583,
      "èĢģå¤©": 3584,
      "èĢģçĪ·": 3585,
      "åı¯æĺ¯è¿ĺ": 3586,
      "åı¯æĺ¯åıĪ": 3587,
      "åı¯æĺ¯ä»ĸä¸į": 3588,
      "ä»Ģä¹Īéĥ½": 3589,
      "ä»Ģä¹Īåľ°æĸ¹": 3590,
      "æĭīæĻļ": 3591,
      "æĭīèµ·è½¦": 3592,
      "è¡«": 3593,
      "èĢĮèĩªå·±": 3594,
      "å¤ļæķ°": 3595,
      "å¤ļå²ģ": 3596,
      "å¤ļéĴŁ": 3597,
      "åıĪæĺ¯": 3598,
      "æ°ĶåĦ¿": 3599,
      "åĴĴ": 3600,
      "åĴ³åĹ½": 3601,
      "èµ°åĩºæĿ¥": 3602,
      "è±¡æĺ¯": 3603,
      "è±¡è¢«": 3604,
      "ä¸ºè¿Ļä¸ª": 3605,
      "åıªä¼ļ": 3606,
      "åıªè§īå¾Ĺ": 3607,
      "æĸ¤": 3608,
      "æĽ³": 3609,
      "å±ģ": 3610,
      "å¯º": 3611,
      "å¯»": 3612,
      "ç®±": 3613,
      "ä¾Ľ": 3614,
      "æ´ģ": 3615,
      "çļĦçĮ": 3616,
      "åĸĩåı": 3617,
      "åĩłå£°": 3618,
      "åĩłåĿĹéĴ±": 3619,
      "èĻĳ": 3620,
      "æīĵæĪĲ": 3621,
      "çĻ½èıľ": 3622,
      "ä»ĸçļĦèħ¿": 3623,
      "ä»ĸçļĦèº«ä½ĵ": 3624,
      "åºĦ": 3625,
      "éģĵçļĦ": 3626,
      "ä¸¤æĸŃ": 3627,
      "åĴĮå¤ªå¤ª": 3628,
      "é©³": 3629,
      "è°·": 3630,
      "éª¡": 3631,
      "èĻİçīĻ": 3632,
      "è¯ĿæĿ¥": 3633,
      "è¯Ŀè¯´": 3634,
      "è¯Ŀåı¯è¯´": 3635,
      "å¾Īå¤§": 3636,
      "å¾Īè±¡": 3637,
      "é¡¹": 3638,
      "å¾Ģä¸ľ": 3639,
      "åĽĽäºĶ": 3640,
      "åĲİè¾¹": 3641,
      "èĭĩ": 3642,
      "çİī": 3643,
      "åĮ»": 3644,
      "éĢ¢": 3645,
      "éĢ®": 3646,
      "å¯¹ä»ĸ": 3647,
      "å½ĵåĪĿ": 3648,
      "æĪĲä¸Ģçīĩ": 3649,
      "æĪĲç»©": 3650,
      "äºĮæĿ¥æĺ¯": 3651,
      "æİĲ": 3652,
      "è´¥": 3653,
      "ä½ıåľ¨": 3654,
      "æ¸´": 3655,
      "ä¹Łä¸įä¼ļ": 3656,
      "åīįåĲİ": 3657,
      "ç¬¨": 3658,
      "è·ĳä¸įäºĨ": 3659,
      "äºĨä¸Ģéģį": 3660,
      "é»ĺ": 3661,
      "çĶ¨æīĭ": 3662,
      "çĶ¨åĬĽ": 3663,
      "çĶ¨ä¸įçĿĢ": 3664,
      "åĬ¨çļĦ": 3665,
      "çŁ¥éģĵäºĨ": 3666,
      "æĹłå¤Ħ": 3667,
      "æĹłæķħ": 3668,
      "åįĸæİī": 3669,
      "æ±¤": 3670,
      "æģ°": 3671,
      "ä»ĸä¸įæĻĵå¾Ĺ": 3672,
      "æķ¢æĥħ": 3673,
      "åĿĲè½¦çļĦ": 3674,
      "è¿ĽåŁİ": 3675,
      "âĳ¥": 3676,
      "ç«Ł": 3677,
      "ç«¥åĦ¿": 3678,
      "å¤ĸåľº": 3679,
      "æĭ¿éĴ±": 3680,
      "æĭ¿èµ·": 3681,
      "ç®Ĺè®¡": 3682,
      "åħīæ£į": 3683,
      "ç¢į": 3684,
      "æ³ķåŃĲ": 3685,
      "åĬĽå£®": 3686,
      "æīĢæľīçļĦ": 3687,
      "èĦ¸çº¢": 3688,
      "èĦ¸ä¸ĬçļĦ": 3689,
      "è°ģèĥ½": 3690,
      "ä¸ĢçĤ¹ä»Ģä¹Ī": 3691,
      "å¥³çļĦ": 3692,
      "å¥³åŃĲ": 3693,
      "è·Łä»ĸ": 3694,
      "è·ŁäºĨ": 3695,
      "å®ļäºĨ": 3696,
      "åĸĿå®Į": 3697,
      "è¢«åŃĲ": 3698,
      "éķľ": 3699,
      "åįĬå¹´": 3700,
      "åįĬç¬ĳ": 3701,
      "éĹ´æĪ¿": 3702,
      "åĩºåİ»äºĨ": 3703,
      "æķĻç¥¥åŃĲ": 3704,
      "è¡Ĺåı£": 3705,
      "è¡ĹéĹ¨": 3706,
      "é»ĳçļĦ": 3707,
      "è¿ľè¿ľ": 3708,
      "èĲ½ä¸ĭ": 3709,
      "è·¯ä¸Ĭ": 3710,
      "æ¸ħåįİ": 3711,
      "é£İä»İ": 3712,
      "é£İåĲ¹": 3713,
      "æµª": 3714,
      "åĽłä¸ºä»ĸ": 3715,
      "çľĭçĿĢèĩªå·±çļĦ": 3716,
      "èĭ¦æģ¼": 3717,
      "åıĹçĿĢ": 3718,
      "å¸¦åĩº": 3719,
      "åĲĳæĿ¥": 3720,
      "åĢĴæĺ¯": 3721,
      "çĪ±è¯´è¯Ŀ": 3722,
      "æľĪçļĦ": 3723,
      "ç¼ł": 3724,
      "åı«ä»ĸ": 3725,
      "ä½İå£°": 3726,
      "æį§": 3727,
      "çĸ¾": 3728,
      "ä¹±çļĦ": 3729,
      "æľĢåĲİ": 3730,
      "æĹ©æĻļ": 3731,
      "æĹ©æĹ©çļĦ": 3732,
      "åİĤä¸»": 3733,
      "çķ¥": 3734,
      "çķª": 3735,
      "çĿ¡äºĨ": 3736,
      "çĿ¡è§ī": 3737,
      "çĿ¡ä¸įçĿĢ": 3738,
      "åĪļè¦ģ": 3739,
      "éĴ®": 3740,
      "äºĶåįģ": 3741,
      "å¨ĺå®¶": 3742,
      "äº¤ç»Ļ": 3743,
      "äº¤å¾ħ": 3744,
      "æĻļéĹ´": 3745,
      "æĴŀ": 3746,
      "æĢ»å¾Ĺ": 3747,
      "åºķåĦ¿": 3748,
      "çĮ«": 3749,
      "éĹ®é¢ĺ": 3750,
      "æķ°åĦ¿": 3751,
      "éĽªç²Ĵ": 3752,
      "åģĩå¦Ĥ": 3753,
      "å¤ľéĹ´": 3754,
      "å¤ľå£¶": 3755,
      "ä¸įåĩºå£°": 3756,
      "è½¬èº«": 3757,
      "æ´ĭè½¦å¤«": 3758,
      "èī²çļĦ": 3759,
      "åĩłä¹İæĺ¯": 3760,
      "çªĳ": 3761,
      "çļĦå°ıå¿ĥ": 3762,
      "çĲĨæĥ³": 3763,
      "çļĦåľ°æĸ¹åİ»": 3764,
      "åī©äºĨ": 3765,
      "çĥŁéħĴ": 3766,
      "çĥŁåį·": 3767,
      "é»ĦçļĦ": 3768,
      "éĤ£æł·çļĦ": 3769,
      "åŃĹåı·": 3770,
      "åĿĲåľ¨è½¦ä¸Ĭ": 3771,
      "éĢģåĪ°": 3772,
      "äºĮå¼ºå«Ĥ": 3773,
      "çĶ·çļĦ": 3774,
      "æ¯ıéĢ¢": 3775,
      "ç¾İçļĦ": 3776,
      "å«Į": 3777,
      "æ£ļéĩĮ": 3778,
      "çķĻçĿĢ": 3779,
      "åĲĪéĢĤ": 3780,
      "åĤ»åŃĲ": 3781,
      "å¨¶äº²": 3782,
      "ä¸ĢçĽ´åĪ°": 3783,
      "ç»¿çļĦ": 3784,
      "è¦ģå¼ºçļĦ": 3785,
      "åĢŁçĿĢ": 3786,
      "é£ŀè·ĳ": 3787,
      "åģľä½ı": 3788,
      "äºĮå¼ºåŃĲçļĦ": 3789,
      "è¹¦": 3790,
      "çĿĢä¸Ģå±Ĥ": 3791,
      "æĳĨçĿĢ": 3792,
      "éĨĴè¿ĩæĿ¥": 3793,
      "çĶļèĩ³": 3794,
      "çĶļèĩ³äºİ": 3795,
      "ç»Ŀå¯¹": 3796,
      "å°±å¾ĹäºĨ": 3797,
      "åĭ¤": 3798,
      "ä»·åĦ¿": 3799,
      "ä»·éĴ±": 3800,
      "ä»·åĢ¼": 3801,
      "æĿ¨å¤ªå¤ª": 3802,
      "åĨ»å¾Ĺ": 3803,
      "çĪ¶äº²": 3804,
      "å¾Ģä¸ĭèĲ½": 3805,
      "è¯ķè¯ķ": 3806,
      "å¹´è½»åĬĽå£®": 3807,
      "èĵĦ": 3808,
      "æľīä»Ģä¹ĪçĶ¨": 3809,
      "ä¸Ģæł·çļĦ": 3810,
      "æĬ¥åĳĬ": 3811,
      "èĮ«çĦ¶": 3812,
      "æĬ¬å¤´": 3813,
      "æĬ¬èµ·": 3814,
      "èººä¸ĭ": 3815,
      "èĩªä»İä¸Ģ": 3816,
      "èĥ¸åīį": 3817,
      "ä»ĸä¸įæķ¢åĨį": 3818,
      "æ¸ħæ¥ļäºĨ": 3819,
      "éĽ¶éĴ±": 3820,
      "èĦĳè¢ĭ": 3821,
      "ä¾ĿæĹ§": 3822,
      "åĲĲåĩº": 3823,
      "éĻ¤éĿŀ": 3824,
      "é»ĳæļĹä¸Ń": 3825,
      "è¸¢": 3826,
      "è¸ı": 3827,
      "å½¢å®¹": 3828,
      "åĲµåĺ´": 3829,
      "ç¼ĿåŃĲ": 3830,
      "åĶ¯ä¸ĢçļĦ": 3831,
      "å¦ĩå¥³ä»¬": 3832,
      "æĺ¯æĢİçĿĢ": 3833,
      "åĨĽå®ĺ": 3834,
      "çŁ®åŃĲ": 3835,
      "æŃ¢ä½ı": 3836,
      "çŀªçľ¼": 3837,
      "å±ħçĦ¶": 3838,
      "åķĨè®®": 3839,
      "åĪĢä¸¤æĸŃ": 3840,
      "çļĦç©º": 3841,
      "éĿĻéĿĻçļĦ": 3842,
      "åĥ»éĿĻ": 3843,
      "åı¹äºĨåı£æ°Ķ": 3844,
      "åĪĺå®¶çĪ¶å¥³": 3845,
      "åľ¨è¿Ļç§įæĹ¶åĢĻ": 3846,
      "éĶ£é¼ĵ": 3847,
      "æ²¿ä¸Ĭ": 3848,
      "æĢĴæ°Ķ": 3849,
      "çļĦçĹħ": 3850,
      "è·¯æĹģçļĦ": 3851,
      "å·¦å®ħåİ»": 3852,
      "è¿·è¿·å¿½å¿½çļĦ": 3853,
      "ä¸īåįģå¤ļåĿĹéĴ±": 3854,
      "é¹°": 3855,
      "çĤ®å£°": 3856,
      "èĦĬèĥĮ": 3857,
      "ä½©æľį": 3858,
      "æĶĴéĴ±": 3859,
      "åĩ¡æĺ¯": 3860,
      "æĭĴç»Ŀ": 3861,
      "åģ¶å°Ķ": 3862,
      "çĭ®åŃĲ": 3863,
      "æĳ¸äºĨæĳ¸": 3864,
      "åļ¼è°·": 3865,
      "åı¨åĶł": 3866,
      "æķ·è¡į": 3867,
      "åĸĩåıŃ": 3868,
      "¤å¸ļ": 3869,
      "ªæĺİ": 3870,
      "´çļĦ": 3871,
      "»ç": 3872,
      "½®": 3873,
      "å³": 3874,
      "å»": 3875,
      "æ§": 3876,
      "æĵ": 3877,
      "æ½®": 3878,
      "çĩ": 3879,
      "çĳ": 3880,
      "Ĵĥ": 3881,
      "ĻéĹ¨": 3882,
      "äº¡": 3883,
      "çļĦå°±": 3884,
      "çļĦèĢģ": 3885,
      "çļĦåĲĥ": 3886,
      "çļĦåħĪçĶŁ": 3887,
      "çļĦä¸Ģä¸ª": 3888,
      "çļĦè·ĳ": 3889,
      "çļĦåĺ´": 3890,
      "çļĦä¸ĢäºĽ": 3891,
      "çļĦä¸»æĦı": 3892,
      "çļĦåĪĨ": 3893,
      "çļĦåŃĹ": 3894,
      "çļĦåĬŀæ³ķ": 3895,
      "çļĦå·¡èŃ¦": 3896,
      "çļĦæ¶Īæģ¯": 3897,
      "ä»£": 3898,
      "ä»Ĺ": 3899,
      "ä»ĸèĩª": 3900,
      "ä»ĸåĳ¢": 3901,
      "ä»ĸæ²¡æľī": 3902,
      "ä»ĸåĲĥ": 3903,
      "ä»ĸåĴĮ": 3904,
      "ä»ĸä¸ĢçĤ¹": 3905,
      "ä»ĸæĽ´": 3906,
      "ä»ĸå¸¸": 3907,
      "ä»ĸæ°¸è¿ľ": 3908,
      "ä»ĸæģ¨": 3909,
      "ä»ĸçĮĽ": 3910,
      "ä»ĸçĭł": 3911,
      "ä»ĸè¿Ļæīį": 3912,
      "ä¸įå°ı": 3913,
      "ä¸įåĩºæĿ¥": 3914,
      "ä¸įçĪ±": 3915,
      "ä¸įä½Ĩæĺ¯": 3916,
      "ä¸įåĸľæ¬¢": 3917,
      "ä¸įéĢļ": 3918,
      "ä¸įèĩ³äºİ": 3919,
      "äºĨèµ°": 3920,
      "äºĨä»ĸçļĦ": 3921,
      "äºĨä¼¼çļĦ": 3922,
      "äºĨçļĦæĹ¶åĢĻ": 3923,
      "äºĨåĳ½": 3924,
      "ä¹ĺçĿĢ": 3925,
      "ä¸Ģçľĭ": 3926,
      "ä¸ĢèĦļ": 3927,
      "ä¸Ģç¬ĳ": 3928,
      "ä¸Ģå¼ł": 3929,
      "ä¸Ģä¸¤ä¸ª": 3930,
      "ä¸Ģä»½": 3931,
      "æĺ¯æĬĬ": 3932,
      "æĺ¯æľĭåıĭ": 3933,
      "æĺ¯å¤ļä¹Ī": 3934,
      "åŃ¤": 3935,
      "ä½ĻçļĦ": 3936,
      "åĪ¶": 3937,
      "çĿĢéĤ£": 3938,
      "çĿĢèĩªå·±": 3939,
      "çĿĢä¸¤": 3940,
      "çĿĢåĺ´": 3941,
      "çĿĢçīĻ": 3942,
      "å¾·": 3943,
      "æĿĥ": 3944,
      "æĿĨ": 3945,
      "æĿł": 3946,
      "åĲ¦": 3947,
      "æľīä¸Ĭ": 3948,
      "æľīä¸Ģå¤©": 3949,
      "æľīçĲĨ": 3950,
      "æľīè¶£": 3951,
      "åĩ»": 3952,
      "ä¸ªåįģ": 3953,
      "æĿ¥å¾Ĺ": 3954,
      "æĿ¥èĩª": 3955,
      "æĿ¥åĽŀ": 3956,
      "æĿ¥æī¾": 3957,
      "ä¸Ĭå·²": 3958,
      "å¿ł": 3959,
      "è¯¸": 3960,
      "çľ¨": 3961,
      "è¿Ļæĺ¯ä¸ª": 3962,
      "è¿Ļä½į": 3963,
      "è¿Ļä¸¤å¤©": 3964,
      "è½½": 3965,
      "åľ¨èĩªå·±": 3966,
      "åľ¨å°ı": 3967,
      "åľ¨éĻ¢ä¸Ń": 3968,
      "åľ¨çĤķä¸Ĭ": 3969,
      "åľ¨èĮ¶é¦ĨéĩĮ": 3970,
      "èµļ": 3971,
      "äººäºº": 3972,
      "äººå¿ĥ": 3973,
      "äººçī©": 3974,
      "èĢ»": 3975,
      "å¾ĹæĦı": 3976,
      "å¾ĹåĩºæĿ¥": 3977,
      "å¾Ĺæŀģ": 3978,
      "ç¥Ń": 3979,
      "æĹ·": 3980,
      "è½¦æĭī": 3981,
      "ä¹Łæĥ³": 3982,
      "ä¹Łåı¯ä»¥": 3983,
      "ä¹Łæĺ¯ä¸ª": 3984,
      "æ²¡äºĭ": 3985,
      "æ²¡æķ¢": 3986,
      "æ²¡çľĭè§ģ": 3987,
      "ç¥¥åŃĲè¯´": 3988,
      "ç¥¥åŃĲæ²¡æľī": 3989,
      "ç¥¥åŃĲå¾Ī": 3990,
      "ç¥¥åŃĲä¸įèĥ½": 3991,
      "ç¥¥åŃĲä¼¼ä¹İ": 3992,
      "ç¥¥åŃĲçľĭçĿĢ": 3993,
      "ç¥¥åŃĲä½İçĿĢå¤´": 3994,
      "ç¥¥åŃĲå¹¶æ²¡": 3995,
      "ç¥¥åŃĲæĳĩäºĨæĳĩå¤´": 3996,
      "çĶĺ": 3997,
      "åı¯ç¬ĳ": 3998,
      "åı¯éĿł": 3999,
      "åĪ°æīĭ": 4000,
      "æĥ¨": 4001,
      "å¥¹åİ»": 4002,
      "å¥¹åı¯æĺ¯": 4003,
      "å¥¹åıª": 4004,
      "å¥¹å¾Ī": 4005,
      "å¥¹è¿Ļä¹Ī": 4006,
      "å¥¹åı¯ä»¥": 4007,
      "å¥¹çľŁ": 4008,
      "åĩºä¸ª": 4009,
      "åĩºå£°": 4010,
      "æĭ¢": 4011,
      "æĭħ": 4012,
      "éĩĩ": 4013,
      "éĩĬ": 4014,
      "èĩªåĤ²": 4015,
      "ç»µ": 4016,
      "ç»ĨçļĦ": 4017,
      "åĽº": 4018,
      "åĳķ": 4019,
      "å°±æľī": 4020,
      "å°±éĥ½": 4021,
      "å°±æĭī": 4022,
      "å°±æ²¡æľī": 4023,
      "å°±ç®Ĺ": 4024,
      "å¤§éģĵ": 4025,
      "å¤§æĸ¹": 4026,
      "å¤§ä¸ĢçĤ¹": 4027,
      "å¤§èĦļ": 4028,
      "å¤§é»ĳ": 4029,
      "å¤§è¡«": 4030,
      "å¥½å¤ļ": 4031,
      "çĤĴ": 4032,
      "çľĭåĩº": 4033,
      "çľĭäºĨä¸Ģçľ¼": 4034,
      "è¯´ä¸įå®ļ": 4035,
      "çĤ¹èį¯": 4036,
      "ä½łä¸ª": 4037,
      "ä½łåİ»": 4038,
      "ä½łä¹Ł": 4039,
      "ä½łè¦ģ": 4040,
      "ä½łåĪ«": 4041,
      "ä½łå½ĵ": 4042,
      "ä½łä¸įæĺ¯": 4043,
      "ä½łçľŁ": 4044,
      "ä½łçŀ§": 4045,
      "æĪĳæľī": 4046,
      "æĪĳçľĭ": 4047,
      "æĪĳéĥ½": 4048,
      "æĪĳè¦ģæĺ¯": 4049,
      "æĬĬäºº": 4050,
      "æĬĬç¥¥åŃĲ": 4051,
      "æĬĬå®ĥä»¬": 4052,
      "è¿ĺè¦ģ": 4053,
      "è¿ĺæ²¡æľī": 4054,
      "è¿ĺå¾Ī": 4055,
      "è¿ĺè·ŁçĿĢ": 4056,
      "å¤´åİ»": 4057,
      "å¤´ä¸Ģä¸ª": 4058,
      "å¤´ä½İ": 4059,
      "å¤´é¡¶": 4060,
      "å¿ĥä¸Ĭ": 4061,
      "å¿ĥè·¯": 4062,
      "å°ıå§Ĳ": 4063,
      "æŃĮ": 4064,
      "èĥ½åĬĽ": 4065,
      "è¦ģç´§": 4066,
      "è¦ģè·³": 4067,
      "è¿ĩéĶĻ": 4068,
      "è¿ĩä¸įåİ»": 4069,
      "åĿĬ": 4070,
      "åĿļ": 4071,
      "åĿŁ": 4072,
      "å¦¥": 4073,
      "å¦ĵ": 4074,
      "å¦ĸ": 4075,
      "åı¯æĺ¯å¾Ī": 4076,
      "å®¶éĩĮ": 4077,
      "èµ·äºĨ": 4078,
      "èµ·äºĽ": 4079,
      "åĢ¦": 4080,
      "åĢį": 4081,
      "èĢĮç¥¥åŃĲ": 4082,
      "èĢĮæ²¡æľī": 4083,
      "åĵĢ": 4084,
      "åıĪæĺ¯éĤ£ä¹Ī": 4085,
      "è¾¾": 4086,
      "éģŃ": 4087,
      "æ²¡æľīä¸Ģä¸ª": 4088,
      "æ²¡æľīå¤ļå°ĳ": 4089,
      "åıªæĥ³": 4090,
      "åıªä¸º": 4091,
      "åıªé¡¾": 4092,
      "åıªåī©äºĨ": 4093,
      "æĸĹ": 4094,
      "ä¼ļåİ»": 4095,
      "å±ĳ": 4096,
      "åĨįèµ°": 4097,
      "åĨįä¹Łä¸į": 4098,
      "åĨįåĬłä¸Ĭ": 4099,
      "çĽĽ": 4100,
      "å¯¡": 4101,
      "å¯ŀ": 4102,
      "æ´Ĵ": 4103,
      "çļĦçĭ": 4104,
      "ç»Ļä»ĸä»¬": 4105,
      "åĩłåĿĹ": 4106,
      "åĩłæŃ¥": 4107,
      "æīĵçĶµ": 4108,
      "æīĵäºĨä¸ª": 4109,
      "æīĵé¼ĵ": 4110,
      "çĻ½çĻ½": 4111,
      "çĻ½äº®": 4112,
      "çĻ½çĻ½çļĦ": 4113,
      "ä»ĸçļĦæīĭ": 4114,
      "ä»ĸçļĦåĺ´": 4115,
      "æ¯Ļ": 4116,
      "åī¥": 4117,
      "åĲĥçĿĢ": 4118,
      "åĲĥåı£": 4119,
      "åĲĥåĲ§": 4120,
      "éģĵçĲĨ": 4121,
      "åĴĮå¥¹": 4122,
      "åĴĮä»ĸä»¬": 4123,
      "åĴĮå¤§å®¶": 4124,
      "é©´": 4125,
      "é©¾": 4126,
      "è¯ĿåĦ¿": 4127,
      "ä¹°åĪ°": 4128,
      "æīĭèĦļ": 4129,
      "çīĽ": 4130,
      "çīºçī²": 4131,
      "ä½ľä¸º": 4132,
      "çĥ¤": 4133,
      "èĤĥ": 4134,
      "èĤĺ": 4135,
      "è§īçĿĢ": 4136,
      "æĺİçŁ¥éģĵ": 4137,
      "å¾Ģä¸Ĭ": 4138,
      "å¾ĢæĹ¥": 4139,
      "åĽĽèĤ¢": 4140,
      "ä¾¿è¶Ĭ": 4141,
      "å£°åĦ¿": 4142,
      "åįģä¸ĢçĤ¹": 4143,
      "èº«åĲİ": 4144,
      "çİ»ç": 4145,
      "å¿«å¿«": 4146,
      "è¥¿å®īéĹ¨": 4147,
      "åĿĹåĦ¿": 4148,
      "å¯¹äºĨ": 4149,
      "å½ĵä»ĸ": 4150,
      "äºĮå¹´": 4151,
      "è´ª": 4152,
      "è¢ĸ": 4153,
      "è¿Ļä¸ªèĢģ": 4154,
      "è¿Ļä¸ªäºĭ": 4155,
      "ä½¿ä»ĸä¸į": 4156,
      "éļĲ": 4157,
      "å¼Ģçľ¼": 4158,
      "å¼Ģåı£": 4159,
      "å¼Ģå¼Ģ": 4160,
      "æĶ¾å¼ĥ": 4161,
      "ç¬¤å¸ļ": 4162,
      "éĤ£ä¹Īå¤§çļĦ": 4163,
      "åħ¨å®¶": 4164,
      "éĿ¢çļĦ": 4165,
      "è·ĳæ³ķ": 4166,
      "çŃĲ": 4167,
      "éĽĩ": 4168,
      "æīįæķ¢": 4169,
      "åĬ¨çĿĢ": 4170,
      "åĬ¨ä½ľ": 4171,
      "åıĳçĶŁ": 4172,
      "æĹłç¼ĺ": 4173,
      "æĹłèģĬ": 4174,
      "çº¦": 4175,
      "çº¹": 4176,
      "æ±ª": 4177,
      "æĸ¹ä¾¿": 4178,
      "æĸ¹åĲĳ": 4179,
      "ä»ĸä¸įæĦ¿": 4180,
      "é¥¥": 4181,
      "åĿĲä¸Ĭ": 4182,
      "ç§§": 4183,
      "ç§°": 4184,
      "èħ®": 4185,
      "èħ»": 4186,
      "èħĶ": 4187,
      "æĳĬ": 4188,
      "æĭ¿åİ»": 4189,
      "æĭ¿åĩºæĿ¥": 4190,
      "æŃ»é¬¼": 4191,
      "æŃ»äº¡": 4192,
      "åħīèį£": 4193,
      "åĬĽçļĦ": 4194,
      "æīĢè¯´çļĦ": 4195,
      "è§īå¾Ĺå¾Ī": 4196,
      "è§īå¾ĹæľīäºĽ": 4197,
      "è°ģçļĦ": 4198,
      "è°ģçŁ¥éģĵ": 4199,
      "ä¸ľè¥¿éĥ½": 4200,
      "ä¸ľè¥¿åĳ¢": 4201,
      "æ¬£": 4202,
      "çİ°æ´ĭ": 4203,
      "èĬ±äºĨ": 4204,
      "èĬ±çĶŁ": 4205,
      "è¾¹ä¸Ĭ": 4206,
      "åĺĢ": 4207,
      "åĸĿèĮ¶": 4208,
      "è¢«çªĿ": 4209,
      "æ°´çŃĴ": 4210,
      "åįĬæģ¼": 4211,
      "åĵªä¸ª": 4212,
      "åĵªæĹ¶": 4213,
      "çŃīåĪ°": 4214,
      "çŃīæĪĳ": 4215,
      "çĭ¼": 4216,
      "å°±æĺ¯åľ¨": 4217,
      "æķĻä»ĸä»¬": 4218,
      "èĦļä¸ĭ": 4219,
      "èĦļæŃ¥": 4220,
      "ç®¡æĿŁ": 4221,
      "è¡Ĺä¸ĬçļĦ": 4222,
      "æ»ĭ": 4223,
      "å¿ħæĺ¯": 4224,
      "èĲ½äºĨ": 4225,
      "åķ·": 4226,
      "åķĥ": 4227,
      "æ¸ħæ¸ħæ¥ļ": 4228,
      "åĬŀäºĭ": 4229,
      "çº¢è¢Ħ": 4230,
      "éķ¿äºĨ": 4231,
      "éķ¿èĢĮ": 4232,
      "æĸ°è¡£": 4233,
      "åĽłä¸ºå¥¹": 4234,
      "åĪ°äºĨå®¶": 4235,
      "çľĭçĿĢéĤ£": 4236,
      "çİ°åľ¨ä»ĸ": 4237,
      "åĲĮæĥħ": 4238,
      "äº®äºĨ": 4239,
      "æ¯Ķä½ł": 4240,
      "æ¯ĶåĪ«äºº": 4241,
      "åĲĳä»ĸ": 4242,
      "è½»çľĭ": 4243,
      "å¹³çļĦ": 4244,
      "å¹³éĿĻ": 4245,
      "åĢĴå¥½": 4246,
      "éªĨé©¼ç¥¥åŃĲ": 4247,
      "éªĨé©¼ä»¬": 4248,
      "äºİæĺ¯": 4249,
      "çłĸ": 4250,
      "ç¾Ĭ": 4251,
      "èį¡": 4252,
      "èį·": 4253,
      "å¥¹çļĦä¸»æĦı": 4254,
      "é¥Ńå±Ģ": 4255,
      "ç«ĭåĪ»": 4256,
      "é¢Ĺ": 4257,
      "ç¼©": 4258,
      "æľ¬éĴ±": 4259,
      "çħ®": 4260,
      "ä½İå¤´": 4261,
      "åŁİæł¹": 4262,
      "æį¢äºĨ": 4263,
      "çĸ¤": 4264,
      "æĹ¢ä¸įèĥ½": 4265,
      "å®ŀçļĦ": 4266,
      "èĢĮä¸Ķæĺ¯": 4267,
      "æľĢå¤§çļĦ": 4268,
      "æĹ©æĻ¨": 4269,
      "æ¡Ī": 4270,
      "èµ¶æĺİåĦ¿": 4271,
      "çĿ¡åİ»": 4272,
      "æŃ¤åľ°": 4273,
      "ç©ºçļĦ": 4274,
      "éĴĪ": 4275,
      "éľŀ": 4276,
      "æľīäºĽåıĳ": 4277,
      "çł´è½¦": 4278,
      "åĹĴ": 4279,
      "äºĶåĿĹ": 4280,
      "ä¸įæķ¢åİ»": 4281,
      "åĪĨå¤ĸ": 4282,
      "æľįè½¯": 4283,
      "ç¥ŀç¬¦": 4284,
      "æıª": 4285,
      "ç¥¥åŃĲçļĦçľ¼": 4286,
      "åĪ«çļĦè½¦å¤«": 4287,
      "åĮĹéķ¿": 4288,
      "çģ«çĤī": 4289,
      "æĴħ": 4290,
      "èħ¿çļĦ": 4291,
      "åĴ±ä»¬çļĦ": 4292,
      "æĤ¬": 4293,
      "çĲĨçļĦ": 4294,
      "ä»ĸä¸Ģçľ¼": 4295,
      "ä»ĸä¸Ģå£°": 4296,
      "åħ«æĪĲ": 4297,
      "åĵįçļĦ": 4298,
      "æŀģå¿«çļĦ": 4299,
      "æľīäºĨèĩªå·±çļĦè½¦": 4300,
      "å¼łç½Ĺ": 4301,
      "åĩīæ°Ķ": 4302,
      "è½¬è¿ĩ": 4303,
      "æ´ĭè½¦å¤«çļĦ": 4304,
      "äº²çĥŃ": 4305,
      "å°Ĩè¦ģ": 4306,
      "æĢİä¹ĪäºĨ": 4307,
      "æĢİä¹Īåķ¦": 4308,
      "éĤ£äºĽèĢģ": 4309,
      "çĹĽå¿«äºĨäºĽ": 4310,
      "éĹ²è°Ī": 4311,
      "å¤ļå°ĳéĴ±": 4312,
      "é«ĺå¦ĪçļĦè¯Ŀ": 4313,
      "çļĦå°ıä¼ĻåŃĲ": 4314,
      "éĽ¨å¸ĥ": 4315,
      "ä¸įç®¡æĺ¯": 4316,
      "çħ§ä¾ĭ": 4317,
      "ä¸įèĤ¯åİ»": 4318,
      "è·³åĪ°": 4319,
      "çŀİ": 4320,
      "ä¹ĭéĹ´": 4321,
      "å¿ĥéĩĮè¯´": 4322,
      "çļĦæĺ¯ä»Ģä¹Ī": 4323,
      "æłĳæľ¨": 4324,
      "é»Ħçĭ®åŃĲ": 4325,
      "åħŃä¸ª": 4326,
      "è¯´äºĨåı¥": 4327,
      "å¦ĩäºº": 4328,
      "æİ¥çĿĢ": 4329,
      "æİ¥è¿ĩæĿ¥": 4330,
      "å¼Ħä¸ª": 4331,
      "èĥ¡åŃĲ": 4332,
      "è·ŁçĿĢä»ĸ": 4333,
      "ä¹ĲæĦı": 4334,
      "éĿŀå¸¸çļĦéļ¾è¿ĩ": 4335,
      "åģĩèĭ¥ä»ĸ": 4336,
      "çľĭäºĨå¥¹": 4337,
      "è®²ç©¶": 4338,
      "å¢Ļä¸Ĭ": 4339,
      "äººåĴĮè½¦åİĤ": 4340,
      "çĶ·åŃĲ": 4341,
      "çĶ·å¥³": 4342,
      "æ¯ıå¤©": 4343,
      "æ¯ıä¸Ģä¸ª": 4344,
      "æ¼ł": 4345,
      "ä»ĸåıªå¥½": 4346,
      "ä»ĸåıªèĥ½": 4347,
      "å¤§æ¦Ĥæĺ¯": 4348,
      "å¤§æ¦Ĥæľī": 4349,
      "è®©ä»ĸ": 4350,
      "éĢĥèµ°": 4351,
      "éĢĥåĳ½": 4352,
      "çķĻç¥ŀ": 4353,
      "æĭĽåĳ¼": 4354,
      "æĺ¯ä¸Ģç§į": 4355,
      "æĹģè¾¹": 4356,
      "æĮĤçĿĢ": 4357,
      "çĽ¸å½ĵçļĦ": 4358,
      "ä¸Ģå£°ä¸įåĩº": 4359,
      "åĲĦæł·": 4360,
      "åĲĦå¤Ħ": 4361,
      "çľģäºĭ": 4362,
      "ä¹°ä¸Ĭèĩªå·±çļĦè½¦": 4363,
      "å¤±åİ»": 4364,
      "å¤±æľĽ": 4365,
      "ç»Ĩç»Ĩ": 4366,
      "å¯¿æ¡ĥ": 4367,
      "ç¡¬æ£Ĵ": 4368,
      "èģªæĺİ": 4369,
      "è¿ĻçĤ¹äºĭ": 4370,
      "æĹ§çļĦ": 4371,
      "çīĮæ¥¼": 4372,
      "ä¿©éĴ±": 4373,
      "èĩŃæ±Ĺ": 4374,
      "éĩįè¦ģ": 4375,
      "åĴ¬çīĻ": 4376,
      "çļĦçģ«": 4377,
      "è°ĥåĬ¨": 4378,
      "éľ²åĩºçĤ¹": 4379,
      "åĩŃä»Ģä¹Ī": 4380,
      "è¯ķéªĮ": 4381,
      "å·´çļĦ": 4382,
      "åı¯çĪ±çļĦ": 4383,
      "è§£éĩĬ": 4384,
      "å¹´è½»çļĦ": 4385,
      "å¡ŀ": 4386,
      "çªĿçªĿ": 4387,
      "æ¨ªæĺ¯": 4388,
      "å¾Ĺå¾Īå¿«": 4389,
      "è£¤åŃĲ": 4390,
      "çĶŁæ´»çļĦ": 4391,
      "çħ¤æ°Ķ": 4392,
      "ä¸įä½ıçļĦ": 4393,
      "åħ¬åı¸": 4394,
      "èĦ±äºĨ": 4395,
      "å¹²åĩĢåĪ©èĲ½": 4396,
      "æĳĶäºĨ": 4397,
      "æĳĶæŃ»": 4398,
      "é¸¡é¸£": 4399,
      "éº»åĪ©": 4400,
      "åĵĪæ¬ł": 4401,
      "æģĲæĥ§": 4402,
      "æŁ³æŀĿ": 4403,
      "æĿĢæ°Ķ": 4404,
      "æĽ¹å®ħçļĦ": 4405,
      "æļĸåĴĮ": 4406,
      "ç©¿çĿĢä»¶": 4407,
      "åĵĨåĹ¦çĿĢ": 4408,
      "æĵ¦äºĨ": 4409,
      "è½¦ä¸ĬçļĦäºº": 4410,
      "çĶŃè¯´äºĨ": 4411,
      "èĦĳçļĦ": 4412,
      "çĽĺç®Ĺ": 4413,
      "ä¾ĿçĦ¶": 4414,
      "è§īåĪ°ä¸Ģç§į": 4415,
      "çİĭäºĮ": 4416,
      "éĢļçº¢": 4417,
      "ä¸ĸçķĮä¸Ĭ": 4418,
      "åıĮæīĭ": 4419,
      "åĲĲæ²«": 4420,
      "æĪĳè¯´ç¥¥åŃĲ": 4421,
      "çĿģå¼Ģçľ¼": 4422,
      "æĽ¿ä»ĸ": 4423,
      "æĮĳåŃĲ": 4424,
      "çĥ¦äºĨ": 4425,
      "åĮ¹éªĨé©¼": 4426,
      "ä¸Ģä¸ĭåŃĲ": 4427,
      "å§Ĳå§Ĳ": 4428,
      "ç£ķå¤´": 4429,
      "éĥ¨åĪĨ": 4430,
      "ä»ĸå¾Īæĥ³": 4431,
      "çĽħéħĴ": 4432,
      "æ¸Ĳæ¸ĲçļĦ": 4433,
      "çĨŁäºº": 4434,
      "çļĦç«ĭåľ¨": 4435,
      "çļĦç«ĭèµ·æĿ¥": 4436,
      "èĴ²": 4437,
      "èĴĻ": 4438,
      "ä¼¸æīĭ": 4439,
      "å¥½åĩłä½į": 4440,
      "çļĦç¡®æĺ¯": 4441,
      "èĥľåĪ©": 4442,
      "æ£±æ£±": 4443,
      "èµĶä¸Ĭ": 4444,
      "è·ºèĦļ": 4445,
      "ç¨³å½ĵ": 4446,
      "ç¬¬äºĮå¤©": 4447,
      "è½¦åı£ä¸Ĭ": 4448,
      "æŃĩä¸Ģå¤©": 4449,
      "æ¸ºèĮ«çļĦ": 4450,
      "è£Ĥå¼Ģ": 4451,
      "ç³ĸæ°´": 4452,
      "ä¸¢ä¸įäºĨ": 4453,
      "ä¸´å®Į": 4454,
      "è¿ĪæŃ¥": 4455,
      "ä¹łæĥ¯": 4456,
      "å¿ĹæĦ¿": 4457,
      "è¯ĳæľ¬": 4458,
      "æĭļåĳ½": 4459,
      "è¦ģä¸įçĦ¶": 4460,
      "æĽ¾ç»ı": 4461,
      "å¯Ĥå¯ŀ": 4462,
      "æİĮæŁľ": 4463,
      "åİ¨åŃĲ": 4464,
      "åİ¨æĪ¿": 4465,
      "åİĭè¿«": 4466,
      "æĬĦèµ·": 4467,
      "æŀªæ¯Ļ": 4468,
      "æ»´æ±Ĺ": 4469,
      "èµĦæľ¬": 4470,
      "ä½łè¿Ļå°ıåŃĲ": 4471,
      "ç¾ŀæĦ§": 4472,
      "æĩĤå¾Ĺ": 4473,
      "æ¤ħåŃĲ": 4474,
      "åŃĶåľ£äºº": 4475,
      "åľ¨å¤ĸéĿ¢": 4476,
      "çģŃäºĨ": 4477,
      "ç²®é£Ł": 4478,
      "æī§äºĭ": 4479,
      "è¯ģæĺİ": 4480,
      "çļĦç¤¼": 4481,
      "ä»¤äºº": 4482,
      "åĲīç¥¥": 4483,
      "ä¾¿éģĵä¸Ĭ": 4484,
      "æĪĲå¤©éĻħ": 4485,
      "éķĩå®ļ": 4486,
      "å¿ĺè®°äºĨ": 4487,
      "åĭĩæ°Ķ": 4488,
      "éĹŃä¸Ĭçľ¼": 4489,
      "åĴĴéªĤ": 4490,
      "éª¡é©¬": 4491,
      "æĹłæķħçļĦ": 4492,
      "çİ»çĴĥ": 4493,
      "æ¸ħæ¸ħæ¥ļæ¥ļ": 4494,
      "å¼łç½Ĺä¹°åįĸ": 4495,
      "\"ï¼ģ": 4496,
      "©æ¢¦": 4497,
      "ªĲ": 4498,
      "²åı£": 4499,
      "·çĿĢ": 4500,
      "ãĤ": 4501,
      "å´": 4502,
      "æªĲ": 4503,
      "ç°": 4504,
      "ç¦ģ": 4505,
      "èŁ": 4506,
      "èł": 4507,
      "é³": 4508,
      "Ĥèļ": 4509,
      "Ĩæĥ³": 4510,
      "įåĴĮ": 4511,
      "ĲĨæĥ³": 4512,
      "ķè¿¹": 4513,
      "ŀç¥¨": 4514,
      "ä¸¸": 4515,
      "ä¸ģ": 4516,
      "äºķ": 4517,
      "çļĦæľī": 4518,
      "çļĦéĴ±": 4519,
      "çļĦå¹²": 4520,
      "çļĦåħ¨": 4521,
      "çļĦä»İ": 4522,
      "çļĦå¾®": 4523,
      "çļĦåĳ³": 4524,
      "çļĦåĸĬ": 4525,
      "çļĦåħ³ç³»": 4526,
      "çļĦéĿĴ": 4527,
      "çļĦåİīå®³": 4528,
      "çļĦç¥ŀæ°Ķ": 4529,
      "ä»ħ": 4530,
      "ä»ĸåĪ°": 4531,
      "ä»ĸæĶ¾": 4532,
      "ä»ĸè·ĳ": 4533,
      "ä»ĸèĻ½": 4534,
      "ä»ĸåĢĴ": 4535,
      "ä»ĸçĪ±": 4536,
      "ä»ĸçľĭè§ģ": 4537,
      "ä»ĸæĺ¯ä¸ª": 4538,
      "ä»ĸæĢ»": 4539,
      "ä»ĸæ»¡": 4540,
      "ä»ĸæŀģ": 4541,
      "ä»ĸéĹ®": 4542,
      "ä»ĸåĿĲåľ¨": 4543,
      "ä»ĸåºĶå½ĵ": 4544,
      "ä»ĸå®Įåħ¨": 4545,
      "ä»ĸåĵĨåĹ¦": 4546,
      "ä»ĸç®ĢçĽ´": 4547,
      "ä»ĸå¿ħå®ļ": 4548,
      "ä»ĸæķħæĦıçļĦ": 4549,
      "ä»ĸæī¿è®¤": 4550,
      "ä»ĸå§ĭç»Īæ²¡": 4551,
      "ä¸įå¿«": 4552,
      "ä¸įè¿Ļä¹Ī": 4553,
      "ä¸įæŃ»": 4554,
      "ä¸įåı¯ä»¥": 4555,
      "ä¸įæħ¢": 4556,
      "ä¸įè®¸": 4557,
      "ä¸įè¿ľ": 4558,
      "ä¸įå®ī": 4559,
      "ä¸įæĺİçĻ½": 4560,
      "ä¸įå¦Ĥ": 4561,
      "ä¸įåĩĨ": 4562,
      "ä¸įé¡º": 4563,
      "ä¸įä¿¡": 4564,
      "ä¸įå®Įåħ¨": 4565,
      "ä¸įè§ģäºĨ": 4566,
      "ä¸įåıĬ": 4567,
      "ä¸įçŃĶåºĶ": 4568,
      "ä¸įçĶ±çļĦ": 4569,
      "ä¸įå±ĳ": 4570,
      "äºĨéĴ±": 4571,
      "äºĨåľ°": 4572,
      "äºĨä¸ľè¥¿": 4573,
      "äºĨæ±Ĺ": 4574,
      "äºĨè¿ĩæĿ¥": 4575,
      "äºĨåĩłä¸ª": 4576,
      "è¿İ": 4577,
      "ä¹ĺ": 4578,
      "ä¹ŀ": 4579,
      "ä¸Ģåİ»": 4580,
      "ä¸Ģèĩ": 4581,
      "ä¸ĢåĽŀ": 4582,
      "ä¸Ģä¸¤": 4583,
      "ä¸Ģè·ĳ": 4584,
      "ä¸ĢæŃ»": 4585,
      "ä¸ĢæľĪ": 4586,
      "ä¸Ģæ¯Ľ": 4587,
      "ä¸Ģç¢Ĺ": 4588,
      "ä¸Ģåı£æ°Ķ": 4589,
      "ä¸Ģä¸¤å¤©": 4590,
      "ä¸Ģé¡¿": 4591,
      "ä¸Ģåįĥ": 4592,
      "ä¸ĢèĤ¡": 4593,
      "ä¸Ģåħ±": 4594,
      "ä¸ĢåĪĢä¸¤æĸŃ": 4595,
      "æĺ¯äºĨ": 4596,
      "æĺ¯å¥½": 4597,
      "æĺ¯ä»Ģä¹Ī": 4598,
      "æĺ¯å¯¹": 4599,
      "æĺ¯ä¸ī": 4600,
      "æľ¯": 4601,
      "å¥´": 4602,
      "ä½Ļ": 4603,
      "åĪĹ": 4604,
      "çĿĢäºº": 4605,
      "çĿĢä½ł": 4606,
      "çĿĢèħ°": 4607,
      "å¾¡": 4608,
      "å¾ģ": 4609,
      "å¾ĭ": 4610,
      "å°º": 4611,
      "å°Ŀ": 4612,
      "æĿ¯": 4613,
      "æľīå¸ĮæľĽ": 4614,
      "æľīå¤ļå°ĳ": 4615,
      "æľīå¤ļä¹Ī": 4616,
      "åĩ³": 4617,
      "åĩ¶": 4618,
      "åĩĦ": 4619,
      "åĩĮ": 4620,
      "å®£": 4621,
      "æī¬": 4622,
      "æī¹": 4623,
      "æīĴ": 4624,
      "æīĺçĿĢ": 4625,
      "ä¸Ĭç®Ĺ": 4626,
      "è¯¦": 4627,
      "è¯»": 4628,
      "è¯Ħ": 4629,
      "è¿Ļä¸ĢçĤ¹": 4630,
      "è¿Ļå°±æĺ¯": 4631,
      "è¿Ļè¾Ĩ": 4632,
      "è¿Ļä¸¤ä¸ª": 4633,
      "è¿Ļæ¬¡": 4634,
      "è¿Ļç¾¤": 4635,
      "åħľ": 4636,
      "åİ»çľĭ": 4637,
      "åľ¨å±±": 4638,
      "åľ¨ä¸ĢåĿĹ": 4639,
      "åľ¨å¹³æĹ¥": 4640,
      "åľ¨ä¸ĢåĿĹåĦ¿": 4641,
      "å··": 4642,
      "å·¾": 4643,
      "å·ŀ": 4644,
      "æĪļ": 4645,
      "æĪ´çĿĢ": 4646,
      "æ²¾": 4647,
      "èµĬ": 4648,
      "èµĺ": 4649,
      "èĢĥ": 4650,
      "èĢĹ": 4651,
      "å¾ĹçļĦ": 4652,
      "å¾Ĺæľī": 4653,
      "å¾Ĺåİ»": 4654,
      "å¾Ĺè¦ģ": 4655,
      "å¾Ĺå¤ª": 4656,
      "ç¥Ŀ": 4657,
      "åĦ¿åİ»": 4658,
      "åĦ¿éĥ½": 4659,
      "è½¦ä»½": 4660,
      "è½¦æ£ļ": 4661,
      "ä¹Łåľ¨": 4662,
      "ä¹Łéĥ½": 4663,
      "ä¹Łå°±æĺ¯": 4664,
      "ä¹ŁæľīçĤ¹": 4665,
      "ä¹Łè¯¥": 4666,
      "æ²¡è¯´": 4667,
      "æ²¡èĥ½": 4668,
      "æ²¡èĦ¸": 4669,
      "æ²¡ä¸ĢçĤ¹": 4670,
      "ç¥¥åŃĲä½ł": 4671,
      "ç¥¥åŃĲè¦ģ": 4672,
      "ç¥¥åŃĲæīį": 4673,
      "ç¥¥åŃĲçŁ¥éģĵ": 4674,
      "ç¥¥åŃĲå¿½çĦ¶": 4675,
      "ç¥¥åŃĲç«ĭèµ·æĿ¥": 4676,
      "åı¯ä½ľ": 4677,
      "åı¯æģ¶": 4678,
      "åĪ°æĹ¶åĢĻ": 4679,
      "åĪ°å±ĭä¸Ń": 4680,
      "æĥĳ": 4681,
      "å¥¹è¿ĺ": 4682,
      "å¥¹ä¾¿": 4683,
      "å¥¹ä¸įèĥ½": 4684,
      "å¥¹ä¸Ģå£°": 4685,
      "æĬ«": 4686,
      "æĬĸ": 4687,
      "åĩºèº«": 4688,
      "åĩºäºİ": 4689,
      "åĩºåŁİ": 4690,
      "åĩºä¸įåİ»": 4691,
      "åĩºèĢģè¿ľ": 4692,
      "æĭ¥": 4693,
      "æĭľ": 4694,
      "èĩªèĭ¦": 4695,
      "éĤ£åĦ¿": 4696,
      "éĤ£è¾¹": 4697,
      "éĤ£åĽŀäºĭ": 4698,
      "éĤ£éĹ´å°ıå±ĭ": 4699,
      "åĳ¨": 4700,
      "å°±æĥ³": 4701,
      "å°±èµ°": 4702,
      "å°±åĪ«": 4703,
      "å°±è¢«": 4704,
      "å°±è¡Į": 4705,
      "å°±ä¸Ģå®ļ": 4706,
      "å¤§äºĨ": 4707,
      "å¤§äºº": 4708,
      "å¤§æĦı": 4709,
      "å¤§æīĭ": 4710,
      "å¤§ç¢Ĺ": 4711,
      "å¤§éĽ¨": 4712,
      "å¤§ä¼Ļ": 4713,
      "å¤§åįĬå¤©": 4714,
      "å¤§å®Ŀ": 4715,
      "å¤§ä»Ļ": 4716,
      "å¥½åĲ¬": 4717,
      "å¥½æĦıæĢĿ": 4718,
      "å¥½åĿı": 4719,
      "çĤ½": 4720,
      "çľĭåĲ§": 4721,
      "çľĭè°ģ": 4722,
      "çľĭä¸įä¸Ĭ": 4723,
      "åĨĢ": 4724,
      "åĨĻ": 4725,
      "è¯´ä½ł": 4726,
      "è¯´èµ·": 4727,
      "è¯´ä¸įåĩº": 4728,
      "è¯´çľŁçļĦ": 4729,
      "è¯´ä¸įæ¸ħ": 4730,
      "è¯´åĩłåı¥": 4731,
      "çĤ¹æĿ¥": 4732,
      "çĤ¹çĿĢå¤´": 4733,
      "çĤ¹å¤ļéĴŁ": 4734,
      "ä½łåĨį": 4735,
      "ä½łæĢİæł·": 4736,
      "ä½łè¿ĺæĺ¯": 4737,
      "ä½łæĢİä¹Ī": 4738,
      "æĥ³è¿ĩ": 4739,
      "æĥ³ä¸įåĩº": 4740,
      "éĥ½æĥ³": 4741,
      "éĥ½è¦ģ": 4742,
      "éĥ½è±¡": 4743,
      "ä»¬çļĦ": 4744,
      "æĪĳäºĨ": 4745,
      "æĪĳèµ°": 4746,
      "æĪĳåħĪ": 4747,
      "æĪĳä¸įèĥ½": 4748,
      "æĪĳä¹Łä¸į": 4749,
      "æĪĳåĳĬè¯īä½ł": 4750,
      "è§¦": 4751,
      "è§Ĩ": 4752,
      "æĬĬåĦ¿": 4753,
      "æĬĬèĩªå·±": 4754,
      "æĬĬå°ı": 4755,
      "æĬĬä¸ľè¥¿": 4756,
      "æĬĬéªĨé©¼": 4757,
      "æĬĬå¥¹çļĦ": 4758,
      "æĬĬä¸ĢåĪĩéĥ½": 4759,
      "å¼ĵ": 4760,
      "èĩªå·±è¿ĺ": 4761,
      "èĩªå·±æĭī": 4762,
      "å¤´å°±": 4763,
      "å¤´ä¸İ": 4764,
      "å¿ĥçĸ¼": 4765,
      "å°ıäºĭ": 4766,
      "å°ıå±ĭéĩĮ": 4767,
      "å°ıäºĨäºĽ": 4768,
      "å°ıèĮ¶é¦Ĩ": 4769,
      "å°ıèĥ¡åĲĮ": 4770,
      "å°ıåºĹ": 4771,
      "å°ıè´©": 4772,
      "æł¡": 4773,
      "æł½": 4774,
      "æķ¬": 4775,
      "æķŀ": 4776,
      "èĥ½çļĦ": 4777,
      "è¦ģåİ»": 4778,
      "è¦ģåĨį": 4779,
      "ä¸Ńå¹´": 4780,
      "ä¸ĭç»Ļ": 4781,
      "ä¸ĭè´±": 4782,
      "ä¸ĭå¤´åİ»": 4783,
      "èĢģäºĨ": 4784,
      "èĢģèĻİ": 4785,
      "èĢģèĢģå®ŀ": 4786,
      "èĢģè½¦å¤«çļĦ": 4787,
      "éĿ©": 4788,
      "äºĽæĹ¥åŃĲ": 4789,
      "åĿ¦": 4790,
      "åĿĽ": 4791,
      "åı¯æĺ¯ä¸į": 4792,
      "åı¯æĺ¯å¥¹": 4793,
      "ä»Ģä¹ĪæĿ¥": 4794,
      "èµ·åİ»": 4795,
      "æĭīåİ»": 4796,
      "æĭīéªĨé©¼çļĦ": 4797,
      "äºĭçļĦ": 4798,
      "äºĭä½ľ": 4799,
      "è¡ĻéĹ¨": 4800,
      "èĢĮæĥ³": 4801,
      "èĦ¯": 4802,
      "å¤ļå¤§": 4803,
      "å¤ļåĲĥ": 4804,
      "å¤ļåįĬ": 4805,
      "å¤ļæĮ£": 4806,
      "åĵ¥": 4807,
      "åĵĩ": 4808,
      "åıĪä¸įæķ¢": 4809,
      "æ°Ķä¸Ń": 4810,
      "è¾¨": 4811,
      "è¾Ļ": 4812,
      "ä»¥èĩªå·±çļĦ": 4813,
      "èµ°èµ°": 4814,
      "èµ°åĩºåİ»": 4815,
      "èµ°åĪ°äºĨ": 4816,
      "è±¡ä»ĸ": 4817,
      "è±¡èĻİå¦ŀ": 4818,
      "ä¸ºèĩªå·±çļĦ": 4819,
      "æĶ¿": 4820,
      "åħĪåĪ«": 4821,
      "åħĪä¸įçĶ¨": 4822,
      "ä¼ļè¿Ļä¹Ī": 4823,
      "ä¼ļæŃ»": 4824,
      "å±ŀ": 4825,
      "åĨįä¹Ł": 4826,
      "åĨįä¹°": 4827,
      "åĨįçľĭçľĭ": 4828,
      "çĽ¹": 4829,
      "çĽı": 4830,
      "å¯Ĩ": 4831,
      "çļĦç¨": 4832,
      "çļĦç¿": 4833,
      "çļĦçħ": 4834,
      "çļĦçķ": 4835,
      "çļĦçĲĨæĥ³": 4836,
      "åĸ³": 4837,
      "åĸĺ": 4838,
      "åĩłåįģ": 4839,
      "åĩłä»¶": 4840,
      "èĻ¹": 4841,
      "æīĵçļĦ": 4842,
      "æīĵèµ·": 4843,
      "æīĵå¼ĢäºĨ": 4844,
      "çľ¼æ³ª": 4845,
      "çľ¼çıł": 4846,
      "çĻ½èĸ": 4847,
      "çĻ½é¥¶": 4848,
      "çĻ½å¡Ķ": 4849,
      "ä¸İä»ĸ": 4850,
      "æ¯«": 4851,
      "åĪ«çľĭ": 4852,
      "åĪ«åļ·": 4853,
      "åľ°çļĦ": 4854,
      "åĽŀèµ°": 4855,
      "åĲĥçļĦ": 4856,
      "åĲĥåĸĿ": 4857,
      "åĲĥäºı": 4858,
      "ä¸¤å¤´": 4859,
      "ä¸¤åĮħ": 4860,
      "ä¸¤è¾Ĩè½¦": 4861,
      "ä¸¤ä¸īå¤©": 4862,
      "åĴĮèĻİå¦ŀ": 4863,
      "æĮª": 4864,
      "æĮ½": 4865,
      "æ³¼": 4866,
      "å·²æľī": 4867,
      "å·²æĬĬ": 4868,
      "æīĭæ®µ": 4869,
      "æīĭæī¶": 4870,
      "çī¢": 4871,
      "å¾Īå¥½": 4872,
      "å¾Īå°ı": 4873,
      "å¾Īè¿ľ": 4874,
      "å¾Īå¤§çļĦ": 4875,
      "å¾Īåĸľæ¬¢": 4876,
      "èĤ¿": 4877,
      "èĤĿ": 4878,
      "è§ģè¯Ĩ": 4879,
      "åı£çļĦ": 4880,
      "åı£è¢ĭ": 4881,
      "è§īåĩºæĿ¥": 4882,
      "å¾ĢåĽŀèµ°": 4883,
      "åĽĽä¸ª": 4884,
      "ä¾¿äºİ": 4885,
      "å£°æľº": 4886,
      "åįģä¸ª": 4887,
      "åįģåĩłä¸ª": 4888,
      "åĲİéĹ¨": 4889,
      "åĲİéĻ¢": 4890,
      "éĻª": 4891,
      "éĻ·": 4892,
      "éĻĦ": 4893,
      "éĹ¨æ¥¼": 4894,
      "ä¸įèĥ½å®Įåħ¨": 4895,
      "ä¸Ģä¸ªè·Ł": 4896,
      "ä¸Ģä¸ªæľĪ": 4897,
      "ä¸Ģä¸ªåŃĲåĦ¿": 4898,
      "ä¸Ģä¸ªéĵľæĿ¿": 4899,
      "å¿«åĪ°": 4900,
      "éĢĶ": 4901,
      "åĿĹçĻ½": 4902,
      "å¯¹ç¥¥åŃĲ": 4903,
      "å½ĵä¸Ń": 4904,
      "æĪĲä¸Ģ": 4905,
      "äºĮæĿ¥": 4906,
      "äºĮä¸īåįģ": 4907,
      "ä»ĸä»¬éĥ½": 4908,
      "ä»ĸä»¬èĩªå·±": 4909,
      "ä»ĸä»¬ä¼ļ": 4910,
      "ä»ĸä»¬çĪ¶å¥³": 4911,
      "è¿Ļä¹Īæĥ³": 4912,
      "è¿Ļä¹Īæł·": 4913,
      "è´«": 4914,
      "è´º": 4915,
      "è´Ŀ": 4916,
      "èĥĥ": 4917,
      "ä¹Łä¸įå¤§": 4918,
      "ä¹Łä¸įè¡Į": 4919,
      "ä½¿å¥¹": 4920,
      "å¹²å¹²åĩĢ": 4921,
      "å¹²èĦĨçļĦ": 4922,
      "å¼Ģå¼ł": 4923,
      "é£ĺ": 4924,
      "æĶ¾åĩºåİ»": 4925,
      "åīįéĹ¨": 4926,
      "ç¬¼": 4927,
      "ä¸īäºĶ": 4928,
      "ä¸ľéĹ´": 4929,
      "éĤ£ä¹Īä¸ª": 4930,
      "éĤ£ä¹Īé«ĺ": 4931,
      "éĺ¶": 4932,
      "éĺģ": 4933,
      "éĺĶ": 4934,
      "è·ĳèµ·æĿ¥": 4935,
      "éĽ¾": 4936,
      "éĽħ": 4937,
      "éĽįåĴĮ": 4938,
      "èĩªå·±çļĦå¿ĥ": 4939,
      "èĩªå·±çļĦäºĭ": 4940,
      "èĩªå·±çļĦåĳ½": 4941,
      "èĩªå·±çļĦåĬĽæ°Ķ": 4942,
      "å¤§å®¶åĩłä¹İ": 4943,
      "é«Ń": 4944,
      "å§¥": 4945,
      "æŀķ": 4946,
      "äºĨä¸Ģå¤§": 4947,
      "äºĨä¸Ģåı£": 4948,
      "çĶ¨å¤Ħ": 4949,
      "å¿ĥä¸Ńå¿½çĦ¶": 4950,
      "æīįæľī": 4951,
      "å¹´å¤´": 4952,
      "å¹´å²ģ": 4953,
      "åĬ¨æīĭ": 4954,
      "çŁ¥éģĵæĢİæł·": 4955,
      "é«ĺäºĨ": 4956,
      "é«ĺæĺİ": 4957,
      "åıĳä½ľ": 4958,
      "åıĳèĦ¾æ°Ķ": 4959,
      "æĹłèµĸ": 4960,
      "çº¯": 4961,
      "æ±ģ": 4962,
      "ä»ĸä¸įåĨį": 4963,
      "ä»ĸä¸įçŁ¥": 4964,
      "ä»ĸä¸įä½Ĩ": 4965,
      "é¥½": 4966,
      "æī¾ä¸ª": 4967,
      "åĲ¬è¯´": 4968,
      "åĲ¬æĺİçĻ½": 4969,
      "åĩºæĿ¥è¿Ľåİ»": 4970,
      "åĿĲäºĨèµ·æĿ¥": 4971,
      "ç§ģ": 4972,
      "ç§ĥ": 4973,
      "è¿ĽéĴ±": 4974,
      "è¿ĽæĿ¥äºĨ": 4975,
      "âĳ¦": 4976,
      "è¿ŀå¤§": 4977,
      "èħ¥": 4978,
      "èħ¾": 4979,
      "èħĬ": 4980,
      "å¤ĸè¾¹": 4981,
      "å¤ĸåı·": 4982,
      "æĳĺ": 4983,
      "ä¸įæĺ¯äºº": 4984,
      "ä¸įæĺ¯åĳ³åĦ¿": 4985,
      "è¶Ĭçľĭ": 4986,
      "æĭ¿ä½ı": 4987,
      "æĭ¿èµ·æĿ¥": 4988,
      "ç®Ĺä¸į": 4989,
      "åħīå¤´çļĦ": 4990,
      "ç¢Ł": 4991,
      "æ³ķçļĦ": 4992,
      "èĦ¸çļĦ": 4993,
      "è§īå¾Ĺè¿Ļ": 4994,
      "ä¸ĢçĤ¹çĤ¹": 4995,
      "å¥³å®¢": 4996,
      "åĪĺå§ĳå¨ĺ": 4997,
      "å¹¶ä¸įèĥ½": 4998,
      "è·Łä½łè¯´": 4999,
      "çĽ´äºĨ": 5000,
      "æ´»çļĦ": 5001,
      "ç´«": 5002,
      "çľŁæĥ³": 5003,
      "çİ°æĪĲ": 5004,
      "èĬ±èįī": 5005,
      "ä¿Ń": 5006,
      "åĸĿçĤ¹": 5007,
      "å¨¼": 5008,
      "æĢķå¥¹": 5009,
      "è¢«äººå®¶": 5010,
      "æ°´çļĦ": 5011,
      "æŃ£ç¡®": 5012,
      "é©¬èĻİ": 5013,
      "åįĬæŃ»": 5014,
      "åįĬå¤ľ": 5015,
      "æĽ´å¤ļ": 5016,
      "æĽ´å¤§çļĦ": 5017,
      "æĽ´åĬł": 5018,
      "æĽ´å¤ļçļĦ": 5019,
      "çļĦäººçī©": 5020,
      "åĵªæĺ¯": 5021,
      "çŃīçļĦ": 5022,
      "å°±æĺ¯éĤ£": 5023,
      "å°±æĺ¯è¿Ļæł·": 5024,
      "è¡Įä¸º": 5025,
      "æķĻå¥¹": 5026,
      "æĽ¹åħĪçĶŁåľ¨": 5027,
      "èĦļä¸Ĭ": 5028,
      "ç®¡å®ĥ": 5029,
      "è¡ĹçļĦ": 5030,
      "è¡Ĺçģ¯": 5031,
      "è¡ĹåĿĬ": 5032,
      "ç¬ĳèµ·æĿ¥": 5033,
      "é»ĳæīĭ": 5034,
      "é»ĳçŃ": 5035,
      "é»ĳå½±": 5036,
      "å¿ħèĥ½": 5037,
      "è·¯çļĦ": 5038,
      "åķª": 5039,
      "åķ¼": 5040,
      "æ¸ħæ°´": 5041,
      "æĥħå½¢": 5042,
      "é£İå£°": 5043,
      "çº¢çĿĢçľ¼": 5044,
      "æµħ": 5045,
      "æµĬ": 5046,
      "æµİ": 5047,
      "éħ¬": 5048,
      "çľĭçĿĢå°±": 5049,
      "èĭ¦å¤Ħ": 5050,
      "çİ°åľ¨çļĦ": 5051,
      "æĿ¡åĳ½": 5052,
      "åıĹè¿Ļä¸ª": 5053,
      "è£¸": 5054,
      "éļ¾åıĹ": 5055,
      "è½»æĺĵ": 5056,
      "å¹³å®ī": 5057,
      "çĥŃå¿ĥ": 5058,
      "èī³": 5059,
      "çĪ±çľĭ": 5060,
      "å¥¹çļĦè¯Ŀ": 5061,
      "å¥¹çļĦæ¨¡æł·": 5062,
      "é¥ŃçļĦ": 5063,
      "é¥Ńé£Ł": 5064,
      "ç«ĭä¸ļ": 5065,
      "ç«ĭäºĨèµ·æĿ¥": 5066,
      "æľĪåħī": 5067,
      "æľĪéĹ´": 5068,
      "æľīçĤ¹ä»Ģä¹Ī": 5069,
      "æľīçĤ¹åĲİæĤĶ": 5070,
      "æĢ¥å¾Ĺ": 5071,
      "ç¼İ": 5072,
      "ç¼ĸ": 5073,
      "æľ¬æĥ³": 5074,
      "åı«éªĤ": 5075,
      "ä½İä¸ĭå¤´åİ»": 5076,
      "åŁİéĹ¨": 5077,
      "çĸı": 5078,
      "æĹ¢æĺ¯éĤ£ä¹Ī": 5079,
      "ä¹±åŃĲ": 5080,
      "ä¹±èµ·æĿ¥": 5081,
      "ä¹±æĴŀ": 5082,
      "è¿ĩåİ»çļĦ": 5083,
      "æľĢåı¯": 5084,
      "æĪ¿ç§Ł": 5085,
      "åİĤåŃĲéĩĮ": 5086,
      "çķħ": 5087,
      "èµ¶çĿĢ": 5088,
      "çľĭè§ģä»ĸ": 5089,
      "æŃ¤åĪ»": 5090,
      "ç©ºæľī": 5091,
      "ç©ºçĻ½": 5092,
      "ç©ºæĹ·": 5093,
      "åĶ¬": 5094,
      "éĴ¢": 5095,
      "éĴŀç¥¨": 5096,
      "éľ¸": 5097,
      "éľī": 5098,
      "éľľ": 5099,
      "çł´äºĨ": 5100,
      "å²Ķ": 5101,
      "æıī": 5102,
      "æĲĢ": 5103,
      "äº¤æľĭåıĭ": 5104,
      "åĪ«çļĦéĥ½": 5105,
      "åĸľçĪ±": 5106,
      "ç´§ç´§çļĦ": 5107,
      "éħĴçĽħ": 5108,
      "çģ«è½¦": 5109,
      "çģ«èĭĹ": 5110,
      "çģ«æŁ´": 5111,
      "åĤ¨": 5112,
      "æĴµ": 5113,
      "äººçļĦåľ°æĸ¹": 5114,
      "åĨ³å¿ĥ": 5115,
      "åĨ³ä¸įä¼ļ": 5116,
      "æĢ»æľī": 5117,
      "æĢ»æ¯Ķ": 5118,
      "åĨ·æ·¡": 5119,
      "èħ¿èĦļ": 5120,
      "å¸ĮåĨĢ": 5121,
      "æ»¡å¤©": 5122,
      "å¦ĤåĲĮ": 5123,
      "æĤ£": 5124,
      "ä»ĸä¸ĢçĽ´": 5125,
      "ä»ĸä¸ĢåĲĳ": 5126,
      "åħ«çĤ¹": 5127,
      "åħ«ä¹Ŀ": 5128,
      "æĥ³åĪ°è¿ĻéĩĮ": 5129,
      "ä½¿ä»ĸè§īå¾Ĺ": 5130,
      "ç½¢": 5131,
      "çĮª": 5132,
      "éĽªçĻ½çļĦ": 5133,
      "å¼łçĶ»": 5134,
      "åĩĢäºĨ": 5135,
      "åĩīæ°´": 5136,
      "è½¬åĪ°": 5137,
      "åħ³å¿ĥ": 5138,
      "åħ³äºİ": 5139,
      "æ´ĭæľį": 5140,
      "äº²èĩª": 5141,
      "äº²åĪĩ": 5142,
      "äº²æĪļ": 5143,
      "ä¸įä¼ļåĨį": 5144,
      "å°ĨæĿ¥çļĦ": 5145,
      "çľĭçľĭèĩªå·±": 5146,
      "æĥ³èµ·èĻİå¦ŀ": 5147,
      "æĮ£é¥ŃåĲĥ": 5148,
      "åĩłä¹İè¦ģ": 5149,
      "æ¬¢åĸľ": 5150,
      "æ··è¿ĩçļĦ": 5151,
      "çªģ": 5152,
      "éĹ²çĽĺ": 5153,
      "åĬĽæ°ĶçļĦ": 5154,
      "åİŁæĿ¥": 5155,
      "åİŁåĽł": 5156,
      "æķ´çļĦ": 5157,
      "æķ´é½Ĳ": 5158,
      "ä¸įè¿ĩæĺ¯": 5159,
      "æĭ¾èµ·": 5160,
      "è®¤åĳ½": 5161,
      "å§ĳå¦Ī": 5162,
      "çħ§å¸¸": 5163,
      "çħ§é¡¾": 5164,
      "å©¿": 5165,
      "æ¶ī": 5166,
      "ä»ĸæĥ³ä¸įåĩº": 5167,
      "ä¹ĭå¤ĸ": 5168,
      "å¿ĥéĩĮæľī": 5169,
      "æ´Ĺæ¾¡": 5170,
      "çļ®è¢Ħ": 5171,
      "ä»ĸä¹Łå¾Ĺ": 5172,
      "åĩĨèĥ½": 5173,
      "çĥŁè¢ĭ": 5174,
      "ä»ĸå°±åı¯ä»¥": 5175,
      "èĥĮä¸Ĭ": 5176,
      "ä¸ĥåįģ": 5177,
      "è¯´äºĨè¯Ŀ": 5178,
      "ä»ĸæ²¡æĥ³åĪ°": 5179,
      "åĵŃèµ·æĿ¥": 5180,
      "åĵŃä¸Ģåľº": 5181,
      "æİ¥åıĹ": 5182,
      "é¼ł": 5183,
      "éĩĳåħī": 5184,
      "æĦıæĢĿæĿ¥": 5185,
      "ä»ĸè§īå¾ĹæľīçĤ¹": 5186,
      "çİ©çİ©": 5187,
      "äºĮåįģæĿ¥": 5188,
      "éĵľæ´»": 5189,
      "éĿŀå¸¸çļĦéļ¾": 5190,
      "å¼ĢäºĨçľ¼": 5191,
      "å¿ĺäºĨèĩªå·±": 5192,
      "å¿ĺäºĨè¿Ļä»¶äºĭ": 5193,
      "ä»ĸåıĪæĥ³èµ·": 5194,
      "æļĹæ·¡": 5195,
      "æ¼ĨçļĦ": 5196,
      "åįĹåĮĹ": 5197,
      "éĢĥåħµ": 5198,
      "æ£ļåĮł": 5199,
      "åĲĪèµ·æĿ¥": 5200,
      "æĭĽå¾ħ": 5201,
      "æĭĽç¿»äºĨ": 5202,
      "æĺİå¤©åĨįè¯´": 5203,
      "å¨¶ä¸ª": 5204,
      "åĲ¸çĥŁ": 5205,
      "è¯´è¯ĿåĳĢ": 5206,
      "æģ¶å¿ĥ": 5207,
      "æģ¶æĬ¥": 5208,
      "åı¦æľī": 5209,
      "åģľä½ıäºĨ": 5210,
      "åģľæŃ¢ä½ı": 5211,
      "æ¥ŀäºĨä¼ļåĦ¿": 5212,
      "æŁ¥": 5213,
      "ä»ĸçŁ¥éģĵèĩªå·±": 5214,
      "ä¸įå¤§çĪ±è¯´è¯Ŀ": 5215,
      "çľģéĴ±": 5216,
      "å·®çĤ¹": 5217,
      "åĨįè¯´åĳ¢": 5218,
      "åıĬæł¼": 5219,
      "å¾ħäºĨ": 5220,
      "å¾ħäºĨä¸Ģä¼ļåĦ¿": 5221,
      "æĪĺèĥľ": 5222,
      "å¤´ä¸Ĭè§ģäºĨ": 5223,
      "ç¡¬æĮº": 5224,
      "äºĨä¸¤å¤©": 5225,
      "åĲ¹äºĨ": 5226,
      "æī«éĽª": 5227,
      "è¿ĻçĤ¹éĴ±": 5228,
      "ç»ķçĿĢ": 5229,
      "å§Ķå±Īéĥ½": 5230,
      "é½Ĳåħ¨": 5231,
      "æĿ¨åħĪçĶŁ": 5232,
      "æĿ¨å®ħ": 5233,
      "åĩĳåĲĪ": 5234,
      "éĩįçļĦ": 5235,
      "åĨ°åĩī": 5236,
      "éĹŃçľ¼": 5237,
      "éĹŃçĿĢçľ¼": 5238,
      "æĬĬè½¦æĶ¾ä¸ĭ": 5239,
      "åĴ¬ä¸ĬäºĨ": 5240,
      "åĴ¬çĿĢçīĻ": 5241,
      "æĶ¶æĭ¾å¥½": 5242,
      "éĵºçĽĸåį·": 5243,
      "éľ²åĩºäºĽ": 5244,
      "äºīçĿĢ": 5245,
      "å°½äºĨ": 5246,
      "åĩŃçĿĢ": 5247,
      "è¯ķçĿĢ": 5248,
      "å·´ç»ĵ": 5249,
      "å·´å·´çļĦ": 5250,
      "ç¢°å·§": 5251,
      "çĺª": 5252,
      "è¡Ģæ±Ĺ": 5253,
      "æ¨ªçĿĢ": 5254,
      "çĻ¾åĿĹéĴ±": 5255,
      "ä¸ĢæĿ¡åĳ½": 5256,
      "åħ¶å¦Ļ": 5257,
      "å£®èµ·æĿ¥": 5258,
      "é£Łçī©": 5259,
      "è£¤è¤Ĥ": 5260,
      "è¡¨çİ°": 5261,
      "åĿĲä¸ĭçļĦ": 5262,
      "ä½ĵéĿ¢çļĦ": 5263,
      "èľ¡": 5264,
      "åŃĻåŃĲ": 5265,
      "åħ¬åĽŃ": 5266,
      "èĥ¸èĦ¯": 5267,
      "æĹłè®ºæĢİ": 5268,
      "æĹłè®ºå¦Ĥä½ķ": 5269,
      "å¹¶æ²¡æľīä»Ģä¹Ī": 5270,
      "éº»å°Ĩ": 5271,
      "åı³æīĭ": 5272,
      "å®Ŀè´Ŀ": 5273,
      "æŀ¶åŃĲ": 5274,
      "åĲ¬åĪ°è¿Ļä¸ª": 5275,
      "çĨı": 5276,
      "æĿĢäºº": 5277,
      "èµģåĩºåİ»": 5278,
      "å¥¹ä»¬çļĦ": 5279,
      "å¸Ĥåľº": 5280,
      "æĶ¹ä¸º": 5281,
      "çĪ½å¿«": 5282,
      "éĢıäºĨ": 5283,
      "æļĸæ°Ķ": 5284,
      "çĪ¸çĪ¸çļĦ": 5285,
      "åŀĤ": 5286,
      "ä¸¢äºĨä¸ľè¥¿": 5287,
      "æī¯çĿĢ": 5288,
      "åħ»éªĨé©¼çļĦ": 5289,
      "çĶŃæıĲ": 5290,
      "æĬ¢åİ»": 5291,
      "èº²å¼Ģ": 5292,
      "èº²éģ¿": 5293,
      "åĻİ": 5294,
      "åĻ©æ¢¦": 5295,
      "ä¸įæĥ³åĨį": 5296,
      "åĲįåħ¶å¦Ļ": 5297,
      "å£¶èĮ¶": 5298,
      "åĽŀåĪ°åİĤ": 5299,
      "åłµçĿĢ": 5300,
      "åłµä½ı": 5301,
      "é¼»å°ĸ": 5302,
      "æ²īéĩį": 5303,
      "æ²īæ²ī": 5304,
      "è§Ħè§ĦçŁ©": 5305,
      "çĽ®åīį": 5306,
      "æ£īè¢į": 5307,
      "æ¡ĮåŃĲ": 5308,
      "æ¡Įæ¤ħ": 5309,
      "åĬªåĬĽçļĦ": 5310,
      "çĿģçľ¼": 5311,
      "çĿģå¼ĢäºĨçľ¼": 5312,
      "å¸½åŃĲ": 5313,
      "çļĦçī²åı£": 5314,
      "ç©·äºº": 5315,
      "çĮĽçĦ¶": 5316,
      "åĽŀå¤´çľĭäºĨçľĭ": 5317,
      "æ¿ĢçĥĪ": 5318,
      "è¿ĲåĬ¨": 5319,
      "ä¸ĢæĬĬåĦ¿": 5320,
      "ä¸Ģéĺµé£İ": 5321,
      "æľªå¿ħ": 5322,
      "å¿µéģĵ": 5323,
      "åı¯æĢķçļĦ": 5324,
      "è±¡ä¸Ģå¯¹": 5325,
      "å¹²ä»Ģä¹Īåĳ¢": 5326,
      "çĺ¦çĮ´": 5327,
      "å¤¹çĿĢ": 5328,
      "æ²¡æ³ķåŃĲ": 5329,
      "æ²¡æ³ķåĦ¿": 5330,
      "æĭ¦éĺ»": 5331,
      "å¥½åĩłæ¬¡": 5332,
      "æīĵæī®å¾Ĺ": 5333,
      "è°ģä¹Łä¸įèĤ¯": 5334,
      "èļĤèļ": 5335,
      "æĺıæĺı": 5336,
      "åľĨçľ¼": 5337,
      "åĪ°å¤Ħæĺ¯": 5338,
      "åĳ¼åĲ¸": 5339,
      "æĪĲå®¶ç«ĭä¸ļ": 5340,
      "å·¦åı³çļĦ": 5341,
      "è¡¨ç¤ºåĩº": 5342,
      "æ¼Ĥäº®çļĦè½¦": 5343,
      "æľĿçĿĢ": 5344,
      "åĲ«çĿĢ": 5345,
      "åĲ«çĿĢæ³ª": 5346,
      "ç¥¨åŃĲ": 5347,
      "è½¦åı£åĦ¿": 5348,
      "åĪ°åŁİéĩĮæĿ¥": 5349,
      "çĦ¦èºģ": 5350,
      "çļĦç©¿": 5351,
      "èĲ¥çĶŁ": 5352,
      "æĲģåľ¨": 5353,
      "å¸®åĬ©ä»ĸ": 5354,
      "åĥµ": 5355,
      "ä¸´æĹ¶": 5356,
      "æĭļåĳ½çļĦ": 5357,
      "åĿĳåĦ¿": 5358,
      "åĴķåĴķ": 5359,
      "æĺİåĦ¿ä¸ª": 5360,
      "ä¸Ģä¸ªå°ıéĴ±": 5361,
      "æİĮçģ¯": 5362,
      "åĲĮæĹ¶ä¹Ł": 5363,
      "èİ«åĲįåħ¶å¦Ļ": 5364,
      "æīĳæ»¡": 5365,
      "åħĥå®Ŀ": 5366,
      "æ²Ļæ¼ł": 5367,
      "åºĬä¸Ĭ": 5368,
      "ç¬Ķè´¦": 5369,
      "è¶Ĭæĥ³è¶Ĭ": 5370,
      "çĮľæĥ³": 5371,
      "ä¹¡ä¸ĭäºº": 5372,
      "èĨĿ": 5373,
      "èµĦæł¼": 5374,
      "å¼ıçļĦ": 5375,
      "ä¾ĭå¤ĸ": 5376,
      "æİĴéķ¿": 5377,
      "æİĴåľº": 5378,
      "æ¸¸è¡Ĺ": 5379,
      "ç´łåĩĢ": 5380,
      "åĸĿäºĨéħĴ": 5381,
      "æį®è¯´": 5382,
      "ä¹¦æĪ¿éĩĮ": 5383,
      "éŃĤ": 5384,
      "èµĮéĴ±": 5385,
      "æĹĭè½¬": 5386,
      "æĭĲå¼¯": 5387,
      "åĽ¾çĶ»": 5388,
      "æĥ³äºĨæĥ³": 5389,
      "çļĦçİ©": 5390,
      "ç§¯èĵĦ": 5391,
      "ç®ĹäºĨåĲ§": 5392,
      "ä¿ıçļ®": 5393,
      "å¢ŀå¤ļäºĨ": 5394,
      "æĺ¨å¤ľ": 5395,
      "éĤªè´¢": 5396,
      "çĤ¸äºĨ": 5397,
      "ä»Ģä¹Īä¹Łæ²¡è¯´": 5398,
      "éļĶçĿĢ": 5399,
      "éĶģä¸Ĭ": 5400,
      "æįŁå¤±": 5401,
      "éļıæĹ¶åı¯ä»¥": 5402,
      "çĻ»æĹ¶": 5403,
      "éº¦åŃĲ": 5404,
      "èĩªè¨Ģèĩªè¯ŃçļĦ": 5405,
      "èªĵ": 5406,
      "å°Ĭä¸¥": 5407,
      "æīĽçĿĢ": 5408,
      "éĤ£åĿĹçĸ¤": 5409,
      "åĵĳåĲ§": 5410,
      "çļĦç²¾": 5411,
      "æīĵçīĮçļĦäººä»¬": 5412,
      "åľ°çĭ±éĩĮ": 5413,
      "è¥¿çĽ´éĹ¨": 5414,
      "æ±¡æµĬ": 5415,
      "èĪĮå¤´": 5416,
      "å¤®æ±Ĥ": 5417,
      "åĲĨåĸĿ": 5418,
      "ä¸ĬåĵªéĩĮåİ»åĳ¢": 5419,
      "ä¼ĺè¶Ĭ": 5420,
      "æĢģåº¦": 5421,
      "æĭīæĻļåĦ¿": 5422,
      "ä¾Ľç»Ļ": 5423,
      "éĢ®ä½ı": 5424,
      "æĹłå¤Ħåİ»": 5425,
      "è¿ĽåŁİåİ»": 5426,
      "ç®Ĺè®¡çĿĢ": 5427,
      "èĦ¸çº¢èµ·æĿ¥": 5428,
      "è¿ľè¿ľçļĦ": 5429,
      "åĲĳæĿ¥æ²¡æľī": 5430,
      "ç¼łç»ķ": 5431,
      "éĴ®æī£": 5432,
      "æľīä»Ģä¹ĪçĶ¨åĳ¢": 5433,
      "å³°": 5434,
      "æ§Ĳ": 5435,
      "æĵį": 5436,
      "çĩ¥": 5437,
      "çļĦåĪĨæķ°": 5438,
      "ä»ĸèĩªå±ħ": 5439,
      "è¯¸ä½į": 5440,
      "è¦ģç´§çļĦäºĭ": 5441,
      "çĻ½äº®äº®çļĦ": 5442,
      "éģĵçĲĨæĿ¥": 5443,
      "æĹłç¼ĺæĹłæķħçļĦ": 5444,
      "æ»ĭåĳ³": 5445,
      "åĮĹéķ¿è¡Ĺ": 5446,
      "çħ¤æ°Ķçģ¯": 5447,
      "æĬĦèµ·è½¦æĬĬ": 5448,
      "çģŃäºĨçģ¯": 5449,
      "èł¢": 5450,
      "çļĦåĳ³éģĵ": 5451,
      "ä¸Ģåįĥå¤©": 5452,
      "èĢģèĢģå®ŀå®ŀçļĦ": 5453,
      "çĻ½èĸ¯": 5454,
      "ä¸Ģä¸ªè·Łå¤´": 5455,
      "å¹²å¹²åĩĢåĩĢ": 5456,
      "éĽįåĴĮå®«": 5457,
      "è§Ħè§ĦçŁ©çŁ©": 5458,
      "æĺıæĺıæ²īæ²ī": 5459,
      "¡åĹ": 5460,
      "¡ä¸¹": 5461,
      "¢å¤į": 5462,
      "¢çĸ¾": 5463,
      "§çĿĢ": 5464,
      "ªæ¨ª": 5465,
      "«å¤´": 5466,
      "«çĶŁ": 5467,
      "®å±Ģ": 5468,
      "¯å¢": 5469,
      "¯é¡º": 5470,
      "¯éª¨": 5471,
      "±åŃĲ": 5472,
      "±åĦ¿": 5473,
      "²åĢ¦": 5474,
      "´¯": 5475,
      "¸ç®": 5476,
      "¹æŀľ": 5477,
      "»èľ": 5478,
      "ãĥ": 5479,
      "èŀ": 5480,
      "ģä¸Ĭ": 5481,
      "Ĩç»Ń": 5482,
      "īå¼º": 5483,
      "ĬçĿ¡": 5484,
      "ĭç»": 5485,
      "Įæ¸": 5486,
      "įèĿ": 5487,
      "ıå¤«": 5488,
      "Ľç½ĳ": 5489,
      "Ŀéº»": 5490,
      "Łåº¦": 5491,
      "ï¼Ī": 5492,
      "ï¼ī": 5493,
      "ä¸°": 5494,
      "ä¸½": 5495,
      "ä¸Ŀ": 5496,
      "ä¸«å¤´": 5497,
      "äº©": 5498,
      "äºŃ": 5499,
      "çļĦå¤´": 5500,
      "çļĦåıĪ": 5501,
      "çļĦæ²¡æľī": 5502,
      "çļĦæīĵ": 5503,
      "çļĦåīį": 5504,
      "çļĦéĽ": 5505,
      "çļĦè¿Ľ": 5506,
      "çļĦåĳ½": 5507,
      "çļĦéĤ£ä¸ª": 5508,
      "çļĦçĿ¡": 5509,
      "çļĦä¹°åįĸ": 5510,
      "çļĦéĽ¨": 5511,
      "çļĦæĦŁ": 5512,
      "çļĦéĤ£çĤ¹": 5513,
      "çļĦæĹ¥åŃĲ": 5514,
      "çļĦæµģ": 5515,
      "çļĦéļıçĿĢ": 5516,
      "çļĦç»ıéªĮ": 5517,
      "çļĦèĵĿ": 5518,
      "çļĦåĬĽéĩı": 5519,
      "çļĦé¢ľèī²": 5520,
      "çļĦå¸Ń": 5521,
      "çļĦé©¾": 5522,
      "ä»ĭç»": 5523,
      "å¤¸": 5524,
      "å¤ķ": 5525,
      "ä»ĸæĿ¥": 5526,
      "ä»ĸåı¯": 5527,
      "ä»ĸå¤§": 5528,
      "ä»ĸä¹°": 5529,
      "ä»ĸæĹł": 5530,
      "ä»ĸåĲ¬": 5531,
      "ä»ĸéĿŀ": 5532,
      "ä»ĸæĢķ": 5533,
      "ä»ĸå°±æĺ¯": 5534,
      "ä»ĸä»İ": 5535,
      "ä»ĸæĦ¿": 5536,
      "ä»ĸè¦ģæĺ¯": 5537,
      "ä»ĸæĭīçĿĢ": 5538,
      "ä»ĸåĸľæ¬¢": 5539,
      "ä»ĸåĪ°åºķ": 5540,
      "ä»ĸçŃīçĿĢ": 5541,
      "ä»ĸç¡¬": 5542,
      "ä»ĸéĹŃ": 5543,
      "ä»ĸå¿į": 5544,
      "ä»ĸå¹¶æ²¡": 5545,
      "ä»ĸæĦŁåĪ°": 5546,
      "ä»ĸå§ĭç»Ī": 5547,
      "ä»ĸä¸ĭäºĨ": 5548,
      "ä»ĸç«ĭèµ·æĿ¥": 5549,
      "ä»ĸæĽ¿": 5550,
      "ä»ĸæŃ£åľ¨": 5551,
      "ä»ĸçĽ¸ä¿¡": 5552,
      "ä»ĸæĩĴå¾Ĺ": 5553,
      "ä»ĸç¡®æĺ¯": 5554,
      "ä»ĸèĪįä¸įå¾Ĺ": 5555,
      "ä»ĸæĢ¥å¿Ļ": 5556,
      "ä»ĸæĢĢçĸĳ": 5557,
      "ä»ĸå¥ĶäºĨ": 5558,
      "ä»ĸä¸Ģå¤©åĪ°æĻļ": 5559,
      "ä»ĸæĭīä¸ĬäºĨ": 5560,
      "ä»ĸå¥½è±¡æĺ¯": 5561,
      "ä»ĸåĿĲäºĨèµ·æĿ¥": 5562,
      "ä¸įåľ¨": 5563,
      "ä¸įæĭī": 5564,
      "ä¸įè§ī": 5565,
      "ä¸įæĪĲ": 5566,
      "ä¸įå°±æĺ¯": 5567,
      "ä¸įå¹³": 5568,
      "ä¸įä¸ĭåİ»": 5569,
      "ä¸įå®¹": 5570,
      "ä¸įæĢª": 5571,
      "ä¸įæĺĵ": 5572,
      "ä¸įè±¡ä¸ª": 5573,
      "ä¸įåºĶå½ĵ": 5574,
      "ä¸įä½ıäºĨ": 5575,
      "ä¸įç¦»": 5576,
      "ä¸įèĢģå®ŀ": 5577,
      "ä¸įæ±Ĥ": 5578,
      "ä¸įè®¤è¯Ĩ": 5579,
      "ä¸įåĽŀå¤´": 5580,
      "ä¸įéĹ²çĿĢ": 5581,
      "ä¸įç¼º": 5582,
      "ä¸įèĩªåľ¨": 5583,
      "ä¸įæĩĤ": 5584,
      "ä¸įåĲīç¥¥": 5585,
      "äºĨä½ł": 5586,
      "äºĨåĲ§": 5587,
      "äºĨä»ĸä»¬": 5588,
      "äºĨæĢķ": 5589,
      "äºĨåĪĺåĽĽ": 5590,
      "äºĨç¢Ĺ": 5591,
      "äºĨèĥĮ": 5592,
      "äºĨåĽŀåİ»": 5593,
      "è¿°": 5594,
      "åı¤": 5595,
      "ä¹³": 5596,
      "ä¸ĢæĹ": 5597,
      "ä¸ĢåĪ°": 5598,
      "ä¸Ģè¯´": 5599,
      "ä¸Ģå®¶": 5600,
      "ä¸Ģæĭī": 5601,
      "ä¸ĢçĶŁ": 5602,
      "ä¸Ģè§ģ": 5603,
      "ä¸Ģèº«": 5604,
      "ä¸ĢéĿ¢": 5605,
      "ä¸Ģå°ĳ": 5606,
      "ä¸Ģäº®": 5607,
      "ä¸ĢåĮħ": 5608,
      "ä¸Ģäº¤": 5609,
      "ä¸Ģä½į": 5610,
      "ä¸Ģæ¬¡": 5611,
      "ä¸ĢèĤļåŃĲ": 5612,
      "ä¸ĢåĽŀäºĭ": 5613,
      "ä¸Ģä¹Ŀ": 5614,
      "ä¸ĢæĮĩ": 5615,
      "ä¸Ģè§Ĵ": 5616,
      "ä¸ĢåĬ²åĦ¿": 5617,
      "ä¸Ģéģį": 5618,
      "ä¸ĢæĻĥ": 5619,
      "ä¸Ģä¸²": 5620,
      "ä¸ĢæĶ¯çĥŁ": 5621,
      "ä¸Ģæĸ¤": 5622,
      "ä¸ĢéĹ´æĪ¿": 5623,
      "ä¸Ģå¾ĭ": 5624,
      "ä¸Ģç¢Ł": 5625,
      "ä¸ĢéĹŃçľ¼": 5626,
      "æĺ¯æľī": 5627,
      "æĺ¯è¦ģ": 5628,
      "æĺ¯ä¸İ": 5629,
      "æĺ¯å¾Ģ": 5630,
      "æĺ¯ä¸įèĥ½": 5631,
      "æĺ¯åĿĹ": 5632,
      "æĺ¯è°ģ": 5633,
      "æĺ¯çľŁ": 5634,
      "æĺ¯è¢«": 5635,
      "æĺ¯è¿Ļæł·": 5636,
      "æĺ¯ä¸ĢåĪĩ": 5637,
      "æĺ¯æľĢ": 5638,
      "æĺ¯åĳĢ": 5639,
      "æĺ¯å¤ļå°ĳ": 5640,
      "æĺ¯å®¹æĺĵ": 5641,
      "åĪ®": 5642,
      "çĿĢå¥¹": 5643,
      "çĿĢæĬĬ": 5644,
      "çĿĢå¿ĥ": 5645,
      "çĿĢåľ°": 5646,
      "çĿĢèĤļåŃĲ": 5647,
      "å¾Ĵ": 5648,
      "å°ļ": 5649,
      "æĿı": 5650,
      "åĲ»": 5651,
      "æľīéĴ±": 5652,
      "æľīåĩł": 5653,
      "æľīåĬĽ": 5654,
      "æľīåĲĮ": 5655,
      "åĩĿ": 5656,
      "å®°": 5657,
      "å®µ": 5658,
      "å®ĩ": 5659,
      "å®Ĺ": 5660,
      "ä¸ªåĦ¿": 5661,
      "ä¸ªåŃ©åŃĲ": 5662,
      "ä¸ªåº§åĦ¿": 5663,
      "ä¸ªä¾¿å®ľ": 5664,
      "æĿ¥éĴ±": 5665,
      "æĿ¥äºĨä¸Ģ": 5666,
      "æĿ¥å²ģ": 5667,
      "ä¸Ĭå¥¹": 5668,
      "ä¸Ĭè¿ĺ": 5669,
      "ä¸Ĭå±±": 5670,
      "ä¸ĬçīĻ": 5671,
      "ä¸ĬæĽ¹å®ħ": 5672,
      "ä¸ĬåĲĬ": 5673,
      "ä¸Ĭè¿ĻåĦ¿æĿ¥": 5674,
      "ä¸ĬçĤ¹èį¯": 5675,
      "å¿Į": 5676,
      "è¯¾": 5677,
      "è¯Ĺ": 5678,
      "è¯ĨçļĦ": 5679,
      "è¿Ļå°±": 5680,
      "è¿ĻåĿĹ": 5681,
      "è¿Ļè¾¹": 5682,
      "è¿Ļè¡Į": 5683,
      "è¿Ļæ¯Ķ": 5684,
      "è¿Ļä¸Ģå¤©": 5685,
      "è¿Ļåº§": 5686,
      "è¿Ļåĩłä¸ª": 5687,
      "è¿ĻåĽŀäºĭ": 5688,
      "è¿Ļåıªæĺ¯": 5689,
      "è¿Ļæ²¡æľīä»Ģä¹Ī": 5690,
      "è¿Ļåı¥è¯Ŀ": 5691,
      "åİ»ä½ľ": 5692,
      "åİ»å¤Ħ": 5693,
      "åİ»æĭ¿": 5694,
      "åİ»æĮĳ": 5695,
      "åľ¨èĢģ": 5696,
      "åľ¨ä¸Ģä¸ª": 5697,
      "åľ¨è¿Ļä¹Ī": 5698,
      "åľ¨åīį": 5699,
      "åľ¨å¿ĥä¸Ń": 5700,
      "åľ¨æĸ°": 5701,
      "åľ¨åĪĺåĽĽçĪ·": 5702,
      "åľ¨èº«ä¸Ĭ": 5703,
      "åľ¨åĵªåĦ¿": 5704,
      "åľ¨åĵªéĩĮ": 5705,
      "åľ¨åŁİéĩĮ": 5706,
      "åľ¨è½¦åİĤ": 5707,
      "åľ¨åĮĹå¹³": 5708,
      "åľ¨ä¹¡éĹ´": 5709,
      "åľ¨ç©ºä¸Ń": 5710,
      "åľ¨èĥ¸åīį": 5711,
      "åľ¨é»ĳæļĹä¸Ń": 5712,
      "æ²ı": 5713,
      "äººæĿ¥": 5714,
      "äººåĦ¿": 5715,
      "äººä¹Ł": 5716,
      "äººåĳ¢": 5717,
      "äººéĹ´": 5718,
      "äººåĳ½": 5719,
      "äººç¾¤": 5720,
      "å¾ĹçĿĢ": 5721,
      "å¾Ĺå¿«": 5722,
      "å¾Ĺä½ı": 5723,
      "å¾ĹæĢª": 5724,
      "å¾ĹæĦıçļĦ": 5725,
      "å¾Ĺå¥½å¥½çļĦ": 5726,
      "åĦ¿è½¦": 5727,
      "è½¦åĳ¢": 5728,
      "è½¦éĹ¨": 5729,
      "è½¦ä¸ĬçļĦ": 5730,
      "è½¦æĹģ": 5731,
      "è½¦æĺ¯èĩªå·±çļĦ": 5732,
      "ä¹Łè¦ģ": 5733,
      "ä¹Łå¾Ī": 5734,
      "ä¹Łè¢«": 5735,
      "ä¹Łè¡Į": 5736,
      "ä¹Łå¸¦": 5737,
      "ä¹Łæĺ¾çĿĢ": 5738,
      "ä¹ŁæĩĴå¾Ĺ": 5739,
      "ä¹Łç½¢": 5740,
      "æ²¡ä¸ª": 5741,
      "æ²¡ä½ľ": 5742,
      "æ²¡éĤ£ä¸ª": 5743,
      "æ²¡ä¸»æĦı": 5744,
      "æ²¡éĶĻ": 5745,
      "æ²¡éĶĻåĦ¿": 5746,
      "ç¥¥åŃĲæľī": 5747,
      "ç¥¥åŃĲè¿ĺ": 5748,
      "ç¥¥åŃĲåıª": 5749,
      "ç¥¥åŃĲåĴĮ": 5750,
      "ç¥¥åŃĲä¾¿": 5751,
      "ç¥¥åŃĲåĲ¬": 5752,
      "ç¥¥åŃĲåĩºæĿ¥": 5753,
      "ç¥¥åŃĲåĪļ": 5754,
      "ç¥¥åŃĲä¸įæķ¢": 5755,
      "ç¥¥åŃĲæĦ¿æĦı": 5756,
      "ç¥¥åŃĲå¿ĥéĩĮ": 5757,
      "ç¥¥åŃĲçľĭäºĨ": 5758,
      "ç¥¥åŃĲè¿ĽæĿ¥": 5759,
      "ç¥¥åŃĲä¸Ģæ°Ķ": 5760,
      "ç¥¥åŃĲæĬĬéĴ±": 5761,
      "ç¥¥åŃĲæĬĬè½¦æĭī": 5762,
      "åį«çĶŁ": 5763,
      "åı¯åĪ«": 5764,
      "åı¯è¯´çļĦ": 5765,
      "åĪ°å¥¹": 5766,
      "åĪ°å®¶": 5767,
      "åĪ°ä»ĸçļĦ": 5768,
      "åĪ°èĥ¸": 5769,
      "åĪ°åĪ«å¤Ħ": 5770,
      "å¥¹è¦ģ": 5771,
      "å¥¹åĳ¢": 5772,
      "å¥¹ä½ľ": 5773,
      "å¥¹çŁ¥éģĵ": 5774,
      "å¥¹ä¼¼ä¹İ": 5775,
      "å¥¹ç¬ĳ": 5776,
      "å¥¹å·²ç»ı": 5777,
      "å¥¹è¿ĺæĺ¯": 5778,
      "å¥¹æĺ¯ä¸ª": 5779,
      "å¥¹å°Ĩ": 5780,
      "å¥¹ä¸Ģè¾¹": 5781,
      "å¥¹é©¬ä¸Ĭ": 5782,
      "å¥¹çĭ¬èĩª": 5783,
      "ä¼´": 5784,
      "ä¼ŀ": 5785,
      "ä¼´åĦ¿": 5786,
      "æĬ¢äºĨ": 5787,
      "åĩºçļĦ": 5788,
      "åĩºæīĭ": 5789,
      "åĩºåı£": 5790,
      "åĩºè¿Ļä¹Ī": 5791,
      "åĩºè·¯": 5792,
      "åĩºä¸»æĦı": 5793,
      "åĩºæºľ": 5794,
      "åĩºä¸ĳ": 5795,
      "åĩºå«ģ": 5796,
      "æĭĮ": 5797,
      "æĭĸ": 5798,
      "éĤ®å±Ģ": 5799,
      "èĩªä¿¡": 5800,
      "èĩªæĢľ": 5801,
      "èĩªæħ°": 5802,
      "éĤ£åĽŀ": 5803,
      "éĤ£èº«": 5804,
      "éĤ£é¡¶": 5805,
      "éĤ£çīĩ": 5806,
      "éĤ£ç¾¤": 5807,
      "éĤ£å¥Ĺ": 5808,
      "ç»ĥ": 5809,
      "ç»Ł": 5810,
      "åĽĬ": 5811,
      "åĽļ": 5812,
      "åĽ´çĿĢ": 5813,
      "åĳ¸": 5814,
      "å°±åħĪ": 5815,
      "å°±åĴĮ": 5816,
      "å°±è·ĳ": 5817,
      "å°±å¼Ħ": 5818,
      "å°±åĲ¹": 5819,
      "å°±åĩŃ": 5820,
      "å°±å¿ħå®ļ": 5821,
      "å¤§èµ·æĿ¥": 5822,
      "å¤§è¡Ĺ": 5823,
      "å¤§æ´ĭ": 5824,
      "å¤§æĿĤ": 5825,
      "å¤§èĥĨ": 5826,
      "å¤§ä¸ªåŃĲ": 5827,
      "å¤§å°ĳçĪ·": 5828,
      "å¤§å¤§æĸ¹": 5829,
      "å¥½æĺ¯": 5830,
      "å¥½åİ»": 5831,
      "å¥½åľ¨": 5832,
      "å¥½å¥½": 5833,
      "å¥½éĩĮ": 5834,
      "å¥½å¿ĥ": 5835,
      "å¥½åĬŀ": 5836,
      "å¥½èĮ¶": 5837,
      "å¥½åĩłå¤©": 5838,
      "å¥½æľºä¼ļ": 5839,
      "å¥½åĪ©èĲ½": 5840,
      "çĤŃ": 5841,
      "çľĭä¸įåĩº": 5842,
      "çľĭä¸įèµ·": 5843,
      "çľĭæĺİçĻ½äºĨ": 5844,
      "çľĭåĩºçĤ¹": 5845,
      "çľĭä¸įè§ģ": 5846,
      "éĹ¯": 5847,
      "éĹ¸": 5848,
      "è¯´ä¸į": 5849,
      "è¯´åĪ°": 5850,
      "è¯´åĳ¢": 5851,
      "è¯´åĲ§": 5852,
      "è¯´æ³ķ": 5853,
      "è¯´è¿ĻäºĽ": 5854,
      "è¯´å¥½äºĨ": 5855,
      "è¯´ç¿»äºĨ": 5856,
      "å¤©äºĨ": 5857,
      "å¤©æĺ¯": 5858,
      "å¤©ä¸ĭ": 5859,
      "å¤©çľŁ": 5860,
      "å¤©é»ĳ": 5861,
      "å¤©å¤§çļĦ": 5862,
      "å¤©é¡º": 5863,
      "å¤©åĿĽ": 5864,
      "å¤©éľ¸": 5865,
      "å¹¿": 5866,
      "å¹Į": 5867,
      "åĬ¡": 5868,
      "åĬ¿": 5869,
      "çĤ¹éĴ±": 5870,
      "çĤ¹ä¸ľè¥¿": 5871,
      "çĤ¹çĿĢäºĨ": 5872,
      "çĤ¹çĤ¹å¤´": 5873,
      "éĩĮåĩºæĿ¥": 5874,
      "éĩĮæľĢ": 5875,
      "ä½łè¿ĺ": 5876,
      "ä½łæķ¢": 5877,
      "ä½łåĿĲ": 5878,
      "ä½łåĵª": 5879,
      "ä½łä¹Łå¾Ĺ": 5880,
      "ä½łéĨĴ": 5881,
      "ä½łåĪļæīį": 5882,
      "æĥ³çļĦ": 5883,
      "æĥ³é©¬ä¸Ĭ": 5884,
      "æĥ³ä¸Ģæĥ³": 5885,
      "éĥ½æ²¡æľī": 5886,
      "éĥ½å¸¦": 5887,
      "éĥ½æ¯Ķ": 5888,
      "éĥ½ä¸įæķ¢": 5889,
      "éĥ½ä½¿ä»ĸ": 5890,
      "éĥ½éĿŀå¸¸çļĦ": 5891,
      "éĥ½æĶ¾åľ¨": 5892,
      "éĥ½æĦŁåĪ°": 5893,
      "éĥ½çĿ¡äºĨ": 5894,
      "æĪĳè¿ĺ": 5895,
      "æĪĳèĥ½": 5896,
      "æĪĳä¼ļ": 5897,
      "æĪĳçŁ¥éģĵ": 5898,
      "æĪĳä¸įæĺ¯": 5899,
      "æĪĳæĢķ": 5900,
      "æĪĳçİ°åľ¨": 5901,
      "æĪĳéĹ®": 5902,
      "æĪĳçļĦè½¦": 5903,
      "æĪĳåľ¨è¿ĻåĦ¿": 5904,
      "æĬĬè¯Ŀ": 5905,
      "æĬĬéĹ¨": 5906,
      "æĬĬè¿Ļä¸ª": 5907,
      "æĬĬåīį": 5908,
      "æĬĬå°ıç¦ıåŃĲ": 5909,
      "æĬĬä¸ĢåĪĩ": 5910,
      "æĬĬæ±Ĺ": 5911,
      "æĬĬæ¤ħåŃĲ": 5912,
      "å·±çļĦ": 5913,
      "èĩªå·±å±ĭä¸Ń": 5914,
      "è¿ĺçĶ¨": 5915,
      "è¿ĺè¡Į": 5916,
      "è¿ĺæľīçĤ¹": 5917,
      "è¿ĺä¸įèĤ¯": 5918,
      "è¿ĺç»§ç»Ń": 5919,
      "å¤´ä¸ĬçļĦ": 5920,
      "å¤´ä¸Ģå¤©": 5921,
      "å¤´æĿ¥äºĨ": 5922,
      "å¤´ç£ķ": 5923,
      "å¤´æľĿ": 5924,
      "å¿ĥä¸Ģ": 5925,
      "å°ıé£İ": 5926,
      "å°ıçĭĹ": 5927,
      "å°ıå¸½": 5928,
      "å°ıåŃ©åŃĲä»¬": 5929,
      "å°ıå°ıçļĦ": 5930,
      "å°ıå«©": 5931,
      "å°ıæ£īè¢Ħ": 5932,
      "æłħ": 5933,
      "æłı": 5934,
      "æłĹ": 5935,
      "æķĪ": 5936,
      "æŃ¢äºĨ": 5937,
      "èĥ½ä¸į": 5938,
      "èĥ½å¤ļ": 5939,
      "èĥ½å¤Ł": 5940,
      "èĥ½éģĩåĪ°": 5941,
      "è¦ģä¸Ģ": 5942,
      "è¦ģåĪ°": 5943,
      "è¦ģå¥¹": 5944,
      "è¦ģåĩº": 5945,
      "è¦ģéĴ±": 5946,
      "è¦ģæīĵ": 5947,
      "è¦ģåĿı": 5948,
      "ä¸ŃçļĦäºº": 5949,
      "ä¸ŃéĢĶ": 5950,
      "ä¸ĭéĴ±": 5951,
      "ä¸ĭåľ°": 5952,
      "ä¸ĭåı¥": 5953,
      "ä¸ĭéĽ¨": 5954,
      "ä¸ĭçĭ±": 5955,
      "è¿ĩå¥¹": 5956,
      "è¿ĩåĩł": 5957,
      "è¿ĩè¯Ŀ": 5958,
      "è¿ĩçļĦäºĭ": 5959,
      "è¿ĩäºĨäºĽ": 5960,
      "è¿ĩè¿Ļç§į": 5961,
      "èĢģåĪ°": 5962,
      "èĢģè¿Ļä¹Ī": 5963,
      "èĢģå¦Ī": 5964,
      "èĢģåŁİ": 5965,
      "èĢģæĿ¾": 5966,
      "èĢģè±ĨèħĲ": 5967,
      "èĢģé¼ł": 5968,
      "èĢģä¸Ģå°ĳ": 5969,
      "äºĽéĴ±": 5970,
      "äºĽéħĴ": 5971,
      "åĿ¡": 5972,
      "åĿİ": 5973,
      "åĿł": 5974,
      "å¦¨": 5975,
      "å¦¹": 5976,
      "å¦Ĵ": 5977,
      "å¦ĻçļĦ": 5978,
      "åı¯æĺ¯æ²¡": 5979,
      "åı¯æĺ¯ç¥¥åŃĲ": 5980,
      "åı¯æĺ¯éĤ£": 5981,
      "åı¯æĺ¯è¦ģ": 5982,
      "åı¯æĺ¯æ²¡æľī": 5983,
      "åı¯æĺ¯ä»ĸä»¬": 5984,
      "åı¯æĺ¯ä¸įèĤ¯": 5985,
      "åı¯æĺ¯ä»ĸå¿ĥä¸Ń": 5986,
      "åı¯æĺ¯ä»ĸä¸įæķ¢": 5987,
      "å¸ĺ": 5988,
      "ä»Ģä¹ĪäºĨ": 5989,
      "ä»Ģä¹Īåĳ¢": 5990,
      "ä»Ģä¹Īå¥ĩæĢª": 5991,
      "ï¼ģ\"\"": 5992,
      "èµ·èī²": 5993,
      "æĭīä¸Ģå¤©": 5994,
      "æĭīåĩºè½¦": 5995,
      "æĭīæĥ¯äºĨ": 5996,
      "åĢº": 5997,
      "åĢļ": 5998,
      "èĢĮä»ĸ": 5999,
      "èĢĮåľ¨": 6000,
      "èĢĮè¢«": 6001,
      "èĢĮä¸įæķ¢": 6002,
      "èĢĮä¸Ģæĥ³": 6003,
      "èĦĤ": 6004,
      "å¤ļçľĭ": 6005,
      "å¤ļéĴ±": 6006,
      "å¤ļèµ°": 6007,
      "å¤ļç»Ļ": 6008,
      "å¤ļé«ĺ": 6009,
      "åıĪä¸į": 6010,
      "åıĪæľī": 6011,
      "åıĪåľ¨": 6012,
      "åıĪå¾Ĺ": 6013,
      "åıĪæľīäºĨ": 6014,
      "åıĪæĥ³èµ·": 6015,
      "åıĪæĢª": 6016,
      "åıĪæĺ¯ä¸Ģ": 6017,
      "è±ªæ¨ª": 6018,
      "æ°ĶçļĦ": 6019,
      "æ°Ķå¾Ĺ": 6020,
      "æ°Ķæ´¾": 6021,
      "çĶŁäºĨ": 6022,
      "çĶŁçĹħ": 6023,
      "è¾ĵ": 6024,
      "èµ°åİ»": 6025,
      "èµ°åĳ¢": 6026,
      "èµ°è¶Ĭ": 6027,
      "èµ°è¿ĩåİ»": 6028,
      "èµ°ä½łçļĦ": 6029,
      "èµ°åħ½": 6030,
      "è±¡äºĽ": 6031,
      "è±¡åĿĹ": 6032,
      "è±¡æĿ¡": 6033,
      "è±¡åĪļ": 6034,
      "ä¸ºéĴ±": 6035,
      "æ²¡æľīä¸ª": 6036,
      "æ²¡æľīè¿ĩ": 6037,
      "åıªæľīäºĽ": 6038,
      "åıªæĺ¯ä¸ª": 6039,
      "åıªå·®": 6040,
      "çĪĨ": 6041,
      "åħĪä¸į": 6042,
      "åħĪæĬĬ": 6043,
      "æĸĻ": 6044,
      "ä¼ļæĽ¿ä»ĸ": 6045,
      "å±ı": 6046,
      "å±ķ": 6047,
      "åĨįæĿ¥": 6048,
      "åĨįçľĭ": 6049,
      "åĨįä¹°ä¸Ĭ": 6050,
      "çĽ¯": 6051,
      "çĽĳ": 6052,
      "çĽĴ": 6053,
      "çĽ¼çĿĢ": 6054,
      "ç®Ń": 6055,
      "å¤ªå¹³": 6056,
      "æ´²": 6057,
      "çļĦçª": 6058,
      "çļĦç¼": 6059,
      "çļĦç¾": 6060,
      "çļĦç´¯": 6061,
      "ä¼¼çĿ¡": 6062,
      "ç»Ļèĩªå·±": 6063,
      "ç»Ļè°ģ": 6064,
      "ç»Ļå®ĥ": 6065,
      "ç»ĻåĪ«äºº": 6066,
      "ç»Ļå¤ļå°ĳ": 6067,
      "åĸ·": 6068,
      "åĸĤ": 6069,
      "æīĵä¸ª": 6070,
      "æīĵåĦ¿": 6071,
      "æīĵç²¾ç¥ŀ": 6072,
      "æīĵå®ļäºĨ": 6073,
      "çľ¼åĦ¿": 6074,
      "çľ¼çľĭ": 6075,
      "çľ¼è§Ĵ": 6076,
      "çľ¼çľĭå¥¹": 6077,
      "çĻ½åĲĥ": 6078,
      "çĻ½å¹²": 6079,
      "çĻ½éĿ¢": 6080,
      "çĻ½çīĻ": 6081,
      "ä»ĸçļĦå¤´": 6082,
      "ä»ĸçļĦåĳ½": 6083,
      "ä»ĸçļĦå¸ĮæľĽ": 6084,
      "ä»ĸçļĦèĦĳ": 6085,
      "ä»ĸçļĦç¥ŀæ°Ķ": 6086,
      "ä»ĸçļĦèº«éĩı": 6087,
      "åºı": 6088,
      "åĪ«åĬ¨": 6089,
      "åīĬ": 6090,
      "åľ°çĤ¹": 6091,
      "åľ°éĩĮ": 6092,
      "åľ°éģĵ": 6093,
      "åľ°ä½į": 6094,
      "åĽŀäºĨ": 6095,
      "åĽŀçŃĶ": 6096,
      "åĲĥèį¯": 6097,
      "éģĵè·¯": 6098,
      "ä¸¤çľ¼": 6099,
      "ä¸¤åĿĹ": 6100,
      "ä¸¤éĹ´": 6101,
      "ä¸¤èĦļ": 6102,
      "ä¸¤æ¯Ľ": 6103,
      "ä¸¤ä½į": 6104,
      "ä¸¤ä¸īä¸ª": 6105,
      "åĴĮä»ĸ": 6106,
      "åĴĮäºĽ": 6107,
      "åĴĮåĪ«äºº": 6108,
      "é©¶": 6109,
      "é©¯é¡º": 6110,
      "æ³¢": 6111,
      "å·²ä¸į": 6112,
      "å·²æĺ¯": 6113,
      "å·²éĥ½": 6114,
      "å·²è¢«": 6115,
      "å·²æĪĲäºĨ": 6116,
      "è°±åĦ¿": 6117,
      "è¯Ŀä¸Ń": 6118,
      "çŁ¥è¯Ĩ": 6119,
      "ä¹°æĿ¥": 6120,
      "æīĭä¸Ĭ": 6121,
      "æīĭåħ«": 6122,
      "æīĭä¸ŃçļĦ": 6123,
      "æīĭå¿ĥä¸Ĭ": 6124,
      "ä½ľçĶ¨": 6125,
      "ä½ľè´¼": 6126,
      "å¾Īå¤ļ": 6127,
      "å¾Īæħ¢": 6128,
      "å¾Īé»ĳ": 6129,
      "å¾Īéķ¿": 6130,
      "å¾Īäº®": 6131,
      "å¾Īä¹±": 6132,
      "å¾Īé«ĺåħ´": 6133,
      "å¾ĪçŁŃ": 6134,
      "çĥĽ": 6135,
      "èĤ¤": 6136,
      "èĤł": 6137,
      "è§ģäºº": 6138,
      "åı£éĩĮ": 6139,
      "åı£éħĴ": 6140,
      "è§īäºĨ": 6141,
      "æĺİçļĦ": 6142,
      "å¾ĢéĩĮ": 6143,
      "å¾Ģå¾Ģ": 6144,
      "å¾Ģè¥¿": 6145,
      "å¾Ģå¥½éĩĮ": 6146,
      "åĽĽéĿ¢": 6147,
      "åĽĽæĸ¹": 6148,
      "åĽĽåĽ´": 6149,
      "ä¾¿æ²¡æľī": 6150,
      "ä¾¿åħ¨": 6151,
      "ä¾¿åı¯ä»¥": 6152,
      "ä¾¿åĪ©": 6153,
      "åįģå¤ļ": 6154,
      "åįģäºĶ": 6155,
      "åįģåħŃ": 6156,
      "åĲİæĿ¥": 6157,
      "åĲİå¤©": 6158,
      "éĻĭ": 6159,
      "éĻį": 6160,
      "éĻĨç»Ń": 6161,
      "éĹ¨çļĦ": 6162,
      "éĹ¨åŃĲ": 6163,
      "éĹ¨åīį": 6164,
      "éĹ¨ä¸ĬçļĦ": 6165,
      "éĹ¨ç¼Ŀ": 6166,
      "èĭ¹æŀľ": 6167,
      "èĭįèĿ": 6168,
      "ä¸įèĥ½åİ»": 6169,
      "ä¸Ģä¸ªæĺ¯": 6170,
      "ä¸Ģä¸ªæ°´": 6171,
      "ä¸Ģä¸ªéĵľåŃĲ": 6172,
      "å¿«èµ°": 6173,
      "å¿«ä¸ĥåįģ": 6174,
      "éĢ¼": 6175,
      "éĢī": 6176,
      "éĢĲ": 6177,
      "éĢ¼çĿĢ": 6178,
      "éĢŁåº¦": 6179,
      "è¥¿è¾¹": 6180,
      "è¥¿éĹ´": 6181,
      "è¥¿è¾¹çļĦ": 6182,
      "è¥¿èĭĳ": 6183,
      "çģ¶": 6184,
      "çģ¾": 6185,
      "å¯¹äºº": 6186,
      "å¯¹æīĭ": 6187,
      "å¯¹å¤§å®¶": 6188,
      "å¯¹ä¸įä½ı": 6189,
      "å¯¹ä¸įå¯¹": 6190,
      "å½ĵä¸ª": 6191,
      "å½ĵä¸įäºĨ": 6192,
      "å½ĵå·¡èŃ¦": 6193,
      "å½ĵä¸ªäºº": 6194,
      "æĪĲäºº": 6195,
      "æĪĲå¿ĥ": 6196,
      "æĪĲäºĨä¸Ģ": 6197,
      "äºĮåİ»": 6198,
      "äºĮäºº": 6199,
      "äºĮçĻ½çļĦ": 6200,
      "æİ©": 6201,
      "æİº": 6202,
      "æİĢ": 6203,
      "ä»ĸä»¬æĺ¯": 6204,
      "è¿Ļä¹Īä¸Ģ": 6205,
      "è¿Ļä¹Īä¸Ģåı¥": 6206,
      "èĥĸ": 6207,
      "èĥ¯éª¨": 6208,
      "ä½ıå¤Ħ": 6209,
      "è¢ľ": 6210,
      "è¿Ļä¸ªå¤©": 6211,
      "è¿Ļä¸ªåĤ»": 6212,
      "è¿Ļä¸ªçİ©èīº": 6213,
      "æ¸Įæ¸": 6214,
      "ä¹Łä¸įåĩº": 6215,
      "ä¹Łä¸įæķ¢": 6216,
      "å¹²çĿĢ": 6217,
      "å¹²èĭ¦": 6218,
      "å¹²çĩ¥": 6219,
      "å¼ĢçĿĢ": 6220,
      "å¼Ģå¤§": 6221,
      "æĶ¾ä¸ª": 6222,
      "æĶ¾å¥½": 6223,
      "æĶ¾éĿĴ": 6224,
      "åīįè¿Ľ": 6225,
      "ä¸īåĽĽ": 6226,
      "ä¸īéĿ¢": 6227,
      "ä¸īæĿ¡": 6228,
      "ä¸īæ¯Ľ": 6229,
      "ä¸ľè¾¹": 6230,
      "ä¸ľå®ī": 6231,
      "éĤ£ä¹Īå¤ļ": 6232,
      "èĬĿéº»": 6233,
      "éĺ²": 6234,
      "åħ¨å¿½çĦ¶": 6235,
      "åħ¨çĽĺ": 6236,
      "è·ĳäºĨ": 6237,
      "è·ĳåĩº": 6238,
      "è·ĳåĩºåİ»": 6239,
      "è·ĳåĽŀæĿ¥": 6240,
      "è·ĳå¾Ĺå¾Īå¿«": 6241,
      "çŃĽ": 6242,
      "èĩªå·±çļĦéĴ±": 6243,
      "èĩªå·±çļĦå°ĨæĿ¥": 6244,
      "å¤§å®¶æĺ¯": 6245,
      "å¤§å®¶ä¸Ģçľ¼": 6246,
      "äºĨä¸Ģæ°Ķ": 6247,
      "äºĨä¸Ģèº«": 6248,
      "äºĨä¸ĢåĿĹ": 6249,
      "äºĨä¸Ģåı¥": 6250,
      "äºĨä¸Ģè·³": 6251,
      "äºĨä¸ĢåĽŀäºĭ": 6252,
      "äºĨä¸Ģè¾ĪåŃĲ": 6253,
      "å¿ĥä¸Ńç©º": 6254,
      "æīįå¥½": 6255,
      "æīįæĢª": 6256,
      "æīįè¯´åĩºæĿ¥": 6257,
      "å¹´äºĨ": 6258,
      "å¹´åºķ": 6259,
      "å¹´èĬĤ": 6260,
      "åĬ¨äºĨ": 6261,
      "åĬ¨äººçļĦ": 6262,
      "çŁ¥éģĵæĺ¯": 6263,
      "çŁ¥éģĵä»ĸæĺ¯": 6264,
      "é«ĺå¤§": 6265,
      "é«ĺçŃī": 6266,
      "é«ĺä½İ": 6267,
      "åıĳåħī": 6268,
      "åıĳçĿĢçĤ¹": 6269,
      "åıĳæĦģ": 6270,
      "åıĳæ³Ħ": 6271,
      "æĹłäºĭ": 6272,
      "æĹłéĻĲ": 6273,
      "æĹłåĬĽçļĦ": 6274,
      "çº³": 6275,
      "åįĸåĩºåİ»": 6276,
      "åįĸç³ĸ": 6277,
      "æĸ¹éĿ¢": 6278,
      "æģ¢å¤į": 6279,
      "ä»ĸä¸įæĺİçĻ½": 6280,
      "ä»ĸä¸įçĶ±çļĦ": 6281,
      "æī¾äºĨ": 6282,
      "æī¾çĿĢ": 6283,
      "åĿĲäºĨ": 6284,
      "åĿĲè½¦": 6285,
      "çĹķè¿¹": 6286,
      "çĹ¢çĸ¾": 6287,
      "å±ĭé¡¶": 6288,
      "å±ĭè§Ĵ": 6289,
      "å±ĭåŃĲéĩĮ": 6290,
      "è¿ŀç¥¥åŃĲ": 6291,
      "è¿ŀèĩªå·±": 6292,
      "è¿ŀå¤´": 6293,
      "è¿ŀç¥¥åŃĲä¹Ł": 6294,
      "ç«¿": 6295,
      "å¤ĸçļĦ": 6296,
      "å¤ĸåĽ½": 6297,
      "ä¸įæĺ¯ä¸ª": 6298,
      "ä¸įæĺ¯è¯´": 6299,
      "ä¸įæĺ¯ä¸º": 6300,
      "ä¸įæĺ¯ä»¶": 6301,
      "è¶Ĭå¤§": 6302,
      "è¶Ĭè¯´": 6303,
      "ç®Ĺä¸įäºĨ": 6304,
      "ç®Ĺå¾ĹäºĨ": 6305,
      "ç®ĹçĻ½é¥¶": 6306,
      "æŃ»åİ»": 6307,
      "æŃ»äºº": 6308,
      "æŃ»æĪĳäºĨ": 6309,
      "åħīå¤´": 6310,
      "åħīåħī": 6311,
      "æīĢæľī": 6312,
      "æīĢåºĶ": 6313,
      "æīĢåĺ±åĴĲ": 6314,
      "èĦ¸ä¸į": 6315,
      "èĦ¸éĿ¢": 6316,
      "è°ģåĳ¢": 6317,
      "è°ģä¸įçŁ¥éģĵ": 6318,
      "è°ģåĸĿç¢Ĺ": 6319,
      "ä¸ĢçĤ¹ä¸į": 6320,
      "ä¸ĢçĤ¹åĦ¿": 6321,
      "å®Įäºĭ": 6322,
      "è·Łä»ĸä»¬": 6323,
      "çĽ´åħ¥": 6324,
      "çĽ´æĮº": 6325,
      "æ´»äºĨ": 6326,
      "æ´»åĦ¿": 6327,
      "æ´»è¯¥": 6328,
      "æ´»åŁĭ": 6329,
      "æħ¢çļĦ": 6330,
      "æħ¢äºĨ": 6331,
      "æ¬¾": 6332,
      "èĲį": 6333,
      "çľŁè¦ģ": 6334,
      "çİ°éĴ±": 6335,
      "èĬ±å®Į": 6336,
      "èĬ±æ´ĭ": 6337,
      "èĬ±è½¿": 6338,
      "èĬ±èĬ±çļĦ": 6339,
      "åĺİ": 6340,
      "ä¿Ĺ": 6341,
      "åĸĿçĿĢ": 6342,
      "åĸĿåĩł": 6343,
      "åĸĿåı£": 6344,
      "åĸĿäºĨä¸¤": 6345,
      "ä¸Ķä¹Ĳ": 6346,
      "è¢«åŃĲéĩĮ": 6347,
      "çĶ±ä¹¡éĹ´": 6348,
      "æ°´æľĪ": 6349,
      "æŃ£çľ¼çľĭå¥¹": 6350,
      "é©¬é©¬èĻİ": 6351,
      "åįĬå¤ľéĩĮ": 6352,
      "åįĬæĪª": 6353,
      "æĽ´ä½¿ä»ĸ": 6354,
      "ä¼¼ä¹İæľī": 6355,
      "ä¼¼ä¹İéĥ½": 6356,
      "ä¼¼ä¹İå·²": 6357,
      "ä¼¼ä¹İåħ¨": 6358,
      "çļĦæĹ¶åĢĻäºĨ": 6359,
      "çĭ¡": 6360,
      "çļĦäºĭè¯´": 6361,
      "çļĦäºĭä¸ļ": 6362,
      "å°±æĺ¯ä¸Ģå¤©": 6363,
      "å¸¸çļĦ": 6364,
      "å¸¸å¸¸": 6365,
      "è¡ĮäººçļĦ": 6366,
      "è¡Įä¸įè¡Į": 6367,
      "æķĻäºº": 6368,
      "æķĻèĻİå¦ŀ": 6369,
      "æķĻåĪ«äºº": 6370,
      "æķĻä»ĸåİ»": 6371,
      "æķĻç¥¥åŃĲåİ»": 6372,
      "å¦Īå¦Ī": 6373,
      "å¦Īå¦ĪçļĦ": 6374,
      "å¤ªå¤ªä»¬": 6375,
      "ä»İå®¹": 6376,
      "æĽ¹åħĪçĶŁçļĦ": 6377,
      "æĽ¹åħĪçĶŁä¹Ł": 6378,
      "èĦļåį°": 6379,
      "èĦļåºķä¸ĭ": 6380,
      "ç®¡çĿĢ": 6381,
      "ç®¡è´¦": 6382,
      "ç¬ĳæĦı": 6383,
      "ç¬ĳè¯Ŀ": 6384,
      "ç¬ĳå£°": 6385,
      "ç¬ĳå®¹": 6386,
      "é»ĳæ¼ĨçļĦ": 6387,
      "æ»©": 6388,
      "å¿ħè¦ģ": 6389,
      "è¿ľäºĨ": 6390,
      "è¿Ļæł·çļĦäºº": 6391,
      "èĲ½çļĦ": 6392,
      "èĲ½çĿĢ": 6393,
      "èĲ½ä¸ĭåİ»": 6394,
      "èĲ½åº§åĦ¿": 6395,
      "èĲ½ä¸ĭæĿ¥": 6396,
      "èĲ½èĬ±çĶŁ": 6397,
      "æĥħçĲĨ": 6398,
      "çº¢çĻ½": 6399,
      "çº¢å¢Ļ": 6400,
      "éķ¿å®ī": 6401,
      "å°ıç¦ıåŃĲä¹Ł": 6402,
      "æĸ°å¼Ĥ": 6403,
      "æĸ°é²ľ": 6404,
      "åĽłä¸ºèĩªå·±": 6405,
      "å¼ºæīĵç²¾ç¥ŀ": 6406,
      "åĪ°äºĨåįĹ": 6407,
      "åĪ°äºĨæĹłåı¯å¦Ĥä½ķ": 6408,
      "çľĭçĿĢå¥¹": 6409,
      "èĭ¦äºº": 6410,
      "èĭ¦çĹĽ": 6411,
      "åıĹçļĦ": 6412,
      "åıĹèĭ¦": 6413,
      "åıĹç½ª": 6414,
      "åıĹç´¯": 6415,
      "åĲĮçĿĢ": 6416,
      "åĳ½æĿ¥": 6417,
      "è£ģ": 6418,
      "äº®åĦ¿": 6419,
      "å¸¦æĿ¥": 6420,
      "å¸¦åĽŀ": 6421,
      "æ¯Ķä¸ĢèĪ¬": 6422,
      "éļ¾è¿ĩäºĨ": 6423,
      "åĲĳåīį": 6424,
      "åĲĳåĽĽå¤ĸ": 6425,
      "è½»åĵį": 6426,
      "è½»æĿ¾": 6427,
      "å¹³åľ°": 6428,
      "åĢĴèĥ½": 6429,
      "åĢĴéĢĢ": 6430,
      "åĢĴéľī": 6431,
      "åĺ´å·´": 6432,
      "çĥŃèµ·æĿ¥": 6433,
      "éĻ¢åİ»": 6434,
      "éĶĢ": 6435,
      "ä¸ĬçļĦéĽª": 6436,
      "çĪ±åĲ¬": 6437,
      "çĪ±æĬ¤": 6438,
      "èĢģå¤´åŃĲçļĦ": 6439,
      "èĢģå¤´åŃĲçľŁ": 6440,
      "å¥¹çļĦéĴ±": 6441,
      "å¥¹çļĦçľ¼": 6442,
      "å¥¹çļĦåİīå®³": 6443,
      "å·²ç»ıæĺ¯": 6444,
      "èĻ½çĦ¶æĺ¯": 6445,
      "èĻ½çĦ¶æĺ¯éĤ£ä¹Ī": 6446,
      "é¥Ńç¢Ĺ": 6447,
      "ç«ĭä½ı": 6448,
      "ç«ĭå®ļ": 6449,
      "æĢ¥åĪĩ": 6450,
      "æľ¬æĿ¥æĺ¯": 6451,
      "å¿½çĦ¶çļĦ": 6452,
      "å¿½çĦ¶ä¸Ģ": 6453,
      "å¿½çĦ¶æĥ³èµ·": 6454,
      "åı«çĿĢ": 6455,
      "åı«ä»ĸåİ»": 6456,
      "åı«ä½łåĵª": 6457,
      "ä½İçĿĢ": 6458,
      "ä½İå¤Ħ": 6459,
      "ä½İå£°çļĦ": 6460,
      "æį¡": 6461,
      "æįĨ": 6462,
      "çĸ®": 6463,
      "çĸĻ": 6464,
      "çĸ²åĢ¦": 6465,
      "ä¸ĢäºĽä»Ģä¹Ī": 6466,
      "æĹ¢æ²¡": 6467,
      "è¿ĺæĺ¯å¾Ĺ": 6468,
      "èĩ³å¤ļ": 6469,
      "å®ŀè¯Ŀ": 6470,
      "éĤ£ä¸ªå§ĵ": 6471,
      "èĢĮä¸Ķåı¯ä»¥": 6472,
      "åĽŀæĿ¥çļĦ": 6473,
      "åĽŀæĿ¥åĳ¢": 6474,
      "ä¹±äºĨ": 6475,
      "ä¹±æĥ³": 6476,
      "ä¹±ä¸ĸ": 6477,
      "è¿ĩåİ»çļĦäºĭ": 6478,
      "æľĢæľī": 6479,
      "æľĢå¥½æĺ¯": 6480,
      "æĪ¿éĴ±": 6481,
      "æĪ¿å±ĭ": 6482,
      "æĹ©ä¸Ĭ": 6483,
      "çľĭè§ģä¸Ģä¸ª": 6484,
      "åĴ±ä¿©": 6485,
      "çĿ¡çĿĢ": 6486,
      "çĿ¡å¾Ĺ": 6487,
      "çĿ¡çĿĢäºĨ": 6488,
      "æŃ¤å¤ĸ": 6489,
      "åĪĺåĽĽçĪ·åıĪ": 6490,
      "éĴĵ": 6491,
      "çł´çļĦ": 6492,
      "çł´åĩº": 6493,
      "çł´çĥĤ": 6494,
      "çł´çļ®è¢Ħ": 6495,
      "æĶ¶åħ¥": 6496,
      "åºĶè¯¥": 6497,
      "åĮħè½¦çļĦ": 6498,
      "åĹ¨": 6499,
      "åĹ¯": 6500,
      "åĹ¡åĹ": 6501,
      "äºĶåħŃåįģ": 6502,
      "æŃ¥åĦ¿": 6503,
      "æ¯Ľç¥¨": 6504,
      "å²¸": 6505,
      "å²Ĥ": 6506,
      "ç¥ŀèī²": 6507,
      "æ±ĹæĿ¥": 6508,
      "æĲĤ": 6509,
      "æĲľ": 6510,
      "äº¤è°Ī": 6511,
      "äº¤æ°ĳ": 6512,
      "ç¥¥åŃĲçļĦè¯Ŀ": 6513,
      "ç¥¥åŃĲçļĦèĦ¸": 6514,
      "çĹĽçĹĽå¿«": 6515,
      "å®īåħ¨": 6516,
      "å®īéĹ²": 6517,
      "åĸľåŃĹ": 6518,
      "åĸľæ£ļ": 6519,
      "åĮĹè¾Ľ": 6520,
      "ç´§äºĨ": 6521,
      "éħĴç¢Ĺ": 6522,
      "æĺ¯ä¸ªæĭīè½¦çļĦ": 6523,
      "çģ«çļĦ": 6524,
      "æĴ¤": 6525,
      "åĨ³æ²¡æĥ³åĪ°": 6526,
      "å¾®åĬ¨": 6527,
      "æĢ»ä¼ļ": 6528,
      "æĢ»ç®Ĺ": 6529,
      "æĢ»ä¸įä¼ļ": 6530,
      "åĨ·æĿ¥": 6531,
      "åĨ·æ°Ķ": 6532,
      "éĹ¹å¾ĹæħĮ": 6533,
      "éĹ¹åĵĦ": 6534,
      "éĿŀå¸¸çļĦçĥŃ": 6535,
      "ä½ķåĨµ": 6536,
      "æĺİçĻ½äºº": 6537,
      "çģ¯ä¸ĭ": 6538,
      "è¦ģæĺ¯èĥ½": 6539,
      "æ»¡åı¯ä»¥": 6540,
      "å¦Ĥä»Ĭ": 6541,
      "æīĢä»¥å¾Ĺ": 6542,
      "æīĢä»¥å°±": 6543,
      "æīĢä»¥ä¹Łå°±": 6544,
      "ä»ĸä¸Ģåı£": 6545,
      "åħ«åįģ": 6546,
      "æĥ³åĪ°è¿ĻåĦ¿": 6547,
      "åĵįåĬ¨": 6548,
      "åĵįæĻ´": 6549,
      "åĵįåĻ¨": 6550,
      "ä½¿ä»ĸèĩª": 6551,
      "ç½©": 6552,
      "çĮ®": 6553,
      "åĳĬçĿĢ": 6554,
      "æķ°äºĨæķ°": 6555,
      "åģĩè£ħ": 6556,
      "æľīçļĦæĺ¯": 6557,
      "ä¸ĬäºĨéĹ¨": 6558,
      "è¿ĻäºĽäºº": 6559,
      "è¿ĻäºĽäºĭ": 6560,
      "å¥½è±¡è¦ģ": 6561,
      "åĩīæ±Ĺ": 6562,
      "è½¬çĿĢ": 6563,
      "åıªæľīäºĶåĿĹéĴ±": 6564,
      "åħµèįĴ": 6565,
      "äººå®¶çļĦè½¦": 6566,
      "æ´ĭçģ«": 6567,
      "å°Ĩå°±": 6568,
      "ä¹Łæ²¡äºĨ": 6569,
      "ä¹Łæ²¡å¤§åħ³ç³»": 6570,
      "æĮ£åĩº": 6571,
      "æĢİä¹ĪåĬŀ": 6572,
      "ç¢ĹèĢģè±ĨèħĲ": 6573,
      "å¿Ļä¹±": 6574,
      "éĤ£äºĽéĴ±": 6575,
      "éĤ£äºĽä¸ľè¥¿": 6576,
      "æ··å¥½": 6577,
      "é¸¦": 6578,
      "é¡¾çĿĢ": 6579,
      "æĩĬçĿ¡": 6580,
      "çªĦ": 6581,
      "èĢģç¨ĭçļĦ": 6582,
      "èĢģç¨ĭåıĪ": 6583,
      "é«ĺå¦Īåľ¨": 6584,
      "å²ģäºĨ": 6585,
      "å²ģçļĦæĹ¶åĢĻ": 6586,
      "çļĦå°ıåŃ©": 6587,
      "çļĦå°ıè´©": 6588,
      "åıįæĬĹ": 6589,
      "åıįæĶ»": 6590,
      "åİŁå¤Ħ": 6591,
      "åİŁæĿ¥çļĦ": 6592,
      "è¯īè¯ī": 6593,
      "æķ´çĲĨ": 6594,
      "åĪ©éĴ±": 6595,
      "éªĤå£°": 6596,
      "çħ§å¾Ĺ": 6597,
      "åıĺäºĨ": 6598,
      "åıĺæĪı": 6599,
      "ä¸Ģè¾¹èµ°": 6600,
      "èĢħçļĦ": 6601,
      "è·³èµ·æĿ¥": 6602,
      "è·³æ²³": 6603,
      "æĭīçĿĢæĽ¹åħĪçĶŁ": 6604,
      "æĦŁåĬ¨": 6605,
      "çŀªçĿĢ": 6606,
      "ä»ĸæĥ³ä¸įèµ·": 6607,
      "ä¹ĭç±»": 6608,
      "çļ®å¸¦": 6609,
      "çļ®è½®": 6610,
      "çļ®èĤ¤": 6611,
      "ä»ĸä¹Łä¼ļ": 6612,
      "ä»ĸä¹Łè®¸": 6613,
      "åĩĨä¿Ŀ": 6614,
      "åĩĨç¡®": 6615,
      "åįķè¡£": 6616,
      "æłĳåı¶": 6617,
      "åĩłä¸ªåŃĲåĦ¿": 6618,
      "é¡»åŃĲ": 6619,
      "ç£ģ": 6620,
      "ä»ĸèĩªå·±ä¹Ł": 6621,
      "æľīæĹ¶åĢĻä»ĸ": 6622,
      "æľīæĹ¶åĢĻä¸º": 6623,
      "ä»¥ä¸ºä»ĸæĺ¯": 6624,
      "é»ĦæĿĳ": 6625,
      "é»Ħå¤©éľ¸": 6626,
      "åĳ³åĦ¿æĿ¥": 6627,
      "åĬ²çļĦ": 6628,
      "ä»ĸæ²¡äºĨ": 6629,
      "æĺ¾åĩºçĤ¹": 6630,
      "å¦ĩäººçļĦ": 6631,
      "åĵŃåĩºæĿ¥": 6632,
      "åĵŃå®Į": 6633,
      "æİ¥è¿ĩ": 6634,
      "çļĦè½¦ä»½åĦ¿": 6635,
      "å·¦æīĭ": 6636,
      "å¸®çĿĢ": 6637,
      "å¸®åĦ¿è½¦": 6638,
      "å¸ĥç½®": 6639,
      "é¡ºæīĭåĦ¿": 6640,
      "åĳĬè¯īå¥¹": 6641,
      "åĳĬè¯īå¤ªå¤ª": 6642,
      "ä»ĸè§īå¾Ĺèĩªå·±": 6643,
      "ä»ĸè§īå¾ĹéĿŀå¸¸çļĦ": 6644,
      "ä»ĸè§īå¾Ĺä»ĸæĺ¯": 6645,
      "ä¹Ĳä¸Ķä¹Ĳ": 6646,
      "å®³äºĨæĢķ": 6647,
      "è¿Ļæĺ¯ä¸Ģç§į": 6648,
      "äºĭæĥħæĺ¯": 6649,
      "éĵľçĥĤ": 6650,
      "å¤ŁäºĨ": 6651,
      "å¤ŁäºĨæķ°": 6652,
      "ä¸įçŁ¥æĢİ": 6653,
      "è¿Ļä¸Ģåħ³": 6654,
      "è¿Ļä¸Ģè¾ĪåŃĲ": 6655,
      "èĤīéĥ½": 6656,
      "åįĬå¤©æ²¡": 6657,
      "çľĭäºĨä»ĸä¸Ģçľ¼": 6658,
      "è®²å¥½": 6659,
      "è®²çĲĨ": 6660,
      "è®²ä»·": 6661,
      "åĸĬçĿĢ": 6662,
      "åĸĬäºĨå£°": 6663,
      "èĤļä¸Ń": 6664,
      "éĢģæĿ¥": 6665,
      "å¼ĢäºĨéĹ¨": 6666,
      "å¼ĢäºĨæŃ¥": 6667,
      "èħ°éĹ´": 6668,
      "å¢Ļæł¹": 6669,
      "çĶ·åŃ©": 6670,
      "æ¯ıä¸Ģ": 6671,
      "ç¾İå¥½": 6672,
      "ç¾İåĽ½": 6673,
      "ä»ĸåıªæĥ³": 6674,
      "åįĹè¾¹": 6675,
      "åįĹèĭĳ": 6676,
      "è®©æŃ¥": 6677,
      "æ³ªæĿ¥": 6678,
      "éĢĥåĩº": 6679,
      "éĢĥä¸įåĩºåİ»": 6680,
      "çķĻå£°æľº": 6681,
      "æ¢¢": 6682,
      "ä¸įå¥½åĬŀ": 6683,
      "åĲĪç¾¤": 6684,
      "æĭĽè°ģ": 6685,
      "æĭĽæĢ¥äºĨ": 6686,
      "åģ·æĩĴ": 6687,
      "èį¯æĪ¿": 6688,
      "èį¯çĵ": 6689,
      "æĩĴçļĦ": 6690,
      "æħ¢æħ¢çļĦæĬĬ": 6691,
      "ä¹Łè®¸æĭī": 6692,
      "è§ģäºĨå¥¹": 6693,
      "æĺİå¤©çļĦ": 6694,
      "æİ¢å¤´": 6695,
      "å¨¶ä¸Ĭ": 6696,
      "åĲ¸çĿĢ": 6697,
      "è¯´è¯ĿåĦ¿": 6698,
      "æĮĤçģ«": 6699,
      "æĮĤçĿĢäºĽ": 6700,
      "å®¹æĺĵåĨį": 6701,
      "å®¹æĺĵçļĦäºĭ": 6702,
      "é¬¼å½±": 6703,
      "åı¦ä¸Ģä¸ªäºº": 6704,
      "çĿĢçĤ¹åĦ¿": 6705,
      "è¦ģå¼ºçļĦäºº": 6706,
      "åĢŁåĪ°": 6707,
      "å±Īå¿ĥ": 6708,
      "çģ°èī²": 6709,
      "çģ°åľŁ": 6710,
      "çģ°äºĳ": 6711,
      "çģ°èī²çļĦ": 6712,
      "é£ŀä¹Ł": 6713,
      "æģ¨èĩªå·±": 6714,
      "åģľäºĨ": 6715,
      "åģľæŃ¢äºĨ": 6716,
      "æ¥ŀäºĨå¥½": 6717,
      "æ¥ŀå¤´ç£ķ": 6718,
      "è¹Ħ": 6719,
      "ä»ĸçŁ¥éģĵæĢİæł·": 6720,
      "ä¸įå¤§å¥½æĦıæĢĿ": 6721,
      "ä¸įçĶ¨è¯´": 6722,
      "åĲĦäºº": 6723,
      "åĲĦç§į": 6724,
      "çĶµè¯Ŀ": 6725,
      "ä»¥åīįçļĦ": 6726,
      "ä»¥åīįä»ĸæīĢ": 6727,
      "é¦ĻèĭĹ": 6728,
      "æ®¡": 6729,
      "å¤±åİ»äºĨ": 6730,
      "ä»ĸä¸įèĥ½åĨį": 6731,
      "æľ¨ç¢´åĦ¿": 6732,
      "çĿĢä¸Ģå¯¹": 6733,
      "çĿĢä¸ĢåĽ¢": 6734,
      "æĪĺå£«": 6735,
      "ç»Ĩç»ĨçļĦ": 6736,
      "å¤´ä¸ĬèĦļä¸ĭ": 6737,
      "æķħéĥ½": 6738,
      "èĢģèĢħçļĦ": 6739,
      "å¯¿éĿ¢": 6740,
      "å¯¿åłĤ": 6741,
      "ä¸īåįģäºĶåĿĹ": 6742,
      "æĳĨå¥½": 6743,
      "æĳĨèĦ±": 6744,
      "æµ·ç¢Ĺ": 6745,
      "äººåĴĮåİĤåİ»": 6746,
      "èģļ": 6747,
      "äºĨä¸¤å£°": 6748,
      "äºĨä¸¤æŃ¥": 6749,
      "åĲ¹çĿĢ": 6750,
      "è¿ĻéĩĮæĿ¥": 6751,
      "ç»ķè¿ľ": 6752,
      "ç»Ŀä¸įä¼ļ": 6753,
      "åĳĨåĳĨ": 6754,
      "è®¡ç®Ĺ": 6755,
      "å§Ķå±Īä¸İ": 6756,
      "ä¿©äºº": 6757,
      "æį¢ä¸Ĭ": 6758,
      "åĭīå¼º": 6759,
      "åĩĳäºĨ": 6760,
      "åĩĳä¸Ĭ": 6761,
      "åĩĳè¶³": 6762,
      "æ²¡äºĨä¸»æĦı": 6763,
      "èĩŃèĻ«": 6764,
      "åĨ»åľ¨": 6765,
      "è¿ĺä¸įå¦Ĥ": 6766,
      "åĴ¬ä¸ĬçīĻ": 6767,
      "åıªè¦ģä¸Ģ": 6768,
      "è§īåĩºåĨ·æĿ¥": 6769,
      "å¾Ģä¸ĭèµ°": 6770,
      "èĬĤåĦ¿": 6771,
      "æĶ¶æĭ¾ä¸ľè¥¿": 6772,
      "åī©ä¸ĭçļĦ": 6773,
      "äºīè¾©": 6774,
      "è¯´ä»Ģä¹Īå¥½": 6775,
      "ä½łçļĦéĴ±": 6776,
      "ä½łçļĦéĶĻåĦ¿": 6777,
      "éĿĴå¸ĥ": 6778,
      "å¹´è½»çļĦæĹ¶åĢĻ": 6779,
      "ç¢°åĪ°": 6780,
      "èıľæ¡Ī": 6781,
      "å¡«": 6782,
      "çĺ¾": 6783,
      "ä»ĸçļĦå¿ĥæĢĿ": 6784,
      "å¾Ģåīįå¥Ķ": 6785,
      "ä¸īä¸ªæµ·ç¢Ĺ": 6786,
      "å¸¦çĿĢéĽ¨": 6787,
      "åŁİéĩĮäºº": 6788,
      "æ¨ªæī«": 6789,
      "ç¿ħ": 6790,
      "ä¸ĢæĿ¡è·¯": 6791,
      "æľīäººè¯´": 6792,
      "æľīäººè¦ģ": 6793,
      "åħ¶ä½ĻçļĦ": 6794,
      "æĬ¥éħ¬": 6795,
      "å£®çļĦ": 6796,
      "æĮĩçĿĢ": 6797,
      "æĮĩæľĽ": 6798,
      "è¿ĽæĿ¥åĲ§": 6799,
      "æµģæ°´": 6800,
      "è£¤èħ°": 6801,
      "èĮ«èĮ«": 6802,
      "å·¡èŃ¦ä»¬": 6803,
      "ç¥¥åŃĲæ²¡æ³ķ": 6804,
      "è§ĴçļĦ": 6805,
      "çŁ³å¤´": 6806,
      "èººçĿĢ": 6807,
      "å¾Ģå¤ĸè·ĳ": 6808,
      "å¾Ģå¤ĸæİı": 6809,
      "åĿĲä¸ĭäºĨ": 6810,
      "ç¢İäºĨ": 6811,
      "ç¢İéĵľçĥĤ": 6812,
      "çħ¤åİĤ": 6813,
      "çħ¤æł¸": 6814,
      "æıĲçĿĢ": 6815,
      "èľľ": 6816,
      "èľ»èľ": 6817,
      "æĺŁæĺŁ": 6818,
      "æĺŁæľŁ": 6819,
      "åŃĻçļĦ": 6820,
      "åŃĻæİĴéķ¿": 6821,
      "åħ¬éģĵ": 6822,
      "åħ¬åłĤ": 6823,
      "åİ»æī¾å°ıç¦ıåŃĲ": 6824,
      "èĦ±éĢĥ": 6825,
      "èĦ±ä¸ĭæĿ¥": 6826,
      "æĹłè®ºæĢİæł·": 6827,
      "ä»ĸä¸įæķ¢æĥ³": 6828,
      "æĳĶå¾Ĺ": 6829,
      "èįīå¸½": 6830,
      "çĸĳçļĦ": 6831,
      "çĸĳä¸įå®ļ": 6832,
      "éº»ç»³": 6833,
      "åļĵ": 6834,
      "åı³èĤĺ": 6835,
      "è¯·å®¢": 6836,
      "çĤķæ²¿ä¸Ĭ": 6837,
      "ä»Ģä¹Īä¹Łä¸įæĺ¯": 6838,
      "ä¸ºä»Ģä¹Īä¸į": 6839,
      "ä¸ºä»Ģä¹Īè¿Ļæł·": 6840,
      "èĻİå§ĳå¨ĺä¸ĢåĲĳ": 6841,
      "åĿĲçĿĢåĳ¢": 6842,
      "çŀ§çĿĢ": 6843,
      "æŁ³æĿ¡": 6844,
      "ä¸ªäººæĿ¥": 6845,
      "èµģè½¦": 6846,
      "å¥¹ä»¬å¾Ĺ": 6847,
      "éĢıçĿĢ": 6848,
      "éĽ¶é£Ł": 6849,
      "æĽ¹å®ħçļĦäºĭ": 6850,
      "æĵ¦è½¦": 6851,
      "åį±éĻ©æĿ¥": 6852,
      "æĢĢéĩĮ": 6853,
      "ä¾ĿçĿĢ": 6854,
      "è§īåĪ°ä¸ĢçĤ¹": 6855,
      "æ±½è½¦çļĦ": 6856,
      "éĵģç´¢": 6857,
      "éĵģä½ľçļĦ": 6858,
      "æ·±çļĦ": 6859,
      "åĻĹ": 6860,
      "é¥¿æĿ¥": 6861,
      "ä¸įè±¡æł·": 6862,
      "ä¸įå¿ħåĨį": 6863,
      "æĺ¥é£İ": 6864,
      "æĺ¥éĽ¨": 6865,
      "åĲĲäºĨ": 6866,
      "å®ĺåı¸": 6867,
      "å°ıé©¬åĦ¿çļĦ": 6868,
      "åĽŀåĪ°å®¶ä¸Ń": 6869,
      "æĮ¤åĪ°": 6870,
      "æĮ¨çĿĢä¸Ģ": 6871,
      "åĮĸéĹ¨": 6872,
      "æİıåĩºæĿ¥": 6873,
      "æİıäºĨåĩºæĿ¥": 6874,
      "çĸ¼ä½ł": 6875,
      "çĸ¼çĹĽ": 6876,
      "æĦŁåĪ°ä¸Ģç§į": 6877,
      "çī¹åĪ«çļĦåİīå®³": 6878,
      "çĬ¬": 6879,
      "çĬ¯äºĨ": 6880,
      "ä¸ĢæŃ¥æĥ³": 6881,
      "æĬ±æĢ¨": 6882,
      "éĩİåħ½": 6883,
      "å¼¯çĿĢèħ°": 6884,
      "çĽ®çļĦ": 6885,
      "é¡¿é¥Ń": 6886,
      "é¡¿é¡¿": 6887,
      "è´§çī©": 6888,
      "è¢ĭéĩĮ": 6889,
      "é¥±é¥Ń": 6890,
      "æ¡Įä¸Ĭ": 6891,
      "èĵĿå¸ĥ": 6892,
      "åĳĨåĳĨçļĦçľĭçĿĢéĤ£": 6893,
      "åĲµéĹ¹": 6894,
      "åĲµåļ·": 6895,
      "åľ¨ä¸ĢæĹģ": 6896,
      "åįĥä¸ĩ": 6897,
      "åįĪé¥Ń": 6898,
      "éĤ£ä¸Ģåľº": 6899,
      "çļĦçīĮ": 6900,
      "çļĦçīĻ": 6901,
      "æŃ£åľ¨è¿Ļä¸ª": 6902,
      "æŃ£åľ¨å±ĭéĩĮ": 6903,
      "æĲ¬åĪ°": 6904,
      "æĲ¬èµ°": 6905,
      "æĲŃä¸Ĭ": 6906,
      "åĮĹå¹³çļĦ": 6907,
      "çĮĽçļĦ": 6908,
      "çĮĽçļĦä¸Ģ": 6909,
      "èĮ¶é¦Ĩåİ»": 6910,
      "æĨĭæ°Ķ": 6911,
      "äº«ç¦ı": 6912,
      "ä»ĸä¼ļåİ»": 6913,
      "äºĨåįĬå¤©æīįè¯´åĩºæĿ¥": 6914,
      "åİ»æīĵåĲ¬": 6915,
      "æĬ¹äºĨ": 6916,
      "æĬĵä½ıäºĨ": 6917,
      "åĨĽè¡£": 6918,
      "åĨįåİ»ä¹°": 6919,
      "åĸĦå¿ĥ": 6920,
      "åĽĽåįģéĵľåŃĲ": 6921,
      "æĶ¾ä¸ĭè½¦": 6922,
      "æ¬ºéªĹ": 6923,
      "ç¼ĵä¸Ģåı£æ°Ķ": 6924,
      "çī¹åĪ«æĺ¯": 6925,
      "çĽ¸ä¿¡èĩªå·±": 6926,
      "è¿Ĳæ°Ķ": 6927,
      "æľªæĽ¾": 6928,
      "åĪºåĦ¿": 6929,
      "éĹªçľ¼": 6930,
      "åĬ³è¯¸ä½į": 6931,
      "åĬŁè¯¾": 6932,
      "æĭīä¸ĬåĮħæľĪ": 6933,
      "æĭīä¸Ĭä¸ªä¹°åįĸ": 6934,
      "æ¯Ĵè¾£": 6935,
      "å¹²ä»Ģä¹ĪçļĦ": 6936,
      "å¹²ä»Ģä¹Īåİ»äºĨ": 6937,
      "é©¬è·¯è¾¹ä¸Ĭ": 6938,
      "ç«ĭåľ¨éĤ£éĩĮ": 6939,
      "åĳĬè¯īä½łåĲ§": 6940,
      "çĨŁè¯ĨçļĦ": 6941,
      "çļĦç«ĭåľ¨éĤ£éĩĮ": 6942,
      "ä¸¥èĤĥ": 6943,
      "åĲĵæŃ»æĪĳäºĨ": 6944,
      "æľīæĹ¶ä¹Ł": 6945,
      "åį´æĺ¯": 6946,
      "ä¼łè¾¾": 6947,
      "ç»§èĢĮä¸Ģæĥ³": 6948,
      "è¯´çĿĢçİ©": 6949,
      "ä½łè¯´æĺ¯ä¸įæĺ¯": 6950,
      "æĻ´çĪ½": 6951,
      "è°ģä¹Łä¸įæķ¢": 6952,
      "æµ®çĿĢ": 6953,
      "åħŃåįģä¹Ŀ": 6954,
      "èĥ¡åĲĮåı£": 6955,
      "è¯´å¾ĹéĿŀå¸¸çļĦ": 6956,
      "æĸĩåĮĸ": 6957,
      "æİ¨éĹ¨": 6958,
      "åħ¨èº«éĥ½": 6959,
      "åįĸåĬĽæ°ĶçļĦ": 6960,
      "åįĸåĬĽæ°ĶæĮ£éĴ±": 6961,
      "çº¢çļĦåį«çĶŁ": 6962,
      "è£ħåĤ»": 6963,
      "æ¤Ĵ": 6964,
      "èĽĽç½ĳ": 6965,
      "ä¸ĳçļĦ": 6966,
      "ä¸ĳéĻĭ": 6967,
      "åĲ«å¿½": 6968,
      "èĢįéª¨å¤´": 6969,
      "æ²¡æĥ³åĪ°äºĭæĥħ": 6970,
      "å°ıåŃ©åĦ¿": 6971,
      "æŃĩäºĨ": 6972,
      "è±Ĩæ±ģ": 6973,
      "å¯Ĵæ°Ķ": 6974,
      "çļĦç©·": 6975,
      "æĻĥæĤł": 6976,
      "èĲ¥éĩĮ": 6977,
      "åŁĭåľ¨äºĨ": 6978,
      "æĲģä¸ĭ": 6979,
      "ç®ĢåįķçļĦ": 6980,
      "èĢ³æľµä¸Ĭ": 6981,
      "ä¸¢å¤±": 6982,
      "ä»ĸçľĭåĩºæĿ¥": 6983,
      "ä»ĸä¾¿æĥ³èµ·": 6984,
      "åŃĺçļĦ": 6985,
      "åŃĺåľ¨": 6986,
      "çĿĢä¸ªå¤§": 6987,
      "éĤ£åĩłå¼łçĶ»": 6988,
      "çĤīæĹģ": 6989,
      "å¼ķè¯±": 6990,
      "è·ªä¸ĭ": 6991,
      "å¤ļçļĦåĲĥ": 6992,
      "æ´¥è´´": 6993,
      "çļĦçĸ¤": 6994,
      "çļĦçĸ²ä¹ı": 6995,
      "çļĦçŃĭ": 6996,
      "éĢĢä¸ĢæŃ¥æĥ³": 6997,
      "æī¾ä¸įåĪ°ä¸ª": 6998,
      "ä¸»ä¹īèĢħ": 6999,
      "çĭĤé£İ": 7000,
      "éħ±èĤī": 7001,
      "ç²īçº¢çļĦåį«çĶŁ": 7002,
      "æļĤä¸Ķ": 7003,
      "å®ŀåľ¨çļĦ": 7004,
      "ä»ĸæ²¡æ³ķä¸į": 7005,
      "ç¬¬ä¸Ģæ¬¡": 7006,
      "çĿĢä»ĸçļĦèĦ¸": 7007,
      "ä¸ªå¥½ä¸»æĦı": 7008,
      "è½¿åŃĲ": 7009,
      "åħĥå®µ": 7010,
      "èĢĮåıĪè¦ģ": 7011,
      "åºĬæ²¿ä¸Ĭ": 7012,
      "å¾Ģèµ·ç«ĭ": 7013,
      "å¯¹ä¸įèµ·äºº": 7014,
      "é¢ĩæĥ³": 7015,
      "ä¸ĥåħ«æĪĲ": 7016,
      "æ®ĭå¿į": 7017,
      "èģĶæĪĲä¸Ģçīĩ": 7018,
      "èĸĦéĽª": 7019,
      "æ¾¡åłĤ": 7020,
      "èĨĢ": 7021,
      "éĢĤå½ĵçļĦ": 7022,
      "ä¸įç®Ĺä»Ģä¹Ī": 7023,
      "ä¸įè®ºç§§": 7024,
      "åı°éĺ¶": 7025,
      "ä¸ĢæĿ¥äºĮåİ»": 7026,
      "ä¸ĢåľºéĽ¨": 7027,
      "ç¥¥åĵ¥": 7028,
      "å¥½æŃ¹çļĦ": 7029,
      "åĨĴäºĨæ±Ĺ": 7030,
      "ä»Ģä¹Īä¹ŁçĶŃè¯´äºĨ": 7031,
      "æĭīæķ£åº§åĦ¿": 7032,
      "åĴ§åĴ§": 7033,
      "åľ°ä¸ĬçļĦéĽª": 7034,
      "æĻ¯å±±": 7035,
      "å¯¹å¾Ĺèµ·èĩªå·±": 7036,
      "ä¸īåĮ¹éªĨé©¼": 7037,
      "ç¾ŀèĢ»": 7038,
      "åĶ±çĿĢ": 7039,
      "é¡¶å¥½æĺ¯": 7040,
      "çļĦçģ°æ°Ķ": 7041,
      "çĬ¯çīĽ": 7042,
      "æĹłåı¯å¦Ĥä½ķçļĦ": 7043,
      "çļĦç¬ĳäºĨ": 7044,
      "ä¸Ģæ¸ħæĹ©": 7045,
      "ä¸Ģæ¸ħäºĮçĻ½çļĦ": 7046,
      "å°¾å·´": 7047,
      "åĩıåİ»": 7048,
      "åĩıå°ĳ": 7049,
      "åľ¨éĤ£åĦ¿": 7050,
      "èĢĲçĥ¦äºĨ": 7051,
      "ç¥¸æĤ£": 7052,
      "ä½łæľīä½łçļĦ": 7053,
      "æ¯ģåĿı": 7054,
      "åīĥå¤´": 7055,
      "ç©¶ç«Ł": 7056,
      "çĹĴçĹĴ": 7057,
      "è°ģä¹Łè·ĳä¸įäºĨ": 7058,
      "æĤ²çļĦ": 7059,
      "åİŁè°ħèĩªå·±": 7060,
      "æ¬ºä¾®ä»ĸ": 7061,
      "æĺ¯æĢİæł·çļĦä¸į": 7062,
      "æĬĬä½łæĶ¾äºĨ": 7063,
      "æŃ¦çļĦ": 7064,
      "ä»Ģä¹ĪæĹ¶åĢĻåĩºè½¦": 7065,
      "çļĦç¤¾ä¼ļ": 7066,
      "ç»Ļå¤§å®¶åĲ¬": 7067,
      "ä¹°è½¦çļĦæķ°åĦ¿": 7068,
      "åįģäºĮçĤ¹": 7069,
      "æ¸©æŁĶ": 7070,
      "éĵ¶è¡Į": 7071,
      "éħįçĿĢ": 7072,
      "æįīä½ı": 7073,
      "ä½ķå¿ħåįķ": 7074,
      "ç¦»å¼ĢäººåĴĮåİĤ": 7075,
      "å¾®å¾®çļĦåĬ¨": 7076,
      "èĩªè¨Ģèĩªè¯ŃçļĦè¯´": 7077,
      "éĹ·èĳ«èĬ¦ç½ĲåĦ¿": 7078,
      "ãĢĬ": 7079,
      "ãĢĭ": 7080,
      "èªī": 7081,
      "ä¸¾çĿĢ": 7082,
      "ä¸įæĿ¥æ°Ķ": 7083,
      "è¿Łçĸĳ": 7084,
      "åıīæĿĨ": 7085,
      "æ²¡åľ°æĸ¹åİ»": 7086,
      "ä¼Ĺä¸įåĲĮ": 7087,
      "æĬµæĬĹ": 7088,
      "éĤ£ä¸¤è¾Ĩè½¦": 7089,
      "èĢĮä¸įåİĮ": 7090,
      "åĵĹåķ·": 7091,
      "åĴļåĴļ": 7092,
      "è¾©é©³": 7093,
      "è¾ĥæ¯Ķ": 7094,
      "ç»Ļäººå®¶å½ĵ": 7095,
      "ä½ľå°ıä¹°åįĸçļĦ": 7096,
      "è¥¿çĽ´éĹ¨å¤ĸ": 7097,
      "æŀ£æłĳ": 7098,
      "å¨ģä¸¥": 7099,
      "æĮ£æīİçĿĢ": 7100,
      "ä¸įçŁ¥æĢİæł·æīįå¥½": 7101,
      "åĬłäºĨåĬ²": 7102,
      "å·®ä¸įç¦»": 7103,
      "çļĦçĥŁåį·": 7104,
      "çİĭå®¶åİ»": 7105,
      "åķĨéĩıåķĨéĩı": 7106,
      "çļĦçŃīçĿĢ": 7107,
      "çļĦçŃīçĿĢä»ĸ": 7108,
      "åģ·åģ·çļĦæºľ": 7109,
      "ä»ĸé¡¾ä¸įå¾Ĺæĥ³": 7110,
      "ä¹ĸä¹ĸ": 7111,
      "å¿§èĻĳ": 7112,
      "èµŀç¾İ": 7113,
      "ä¼Łå¤§": 7114,
      "ä¼Łå¤§çļĦ": 7115,
      "èĢģå¤©çĪ·": 7116,
      "æĭīèµ·è½¦æĿ¥": 7117,
      "å¤ļæķ°çļĦ": 7118,
      "åĮ»çĶŁ": 7119,
      "åīįåĲİåĲİ": 7120,
      "æģ°å¥½": 7121,
      "æģ°å·§": 7122,
      "èĦ¸ä¸ĬçļĦæ³¥": 7123,
      "è·Łä»ĸéĹ¹": 7124,
      "éķľåŃĲ": 7125,
      "åįĬå¹´æĿ¥çļĦ": 7126,
      "ä½İå£°çļĦè¯´": 7127,
      "çªĳåŃĲ": 7128,
      "åĲĪéĢĤçļĦ": 7129,
      "åĤ»åŃĲä¼¼çļĦ": 7130,
      "æĬ¬èµ·å¤´æĿ¥": 7131,
      "åĥ»éĿĻåľ°æĸ¹": 7132,
      "å»¶": 7133,
      "çĳŀ": 7134,
      "ä»ĸæĽ´è§īå¾Ĺ": 7135,
      "ä»ĸçĭłäºĨå¿ĥ": 7136,
      "æĿ¥èĩªä¹¡éĹ´": 7137,
      "çľ¨çľ¼": 7138,
      "ç¥Ńçģ¶": 7139,
      "æ²¡äºĭäºĨ": 7140,
      "åĽºå®ļ": 7141,
      "è¿ĺè·ŁçĿĢåĳ¢": 7142,
      "è¦ģè·³åĩºæĿ¥": 7143,
      "å¦ĵå¥³": 7144,
      "çļĦçĭĹ": 7145,
      "æīĵé¼ĵåĦ¿çļĦ": 7146,
      "è¥¿å®īéĹ¨å¤§è¡Ĺ": 7147,
      "åĿĹåĦ¿åħ«": 7148,
      "è¢ĸåŃĲ": 7149,
      "æĶ¾å¼ĥäºĨ": 7150,
      "éĤ£ä¹Īå¤§çļĦä¸ªåŃĲ": 7151,
      "åıĳçĶŁåħ³ç³»": 7152,
      "æ¬£åĸľ": 7153,
      "åįĬæģ¼åįĬç¬ĳ": 7154,
      "ç¾ĬèĤī": 7155,
      "åħ«æĪĲæĸ°": 7156,
      "è½¬è¿ĩå¹´": 7157,
      "éĤ£äºĽèĢģå¼±": 7158,
      "è·³åĪ°çİĭå®¶åİ»": 7159,
      "ç»Ĩç»ĨçľĭäºĨçľĭ": 7160,
      "å¯¿æ¡ĥå¯¿éĿ¢": 7161,
      "è§£éĩĬå¼Ģ": 7162,
      "çªĿçªĿå¤´": 7163,
      "ç²®é£Łè´µ": 7164,
      "æ¸ħæ¸ħæ¥ļæ¥ļçļĦ": 7165,
      "ãĤ½": 7166,
      "ç°¸ç®": 7167,
      "ä¸įå±ĳäºİ": 7168,
      "ä¸Ģåİ»ä¸įåĽŀå¤´": 7169,
      "åĩĦåĩī": 7170,
      "å®£ä¼ł": 7171,
      "èĢĥè¯ķ": 7172,
      "ç¥Ŀå¯¿": 7173,
      "å°±è¢«å¥¹": 7174,
      "å¤§ä¼ĻåĦ¿": 7175,
      "å°ıè´©ä»¬": 7176,
      "å±ŀäºİ": 7177,
      "çĽıæŀģ": 7178,
      "ä¸¤åĮħçģ«æŁ´": 7179,
      "æĮ½èģĶ": 7180,
      "éĻĦè¿ĳ": 7181,
      "åĿĹçĻ½æľ¨ç¢´åĦ¿": 7182,
      "èĥĥä¸Ń": 7183,
      "åħīå¤´çļĦçŁ®åŃĲ": 7184,
      "è½»æĺĵæĴĴæīĭ": 7185,
      "èī³çļĦ": 7186,
      "åĶ¬åĲĵ": 7187,
      "å²ĶåĦ¿": 7188,
      "æĴµåĩºåİ»": 7189,
      "æ··è¿ĩçļĦå®ħéĹ¨éĩĮ": 7190,
      "éĹ²çĽĺåĦ¿": 7191,
      "åıĬæł¼çļĦåĪĨæķ°": 7192,
      "å¤´ä¸Ĭè§ģäºĨæ±Ĺ": 7193,
      "åĴ¬ä¸ĬäºĨçīĻ": 7194,
      "æĹłè®ºæĢİè¯´": 7195,
      "èļĤèļ±": 7196,
      "æİĮçģ¯çļĦæĹ¶åĢĻ": 7197,
      "çļĦç²¾ç¥ŀ": 7198,
      "æĵįä½ľ": 7199,
      "æĬĦèµ·è½¦æĬĬæĿ¥": 7200,
      "¯å¢ĥ": 7201,
      "ä»ĭç»į": 7202,
      "ä»ĸåı¯ä¸įæķ¢": 7203,
      "ä¸įæ±Ĥäºº": 7204,
      "ä¸ĢæĹ¦": 7205,
      "å¤§å¤§æĸ¹æĸ¹çļĦ": 7206,
      "æĪĳéĹ®ä½ł": 7207,
      "å°ıå«©èĤī": 7208,
      "è¿ĩäºĨäºĽæĹ¥åŃĲ": 7209,
      "æĭīæĥ¯äºĨè½¦": 7210,
      "ç»Ļå®ĥä¸ª": 7211,
      "ç»Ļå¤ļå°ĳæĺ¯å¤ļå°ĳ": 7212,
      "æīĵå®ļäºĨä¸»æĦı": 7213,
      "çĻ½éĿ¢åı£è¢ĭ": 7214,
      "æīĭåħ«èĦļçļĦ": 7215,
      "åĽĽéĿ¢åħ«": 7216,
      "éĻĨç»ŃçļĦ": 7217,
      "èĭįèĿĩ": 7218,
      "æ¸Įæ¸ĮçļĦ": 7219,
      "ä¸ľå®īå¸Ĥåľº": 7220,
      "è°ģåĸĿç¢ĹçĥŃçļĦ": 7221,
      "çĽ´åħ¥åħ¬åłĤ": 7222,
      "èĬ±æ´ĭå¸ĥ": 7223,
      "æ°´æľĪçģ¯": 7224,
      "é©¬é©¬èĻİèĻİ": 7225,
      "éĤ£ä¸ªå§ĵåŃĻçļĦ": 7226,
      "åĹ¡åĹ¡çļĦ": 7227,
      "äº¤æ°ĳå··": 7228,
      "åħµèįĴé©¬": 7229,
      "è¯īè¯īå§Ķå±Ī": 7230,
      "åıĺæĪıæ³ķçļĦ": 7231,
      "èį¯çĵ¶": 7232,
      "æ¥ŀå¤´ç£ķèĦĳçļĦ": 7233,
      "å¤´ä¸ĬèĦļä¸ĭéĥ½": 7234,
      "èľ»èľĵ": 7235,
      "ç²īçº¢çļĦåį«çĶŁè¡£": 7236,
      "ä¸įè®ºç§§åŃĲ": 7237,
      "åĴļåĴļåļĵ": 7238,
      "ç°¸ç®ķ": 7239,
      "\"ï¼Ľ": 7240,
      "\"âĢĶâĢĶ": 7241,
      "*~": 7242,
      "£¨": 7243,
      "£èĬ±çļĦ": 7244,
      "¤Ĳ": 7245,
      "¥è¹": 7246,
      "¦ä½©": 7247,
      "§çļĦ": 7248,
      "§åļ": 7249,
      "¨çĿĢ": 7250,
      "¨èĲ½": 7251,
      "©äºĨ": 7252,
      "©è´Ł": 7253,
      "©åºı": 7254,
      "ªå°ı": 7255,
      "ªå¸ĥ": 7256,
      "ªå¼ı": 7257,
      "«æŃ£": 7258,
      "¬åľ¨": 7259,
      "®éģį": 7260,
      "®çļĦæ°Ķ": 7261,
      "°æ´ĭ": 7262,
      "°çļĦä¸Ģ": 7263,
      "±ä¹Ĳ": 7264,
      "±ç³Ĭ": 7265,
      "±éĢĲ": 7266,
      "²Į": 7267,
      "³èĩ": 7268,
      "´åŃĲ": 7269,
      "´ä¼ļ": 7270,
      "µæĹł": 7271,
      "¶ä¸Ĭ": 7272,
      "¶çļ®": 7273,
      "·åĳĬçĿĢ": 7274,
      "¸åŃĲ": 7275,
      "¸æĪĲ": 7276,
      "¸èıľ": 7277,
      "ºæīĭ": 7278,
      "ºç§": 7279,
      "¾åĦ¿": 7280,
      "¾èµ°": 7281,
      "¾åłĨ": 7282,
      "¾èŁ": 7283,
      "Â·": 7284,
      "âĹ": 7285,
      "è²Į": 7286,
      "é¾": 7287,
      "éŁ": 7288,
      "é¤Ĳ": 7289,
      "ģè®¸": 7290,
      "Ĥèį¯": 7291,
      "ĤæŀĹ": 7292,
      "ĥåľ": 7293,
      "Ħé¥": 7294,
      "ĦåĤ²": 7295,
      "Ħç»ĩ": 7296,
      "Ĩä¸Ń": 7297,
      "Ĩå¤§ä»Ļ": 7298,
      "ĩåĢĻ": 7299,
      "ĪåĸĦ": 7300,
      "ĬåŃĲ": 7301,
      "ĭåº¦": 7302,
      "Įäºĳ": 7303,
      "ĮåįĪ": 7304,
      "Įä¸ļ": 7305,
      "Įèļ": 7306,
      "įæĥ": 7307,
      "įçĦ¶": 7308,
      "ıçĿĢ": 7309,
      "ıæ²¹": 7310,
      "ıå·ŀ": 7311,
      "ĲåĴĮ": 7312,
      "ĲåĸĬ": 7313,
      "ĳï¼": 7314,
      "ĳçļĦ": 7315,
      "ĳèĦļçļĦ": 7316,
      "Ĵå¤´": 7317,
      "ĴåĬ³": 7318,
      "Ķç»Ĩ": 7319,
      "Ķè¯ļ": 7320,
      "ķåŃĲ": 7321,
      "ķçļĦè¯Ŀ": 7322,
      "ķèĲ½çļĦ": 7323,
      "ĸé¥": 7324,
      "ĸçĪ¶": 7325,
      "ĺ¦": 7326,
      "ĺï¼": 7327,
      "ĺçĥ": 7328,
      "Ļé¥¼": 7329,
      "ļé¥Ń": 7330,
      "ĽåŃĲ": 7331,
      "Ľè½¦": 7332,
      "Ľå¿«": 7333,
      "Ŀåį": 7334,
      "ŀİ": 7335,
      "ŀçĻ½": 7336,
      "łæĲľ": 7337,
      "Ńèıľ": 7338,
      "ŃèĦĤ": 7339,
      "ï¼ĳï¼": 7340,
      "ï¼ĮÃĹ": 7341,
      "çļĦåĲ": 7342,
      "çļĦåľ¨": 7343,
      "çļĦä¹Ł": 7344,
      "çļĦåį": 7345,
      "çļĦåı¯": 7346,
      "çļĦå¤ļ": 7347,
      "çļĦè±¡": 7348,
      "çļĦåĳ¢": 7349,
      "çļĦåĴĮ": 7350,
      "çļĦä¹°": 7351,
      "çļĦæīį": 7352,
      "çļĦåıĳ": 7353,
      "çļĦæī¾": 7354,
      "çļĦåĩºæĿ¥": 7355,
      "çļĦèĦ¸": 7356,
      "çļĦæ¸ħ": 7357,
      "çļĦä½İ": 7358,
      "çļĦä¹±": 7359,
      "çļĦæ±Ĺ": 7360,
      "çļĦåĮĹ": 7361,
      "çļĦéĹ¹": 7362,
      "çļĦéĹ®": 7363,
      "çļĦèĮ¶": 7364,
      "çļĦæ¬¢": 7365,
      "çļĦåŃ©åŃĲ": 7366,
      "çļĦåľŁ": 7367,
      "çļĦè¯´äºĨ": 7368,
      "çļĦåĵŃ": 7369,
      "çļĦéĩĳ": 7370,
      "çļĦå¸ĥ": 7371,
      "çļĦéĵľ": 7372,
      "çļĦæ³ª": 7373,
      "çļĦèŃ¦": 7374,
      "çļĦå§Ķå±Ī": 7375,
      "çļĦåĨ°": 7376,
      "çļĦè¡£æľį": 7377,
      "çļĦä½ĵéĿ¢": 7378,
      "çļĦä¹Łæĺ¯": 7379,
      "çļĦè´¢": 7380,
      "çļĦæļĸ": 7381,
      "çļĦåĲį": 7382,
      "çļĦé»ĳæļĹ": 7383,
      "çļĦæ£ī": 7384,
      "çļĦæĢĿæĥ³": 7385,
      "çļĦåĬ³": 7386,
      "çļĦæľºä¼ļ": 7387,
      "çļĦå¤¹": 7388,
      "çļĦå¥½å¤Ħ": 7389,
      "çļĦè¡¨ç¤º": 7390,
      "çļĦæĹ¶éĹ´": 7391,
      "çļĦçĤķä¸Ĭ": 7392,
      "çļĦåĨ¯åħĪçĶŁ": 7393,
      "çļĦéĶ£": 7394,
      "çļĦæ»¡æĦı": 7395,
      "çļĦåĳ³åĦ¿": 7396,
      "çļĦå¾Ģä¸ĭèĲ½": 7397,
      "çļĦåŁİæł¹": 7398,
      "çļĦåĢº": 7399,
      "çļĦåĽŀçŃĶ": 7400,
      "çļĦä½ıå¤Ħ": 7401,
      "çļĦåįķè¡£": 7402,
      "çļĦæĬ¥éħ¬": 7403,
      "ä»ģ": 7404,
      "ä»ĥ": 7405,
      "ä»ĺçĿĢ": 7406,
      "ä»ªå¼ı": 7407,
      "ä»įçĦ¶": 7408,
      "ä»Ķç»Ĩ": 7409,
      "ä»ĸäºĨ": 7410,
      "ä»ĸè½": 7411,
      "ä»ĸåħĪ": 7412,
      "ä»ĸåĩł": 7413,
      "ä»ĸå¹²": 7414,
      "ä»ĸå¼Ģ": 7415,
      "ä»ĸèĩªå·±çļĦ": 7416,
      "ä»ĸæķ¢": 7417,
      "ä»ĸç®Ĺ": 7418,
      "ä»ĸåĸĿ": 7419,
      "ä»ĸè¿Ļæł·": 7420,
      "ä»ĸåĬŀ": 7421,
      "ä»ĸæ¯Ķ": 7422,
      "ä»ĸåĲĳ": 7423,
      "ä»ĸæĢİæł·": 7424,
      "ä»ĸæľīçĤ¹": 7425,
      "ä»ĸåĪļ": 7426,
      "ä»ĸè½¬": 7427,
      "ä»ĸäº²": 7428,
      "ä»ĸä¹Łæ²¡": 7429,
      "ä»ĸåİŁ": 7430,
      "ä»ĸè®¤": 7431,
      "ä»ĸå¿ĥéĩĮ": 7432,
      "ä»ĸæľīæĹ¶åĢĻ": 7433,
      "ä»ĸå¼Ħ": 7434,
      "ä»ĸéĿŀå¸¸çļĦ": 7435,
      "ä»ĸåĬł": 7436,
      "ä»ĸå¿ĺäºĨ": 7437,
      "ä»ĸèĦ¸ä¸Ĭ": 7438,
      "ä»ĸæĶ¾åľ¨": 7439,
      "ä»ĸæħ¢æħ¢çļĦ": 7440,
      "ä»ĸä»¥åīį": 7441,
      "ä»ĸåĵ¼": 7442,
      "ä»ĸå¹³æĹ¥": 7443,
      "ä»ĸåĩºäºĨ": 7444,
      "ä»ĸçĭ¬èĩª": 7445,
      "ä»ĸæīĵç®Ĺ": 7446,
      "ä»ĸèºº": 7447,
      "ä»ĸèľ": 7448,
      "ä»ĸæī¯": 7449,
      "ä»ĸæīĭéĩĮ": 7450,
      "ä»ĸçľĭè§ģäºĨ": 7451,
      "ä»ĸå¹²åĲĹ": 7452,
      "ä»ĸåĲ¬çĿĢ": 7453,
      "ä»ĸåıįåĢĴ": 7454,
      "ä»ĸçĤ¹äºĨçĤ¹å¤´": 7455,
      "ä»ĸçļĦç¡®": 7456,
      "ä»ĸæīĭä¸Ń": 7457,
      "ä»ĸæł¹æľ¬": 7458,
      "ä»ĸè¿Ļä¹Īä¸ª": 7459,
      "ä»ĸè®¨åİĮ": 7460,
      "ä»ĸåĺ±åĴĲ": 7461,
      "ä»ĸå®ŀåľ¨": 7462,
      "ä»ĸè¿ĽäºĨ": 7463,
      "ä»ĸè¶Ĭæĥ³": 7464,
      "ä»ĸè½»è½»çļĦ": 7465,
      "ä»ĸåı¯ä¹Ł": 7466,
      "ä»ĸå¹¶éĿŀ": 7467,
      "ä»ĸæĭīçĿĢè½¦": 7468,
      "ä»ĸéĴī": 7469,
      "ä»ĸæĺİçĻ½è¿ĩæĿ¥": 7470,
      "ä»ĸåĿĲåľ¨äºĨ": 7471,
      "ä»ĸéĤ£æł·çļĦ": 7472,
      "ä»ĸå°Ĩè¦ģ": 7473,
      "ä»ĸå¿ĥéĩĮè¯´": 7474,
      "ä»ĸåĨ³ä¸įä¼ļ": 7475,
      "ä»ĸæĭ¾èµ·": 7476,
      "ä»ĸåĸĿäºĨéħĴ": 7477,
      "ä»ĸå¼ºæīĵç²¾ç¥ŀ": 7478,
      "ä»ĸæĬ¬èµ·å¤´æĿ¥": 7479,
      "ä»ĸç»Ĩç»ĨçľĭäºĨçľĭ": 7480,
      "ä¸įè¿ĺ": 7481,
      "ä¸įä¸ĭ": 7482,
      "ä¸įåħĪ": 7483,
      "ä¸įå¾Ī": 7484,
      "ä¸įå¹²": 7485,
      "ä¸įæĶ¾": 7486,
      "ä¸įåıĳ": 7487,
      "ä¸įåĵį": 7488,
      "ä¸įå¿Ļ": 7489,
      "ä¸įæĭīçĿĢ": 7490,
      "ä¸įè¶³": 7491,
      "ä¸įæĹģ": 7492,
      "ä¸įå°½": 7493,
      "ä¸įå¹²åĩĢ": 7494,
      "ä¸įåĢ¼": 7495,
      "ä¸įé«ĺåħ´": 7496,
      "ä¸įèĪĴæľį": 7497,
      "ä¸įè¶³ä»¥": 7498,
      "ä¸įæŃ¢": 7499,
      "ä¸įç¨³": 7500,
      "ä¸įæĥ¹": 7501,
      "ä¸įå°ıçļĦ": 7502,
      "ä¸įåĸĿéħĴ": 7503,
      "ä¸įè¨Ģè¯Ń": 7504,
      "ä¸įé¡¾å¾Ĺ": 7505,
      "ä¸įå¿«è·ĳ": 7506,
      "ä¸įè·Łå¥¹": 7507,
      "ä¸įæī¿è®¤": 7508,
      "ä¸įåĩĨçŁ¥éģĵ": 7509,
      "ä¸įåľ¨ä¹İ": 7510,
      "ä¸įå®¢æ°Ķ": 7511,
      "ä¸įå¦¥": 7512,
      "ä¸įåĵįçļĦ": 7513,
      "ä¸įæµİ": 7514,
      "ä¸įåĲ¸çĥŁ": 7515,
      "ä¸įå±Īå¿ĥ": 7516,
      "ä¸įèĢĲçĥ¦äºĨ": 7517,
      "äºĨåıĪ": 7518,
      "äºĨæ°Ķ": 7519,
      "äºĨèĻİå¦ŀ": 7520,
      "äºĨåĲ¬": 7521,
      "äºĨè·¯": 7522,
      "äºĨå®ĥ": 7523,
      "äºĨè¿ĩåİ»": 7524,
      "äºĨåĮħ": 7525,
      "äºĨæŃ¥": 7526,
      "äºĨä¸ĭåİ»": 7527,
      "äºĨå¤ļå°ĳ": 7528,
      "äºĨåİŁ": 7529,
      "äºĨä»·": 7530,
      "äºĨæĮĩ": 7531,
      "äºĨè¡£è£³": 7532,
      "äºĨä¸īå¤©": 7533,
      "äºĨå¥½åĩł": 7534,
      "äºĨè¿Ļåĩł": 7535,
      "è¿ģ": 7536,
      "åı®": 7537,
      "åı±": 7538,
      "åı¼": 7539,
      "åıĶ": 7540,
      "æĺł": 7541,
      "æĺĵå¾Ĺ": 7542,
      "ä¹¾": 7543,
      "ä¹į": 7544,
      "ä¹Įäºĳ": 7545,
      "ä¸Ģéģĵ": 7546,
      "ä¸Ģè§ī": 7547,
      "ä¸Ģå½ĵ": 7548,
      "ä¸Ģå¹²": 7549,
      "ä¸ĢéĹ´": 7550,
      "ä¸Ģåĩºåİ»": 7551,
      "ä¸Ģå¸¦": 7552,
      "ä¸ĢæĹ¥": 7553,
      "ä¸Ģæĥ³åĪ°": 7554,
      "ä¸ĢåĿĹéĴ±": 7555,
      "ä¸ĢçĹĽå¿«": 7556,
      "ä¸Ģä¸ĩ": 7557,
      "ä¸Ģè·³": 7558,
      "ä¸Ģéľ²": 7559,
      "ä¸ĢéĢģ": 7560,
      "ä¸Ģä¸ĸ": 7561,
      "ä¸Ģæĳĩ": 7562,
      "ä¸Ģè¯Ń": 7563,
      "ä¸Ģæľ¨": 7564,
      "ä¸Ģæį¢": 7565,
      "ä¸Ģç¾¤": 7566,
      "ä¸Ģèįī": 7567,
      "ä¸Ģè°Ī": 7568,
      "ä¸ĢåłĨ": 7569,
      "ä¸Ģå¥Ĺ": 7570,
      "ä¸ĢæĪĲå®¶": 7571,
      "ä¸Ģæ®µ": 7572,
      "ä¸Ģç¬Ķ": 7573,
      "ä¸Ģç²ĺ": 7574,
      "ä¸Ģé£ķ": 7575,
      "ä¸Ģæķ´å¤©": 7576,
      "ä¸Ģæµª": 7577,
      "ä¸Ģçķª": 7578,
      "ä¸Ģéĥ¨åĪĨ": 7579,
      "ä¸Ģæīĭæī¶": 7580,
      "æĺ¯äºº": 7581,
      "æĺ¯æ²¡": 7582,
      "æĺ¯ç¥¥åŃĲ": 7583,
      "æĺ¯å¥¹": 7584,
      "æĺ¯æ²¡æľī": 7585,
      "æĺ¯èĻİå¦ŀ": 7586,
      "æĺ¯éĿŀ": 7587,
      "æĺ¯åĲĳ": 7588,
      "æĺ¯æĢİæł·": 7589,
      "æĺ¯ä¸Ģå¤©": 7590,
      "æĺ¯ä¸įä¼ļ": 7591,
      "æĺ¯æĢİä¹Ī": 7592,
      "æĺ¯åĵŃ": 7593,
      "æĺ¯äºĮåįģ": 7594,
      "æĺ¯åºĶå½ĵ": 7595,
      "æĺ¯å¥½äºĨ": 7596,
      "æĺ¯ä¾¦æİ¢": 7597,
      "æĺ¯æĮĩ": 7598,
      "æĺ¯æŃ»çļĦ": 7599,
      "æĺ¯ç£¨çŁ³åı£": 7600,
      "æĺ¯äº¤æĥħ": 7601,
      "æĺ¯ä¾ĭå¤ĸ": 7602,
      "åŃĿ": 7603,
      "æľ±": 7604,
      "åŃĲäºĨ": 7605,
      "åŃĲéĿ¢": 7606,
      "åŃĲè½¯": 7607,
      "å¥ĭ": 7608,
      "å¥ĸ": 7609,
      "ä½ĳ": 7610,
      "çĿĢä¸Ĭ": 7611,
      "çĿĢæ°Ķ": 7612,
      "çĿĢèµ°": 7613,
      "çĿĢçĻ½": 7614,
      "çĿĢèº«": 7615,
      "çĿĢä»ĸä»¬": 7616,
      "çĿĢå®ĥ": 7617,
      "çĿĢä¸ĢäºĽ": 7618,
      "çĿĢç¢Ĺ": 7619,
      "çĿĢè®¸å¤ļ": 7620,
      "çĿĢèĥĮ": 7621,
      "çĿĢå¥³åĦ¿": 7622,
      "çĿĢæħĮ": 7623,
      "çĿĢèĥĨ": 7624,
      "çĿĢæĺŁ": 7625,
      "çĿĢåĲį": 7626,
      "çĿĢèº«åŃĲ": 7627,
      "çĿĢéĻ¢åŃĲ": 7628,
      "çĿĢèĦĸåŃĲ": 7629,
      "çĿĢä¸¤ä¸ªå¼Łå¼Ł": 7630,
      "å°ģ": 7631,
      "å°¥è¹": 7632,
      "æľīç¥¥åŃĲ": 7633,
      "æľīä½ł": 7634,
      "æľīå¤´": 7635,
      "æľīè¿ĩ": 7636,
      "æľīæ°Ķ": 7637,
      "æľīåĲĥ": 7638,
      "æľīè¯Ŀ": 7639,
      "æľīè¿Ļä¹Ī": 7640,
      "æľīçĶ¨": 7641,
      "æľīæķ¢": 7642,
      "æľīåħī": 7643,
      "æľīçİ°": 7644,
      "æľīçļĦäºº": 7645,
      "æľīçļĦäºĭ": 7646,
      "æľīè¾Ĩ": 7647,
      "æľīæĿ¡": 7648,
      "æľīåľ°æĸ¹": 7649,
      "æľīäºĶ": 7650,
      "æľīåĪĨ": 7651,
      "æľīé¬¼": 7652,
      "æľīå·¥å¤«": 7653,
      "æľīæľºä¼ļ": 7654,
      "æľīå°ıç¦ıåŃĲçļĦ": 7655,
      "æľīåĦ¿åŃĲ": 7656,
      "æľīå¿Ĺ": 7657,
      "æľīå¿ĥçľ¼": 7658,
      "æľīæ£µ": 7659,
      "æľīæ³ķåĦ¿": 7660,
      "æľīå°¾": 7661,
      "æľīæ³ķåŃĲ": 7662,
      "æľīä¸ĢçĤ¹ä»Ģä¹Ī": 7663,
      "æľīé¥Ńå±Ģ": 7664,
      "æľīèĬ±å®Į": 7665,
      "æľīä»ĸéĤ£æł·çļĦ": 7666,
      "å®Ļ": 7667,
      "åİ¢": 7668,
      "ä¸ªä¸į": 7669,
      "ä¸ªå¤©": 7670,
      "ä¸ªæŃ»": 7671,
      "ä¸ªè½¦å¤«": 7672,
      "ä¸ªç©º": 7673,
      "ä¸ªçĹĽå¿«": 7674,
      "ä¸ªæķ´": 7675,
      "ä¸ªè¿Ļæł·çļĦ": 7676,
      "ä¸ªéĵľåŃĲ": 7677,
      "ä¸ªæĻļä¸Ĭ": 7678,
      "ä¸ªåĦ¿åŃĲ": 7679,
      "ä¸ªåĴĮæ°Ķ": 7680,
      "ä¸ªåĦ¿å¥³": 7681,
      "ä¸ªé£ĺ": 7682,
      "ä¸ªåįĬæŃ»": 7683,
      "ä¸ªåĥ»éĿĻåľ°æĸ¹": 7684,
      "æī©": 7685,
      "æīģ": 7686,
      "æī¯äºĨ": 7687,
      "æĿ¥åĳ¢": 7688,
      "æĿ¥åĩł": 7689,
      "æĿ¥åĪ°äºĨ": 7690,
      "æĿ¥ä¸Ģè¾Ĩ": 7691,
      "æĿ¥ä¸Ģè¶Ł": 7692,
      "æĿ¥æĥ³åİ»": 7693,
      "æĿ¥ä¸įåıĬ": 7694,
      "æĿ¥å¹²èĦĨçļĦ": 7695,
      "ä¸Ĭä¹Ł": 7696,
      "ä¸Ĭæ²¡": 7697,
      "ä¸Ĭå¤§": 7698,
      "ä¸Ĭçľĭ": 7699,
      "ä¸Ĭéĥ½": 7700,
      "ä¸ĬéĹ¨": 7701,
      "ä¸Ĭèº«": 7702,
      "ä¸Ĭè¿ŀ": 7703,
      "ä¸Ĭè¡Ĺ": 7704,
      "ä¸Ĭå·²ç»ı": 7705,
      "ä¸Ĭé»Ħ": 7706,
      "ä¸ĬåįĬå¤©": 7707,
      "ä¸ĬåŃ¦": 7708,
      "ä¸ĬçĶ»": 7709,
      "ä¸ĬåĶĩ": 7710,
      "ä¸Ĭä¸Ģè¾Ĩè½¦": 7711,
      "ä¸Ĭæĺ¾åĩº": 7712,
      "ä¸Ĭå¤©æ´¥": 7713,
      "ä¸Ĭå·¦å®ħåİ»": 7714,
      "ä¸ĬæĮĤçĿĢ": 7715,
      "ä¸ĬåĽĽåįģéĵľåŃĲ": 7716,
      "è¯Ī": 7717,
      "è¿Ļè¦ģ": 7718,
      "è¿Ļåı¯æĺ¯": 7719,
      "è¿Ļè¯Ŀ": 7720,
      "è¿ĻæŃ¥": 7721,
      "è¿Ļä½¿ä»ĸ": 7722,
      "è¿Ļéĺµ": 7723,
      "è¿Ļä»½": 7724,
      "è¿Ļå¤§æ¦Ĥ": 7725,
      "è¿ĻèĩªçĦ¶": 7726,
      "è¿Ļä¸īä¸ª": 7727,
      "è¿Ļåĩłå¤©": 7728,
      "è¿Ļåı£æ°Ķ": 7729,
      "è¿ĻäºĶåĿĹéĴ±": 7730,
      "è¿Ļçİ©èīº": 7731,
      "è¿Ļåı«ä½ľ": 7732,
      "è¿Ļç¬Ķè´¦": 7733,
      "è½§": 7734,
      "è½´": 7735,
      "åħ·": 7736,
      "åħĭ": 7737,
      "åħį": 7738,
      "åħļ": 7739,
      "åħģè®¸": 7740,
      "åİ»åĪ°": 7741,
      "åİ»è¦ģ": 7742,
      "åİ»å¤ļ": 7743,
      "åİ»è§ģ": 7744,
      "åİ»ä½ı": 7745,
      "åİ»è·ĳ": 7746,
      "åİ»çĶ¨": 7747,
      "åİ»å¹´": 7748,
      "åİ»åįĸ": 7749,
      "åİ»åĬŀ": 7750,
      "åİ»å¼º": 7751,
      "åİ»æĭ¾": 7752,
      "åİ»çļĦåľ°æĸ¹": 7753,
      "åİ»åķ¦": 7754,
      "åİ»åģ·": 7755,
      "åİ»è¯·": 7756,
      "åİ»æĮ¨": 7757,
      "åİ»åĬªåĬĽ": 7758,
      "åİ»æ³¨æĦı": 7759,
      "åİ»åĸĿéħĴ": 7760,
      "åİ»ç«¯": 7761,
      "åİ»ä½ľäºĭ": 7762,
      "åİ»èĭ¦å¥Ķ": 7763,
      "åİ»åķĨè®®": 7764,
      "åİ»ç£ķå¤´": 7765,
      "åİ»æĶ¾éĿĴ": 7766,
      "åľ¨æĪĳ": 7767,
      "åľ¨å¿ĥ": 7768,
      "åľ¨æ²¡æľī": 7769,
      "åľ¨ä»ĸçļĦ": 7770,
      "åľ¨èĻİå¦ŀ": 7771,
      "åľ¨å¤§å®¶": 7772,
      "åľ¨ç¥¥åŃĲçļĦ": 7773,
      "åľ¨è½¦ä¸Ĭ": 7774,
      "åľ¨åĨ¬å¤©": 7775,
      "åľ¨çľ¼åīį": 7776,
      "åľ¨åı£ä¸Ń": 7777,
      "åľ¨ä»ĸæīĢ": 7778,
      "åľ¨å¤©æ¡¥": 7779,
      "åľ¨ç§ĭ": 7780,
      "åľ¨åħīæĺİ": 7781,
      "åľ¨çģ¯åħī": 7782,
      "åľ¨ä»Ģä¹ĪæĹ¶åĢĻ": 7783,
      "åľ¨å¤ıå¤©": 7784,
      "åľ¨éĹ¨æ´ŀ": 7785,
      "åľ¨é©¬è·¯ä¸Ĭ": 7786,
      "åľ¨éĩĮéĿ¢": 7787,
      "åľ¨è½¦åı£ä¸Ĭ": 7788,
      "åľ¨è½¦åı£åĦ¿": 7789,
      "åľ¨æ²Ļæ¼ł": 7790,
      "åľ¨åįĬå¤ľéĩĮ": 7791,
      "åľ¨æĢĢéĩĮ": 7792,
      "åľ¨çĤīæĹģ": 7793,
      "å·¢": 7794,
      "å·¨": 7795,
      "æĪĴ": 7796,
      "æ²¤": 7797,
      "æ²Ł": 7798,
      "èµİ": 7799,
      "èµł": 7800,
      "èµĽè½¦": 7801,
      "äººè¯´": 7802,
      "äººåı¯æĺ¯": 7803,
      "äººäºĭ": 7804,
      "äººä¸İ": 7805,
      "äººåı£": 7806,
      "äººé©¬": 7807,
      "äººæĥħ": 7808,
      "äººå¸¦": 7809,
      "äººæĺ¯éĤ£ä¹Ī": 7810,
      "äººæł¼": 7811,
      "äººäººéĥ½": 7812,
      "äººä¹Łæľī": 7813,
      "äººç¼ĺ": 7814,
      "äººéĹ´çļĦ": 7815,
      "äººä¸İè½¦": 7816,
      "å¾Ĺä¸Ĭ": 7817,
      "å¾Ĺè¿ĩ": 7818,
      "å¾Ĺç»Ļ": 7819,
      "å¾Ĺå¯¹": 7820,
      "å¾ĹçľŁ": 7821,
      "å¾Ĺå·²ç»ı": 7822,
      "å¾ĹæľĢ": 7823,
      "å¾ĹæĹ©": 7824,
      "å¾Ĺåĩłä¹İ": 7825,
      "å¾ĹçĹĽå¿«": 7826,
      "å¾Ĺå¤ļå°ĳ": 7827,
      "å¾ĹæĿ¥çļĦ": 7828,
      "å¾Ĺä¸įåĪ°": 7829,
      "å¾Ĺèµģ": 7830,
      "å¾Ĺä¸įèĥ½åĨį": 7831,
      "å¾ĹåıĳäºĨ": 7832,
      "å¾Ĺèµ¶ç´§": 7833,
      "å¾ĹæĭĴç»Ŀ": 7834,
      "å¾Ĺå¹²å¹²åĩĢåĩĢ": 7835,
      "å¾Ĺä¹Ĳä¸Ķä¹Ĳ": 7836,
      "ç¥·åĳĬçĿĢ": 7837,
      "ç¥ĸçĪ¶": 7838,
      "æĹı": 7839,
      "åĦ¿ä¹Ł": 7840,
      "åĦ¿è¯´": 7841,
      "åĦ¿ä»¬": 7842,
      "åĦ¿èµ°": 7843,
      "åĦ¿ä¹Łä¸į": 7844,
      "åĦ¿çĶ¨": 7845,
      "åĦ¿ä¿©": 7846,
      "åĦ¿åķ·": 7847,
      "è½¦å°±": 7848,
      "è½¦è¿ĺ": 7849,
      "è½¦ä¸İ": 7850,
      "è½¦åĲ§": 7851,
      "è½¦å¤Ħ": 7852,
      "è½¦è¾Ĩ": 7853,
      "è½¦å¸¦": 7854,
      "è½¦éĵº": 7855,
      "è½¦è¿·": 7856,
      "è½¦åº§åĦ¿": 7857,
      "è½¦ç«Ļ": 7858,
      "è½¦ç§Ł": 7859,
      "è½¦è½®": 7860,
      "ä¹ŁèĢģ": 7861,
      "ä¹Łä½ľ": 7862,
      "ä¹ŁæĹł": 7863,
      "ä¹ŁéĿŀ": 7864,
      "ä¹ŁéĹ¹": 7865,
      "ä¹ŁæľīäºĨ": 7866,
      "ä¹ŁæĻĵå¾Ĺ": 7867,
      "ä¹ŁéªĤ": 7868,
      "ä¹Łçħ§": 7869,
      "ä¹Łæ´Ĺ": 7870,
      "ä¹Łæĺ¯ä¸Ģ": 7871,
      "ä¹Łèµ°äºĨ": 7872,
      "ä¹Łçľĭè§ģäºĨ": 7873,
      "ä¹ŁåĬĿ": 7874,
      "ä¹Łåıªèĥ½": 7875,
      "ä¹Łä¸ĭç»Ļ": 7876,
      "ä¹ŁéĢĥä¸įåĩºåİ»": 7877,
      "æ²¡åľ¨": 7878,
      "æ²¡éĴ±": 7879,
      "æ²¡æīĵ": 7880,
      "æ²¡è¯Ŀ": 7881,
      "æ²¡åĬ¨": 7882,
      "æ²¡åıĳ": 7883,
      "æ²¡çŃī": 7884,
      "æ²¡ç®¡": 7885,
      "æ²¡çĿ¡": 7886,
      "æ²¡æ´Ĺ": 7887,
      "æ²¡åĬ²": 7888,
      "æ²¡ä½łçļĦ": 7889,
      "æ²¡å·¥å¤«": 7890,
      "æ²¡å¾ĹåĪ°": 7891,
      "æ²¡åįģåĪĨ": 7892,
      "æ²¡åĬĽéĩı": 7893,
      "æ²¡æī£": 7894,
      "æ²¡éĴ±ä¹°": 7895,
      "æ²¡å¤§åħ³ç³»": 7896,
      "æ²¡è§ģè¿ĩ": 7897,
      "æ²¡æīĵæĪĲ": 7898,
      "èĩĬ": 7899,
      "ç¥¥åŃĲæĿ¥": 7900,
      "ç¥¥åŃĲå°±": 7901,
      "ç¥¥åŃĲçľĭ": 7902,
      "ç¥¥åŃĲèĢģ": 7903,
      "ç¥¥åŃĲèĢĮ": 7904,
      "ç¥¥åŃĲçľŁ": 7905,
      "ç¥¥åŃĲæĢķ": 7906,
      "ç¥¥åŃĲæĽ´": 7907,
      "ç¥¥åŃĲä»¿ä½Ľ": 7908,
      "ç¥¥åŃĲæľ¬": 7909,
      "ç¥¥åŃĲè¿ĺæĺ¯": 7910,
      "ç¥¥åŃĲæĢ»": 7911,
      "ç¥¥åŃĲä¸ĬäºĨ": 7912,
      "ç¥¥åŃĲæĻĵå¾Ĺ": 7913,
      "ç¥¥åŃĲæĮ£": 7914,
      "ç¥¥åŃĲåĩłä¹İ": 7915,
      "ç¥¥åŃĲä¸įèĤ¯": 7916,
      "ç¥¥åŃĲè¿Ľåİ»": 7917,
      "ç¥¥åŃĲéĢģ": 7918,
      "ç¥¥åŃĲæĳ¸": 7919,
      "ç¥¥åŃĲè¿ĺæ²¡": 7920,
      "ç¥¥åŃĲçĭ¬èĩª": 7921,
      "ç¥¥åŃĲä»Ģä¹Īä¹Łä¸į": 7922,
      "ç¥¥åŃĲä¸įæĥ³": 7923,
      "ç¥¥åŃĲå§ĭç»Ī": 7924,
      "ç¥¥åŃĲåĲ¬çĿĢ": 7925,
      "ç¥¥åŃĲåĳĨåĳĨçļĦçľĭçĿĢ": 7926,
      "ç¥¥åŃĲçĤ¹äºĨçĤ¹å¤´": 7927,
      "ç¥¥åŃĲæľ¬æĿ¥": 7928,
      "ç¥¥åŃĲçļĦç¡®": 7929,
      "ç¥¥åŃĲåĴ½": 7930,
      "ç¥¥åŃĲæĢ¥äºİ": 7931,
      "ç¥¥åŃĲå½ĵçĦ¶": 7932,
      "ç¥¥åŃĲæī¾ä¸įåĪ°": 7933,
      "ç¥¥åŃĲä¸įæķ¢åĨį": 7934,
      "ç¥¥åŃĲå§ĭç»Īæ²¡": 7935,
      "ç¥¥åŃĲç¨įå¾®": 7936,
      "ç¥¥åŃĲåĿĲåľ¨äºĨ": 7937,
      "ç¥¥åŃĲä½İä¸ĭå¤´åİ»": 7938,
      "åį¸": 7939,
      "åı¯å°±": 7940,
      "åı¯è¿ĺ": 7941,
      "åı¯èĥ½": 7942,
      "åı¯èµ°": 7943,
      "åı¯ä¼ļ": 7944,
      "åı¯çľŁ": 7945,
      "åı¯è®²": 7946,
      "åı¯æģ¨": 7947,
      "åı¯ä¸įè¡Į": 7948,
      "åı¯åĲĵæŃ»æĪĳäºĨ": 7949,
      "åı¯çĿĢéĻ¢åŃĲ": 7950,
      "åĪ°ä¸Ģ": 7951,
      "åĪ°å¿«": 7952,
      "åĪ°è¿Ļä¸ª": 7953,
      "åĪ°èĦļ": 7954,
      "åĪ°ä¸ĢåĿĹ": 7955,
      "åĪ°è¡Ĺä¸Ĭ": 7956,
      "åĪ°æĹ¥åŃĲ": 7957,
      "åĪ°åĵªéĩĮ": 7958,
      "åĪ°æĽ¹å®ħ": 7959,
      "åĪ°å¤©æ¡¥": 7960,
      "åĪ°ä¸ĥåħ«": 7961,
      "åĪ°ä¸ĭåįĪ": 7962,
      "åĪ°ä»Ģä¹ĪæĹ¶åĢĻ": 7963,
      "åĪ°ä¸Ĭæµ·": 7964,
      "åĪ°å¤©æ´¥": 7965,
      "åĪ°èĢģäºĨ": 7966,
      "åĪ°å¦Ĥä»Ĭ": 7967,
      "åĪ°èĢĥè¯ķ": 7968,
      "ï¼Ľ\"": 7969,
      "å¥¹çľĭ": 7970,
      "å¥¹æĥ³": 7971,
      "å¥¹ä¼ļ": 7972,
      "å¥¹å¤ª": 7973,
      "å¥¹ä¸İ": 7974,
      "å¥¹å¿ĥä¸Ń": 7975,
      "å¥¹ä¸įæĺ¯": 7976,
      "å¥¹ä¸ĢçĤ¹": 7977,
      "å¥¹å¿ħ": 7978,
      "å¥¹æ¯Ķ": 7979,
      "å¥¹èĻ½çĦ¶": 7980,
      "å¥¹æľ¬": 7981,
      "å¥¹åı«": 7982,
      "å¥¹æĹ¢": 7983,
      "å¥¹åĽŀæĿ¥": 7984,
      "å¥¹ä¸įæķ¢": 7985,
      "å¥¹æľīäºĨ": 7986,
      "å¥¹ä»¥ä¸º": 7987,
      "å¥¹è·ŁçĿĢ": 7988,
      "å¥¹åĪ°åºķ": 7989,
      "å¥¹ä¹Łå°±": 7990,
      "å¥¹å¾Ģåīį": 7991,
      "å¥¹æĮĩ": 7992,
      "å¥¹å¹¶æ²¡": 7993,
      "å¥¹è¿Ļæł·çļĦ": 7994,
      "å¥¹æĬ¹": 7995,
      "å¥¹çĤ¹äºĨçĤ¹å¤´": 7996,
      "å¥¹è¯´å®Į": 7997,
      "å¥¹æĴĩ": 7998,
      "å¥¹ç¬ĳäºĨç¬ĳ": 7999
    },
    "merges": [
      [
        "ï",
        "¼"
      ],
      [
        "ä",
        "¸"
      ],
      [
        "ï¼",
        "Į"
      ],
      [
        "ä",
        "º"
      ],
      [
        "ç",
        "ļ"
      ],
      [
        "çļ",
        "Ħ"
      ],
      [
        "ä",
        "»"
      ],
      [
        "Ģ",
        "Ĥ"
      ],
      [
        "ã",
        "ĢĤ"
      ],
      [
        "å",
        "¤"
      ],
      [
        "ä»",
        "ĸ"
      ],
      [
        "ä¸",
        "į"
      ],
      [
        "äº",
        "Ĩ"
      ],
      [
        "è",
        "¿"
      ],
      [
        "å",
        "ı"
      ],
      [
        "æ",
        "ĺ"
      ],
      [
        "ä",
        "¹"
      ],
      [
        "ä¸",
        "Ģ"
      ],
      [
        "æĺ",
        "¯"
      ],
      [
        "å",
        "Ń"
      ],
      [
        "æ",
        "ľ"
      ],
      [
        "åŃ",
        "Ĳ"
      ],
      [
        "å",
        "¥"
      ],
      [
        "ç",
        "Ŀ"
      ],
      [
        "ä",
        "½"
      ],
      [
        "å",
        "Ī"
      ],
      [
        "çĿ",
        "Ģ"
      ],
      [
        "å",
        "¾"
      ],
      [
        "å",
        "°"
      ],
      [
        "æ",
        "Ŀ"
      ],
      [
        "å",
        "ľ"
      ],
      [
        "å",
        "Ĳ"
      ],
      [
        "æľ",
        "ī"
      ],
      [
        "å",
        "ĩ"
      ],
      [
        "å",
        "®"
      ],
      [
        "å",
        "İ"
      ],
      [
        "ä¸",
        "ª"
      ],
      [
        "æ",
        "ī"
      ],
      [
        "ï¼",
        "ģ"
      ],
      [
        "æĿ",
        "¥"
      ],
      [
        "ä¸",
        "Ĭ"
      ],
      [
        "å",
        "¿"
      ],
      [
        "è",
        "¯"
      ],
      [
        "ç",
        "ľ"
      ],
      [
        "è¿",
        "Ļ"
      ],
      [
        "è",
        "½"
      ],
      [
        "å",
        "ħ"
      ],
      [
        "ĥ",
        "½"
      ],
      [
        "åİ",
        "»"
      ],
      [
        "åľ",
        "¨"
      ],
      [
        "å",
        "·"
      ],
      [
        "Ħ",
        "¿"
      ],
      [
        "æ",
        "Ī"
      ],
      [
        "æ",
        "²"
      ],
      [
        "è",
        "µ"
      ],
      [
        "äº",
        "º"
      ],
      [
        "è",
        "Ģ"
      ],
      [
        "å¾",
        "Ĺ"
      ],
      [
        "ç",
        "¥"
      ],
      [
        "æ",
        "Ĺ"
      ],
      [
        "ä¹",
        "Ī"
      ],
      [
        "å",
        "Ħ¿"
      ],
      [
        "è½",
        "¦"
      ],
      [
        "ä¹",
        "Ł"
      ],
      [
        "æ²",
        "¡"
      ],
      [
        "¥",
        "åŃĲ"
      ],
      [
        "è",
        "ĩ"
      ],
      [
        "ç¥",
        "¥åŃĲ"
      ],
      [
        "ç",
        "Ķ"
      ],
      [
        "å",
        "į"
      ],
      [
        "åı",
        "¯"
      ],
      [
        "åĪ",
        "°"
      ],
      [
        "ï¼",
        "Ľ"
      ],
      [
        "æ",
        "ĥ"
      ],
      [
        "å¥",
        "¹"
      ],
      [
        "ä",
        "¼"
      ],
      [
        "æ",
        "Ĭ"
      ],
      [
        "åĩ",
        "º"
      ],
      [
        "æ",
        "ĭ"
      ],
      [
        "é",
        "Ĥ"
      ],
      [
        "é",
        "ĩ"
      ],
      [
        "èĩ",
        "ª"
      ],
      [
        "éĤ",
        "£"
      ],
      [
        "æ",
        "Ģ"
      ],
      [
        "ç",
        "»"
      ],
      [
        "å",
        "Ľ"
      ],
      [
        "å",
        "ĳ"
      ],
      [
        "å°",
        "±"
      ],
      [
        "å¤",
        "§"
      ],
      [
        "å¥",
        "½"
      ],
      [
        "ç",
        "Ĥ"
      ],
      [
        "çľ",
        "ĭ"
      ],
      [
        "å",
        "Ĩ"
      ],
      [
        "é",
        "Ĺ"
      ],
      [
        "è¯",
        "´"
      ],
      [
        "å¤",
        "©"
      ],
      [
        "å",
        "¹"
      ],
      [
        "å",
        "Ĭ"
      ],
      [
        "çĤ",
        "¹"
      ],
      [
        "éĩ",
        "Į"
      ],
      [
        "ä½",
        "ł"
      ],
      [
        "æĥ",
        "³"
      ],
      [
        "é",
        "ĥ½"
      ],
      [
        "ä»",
        "¬"
      ],
      [
        "æ",
        "°"
      ],
      [
        "Ĵ",
        "±"
      ],
      [
        "æĪ",
        "ĳ"
      ],
      [
        "è",
        "§"
      ],
      [
        "æĬ",
        "Ĭ"
      ],
      [
        "å·",
        "±"
      ],
      [
        "å",
        "¼"
      ],
      [
        "èĩª",
        "å·±"
      ],
      [
        "è¿",
        "ĺ"
      ],
      [
        "å¤",
        "´"
      ],
      [
        "å¿",
        "ĥ"
      ],
      [
        "ï¼",
        "Ł"
      ],
      [
        "å°",
        "ı"
      ],
      [
        "è",
        "·"
      ],
      [
        "æ",
        "ł"
      ],
      [
        "æ",
        "ķ"
      ],
      [
        "¦",
        "ģ"
      ],
      [
        "æ",
        "Ń"
      ],
      [
        "è",
        "ĥ½"
      ],
      [
        "è",
        "¦ģ"
      ],
      [
        "ä¸",
        "Ń"
      ],
      [
        "ä¸",
        "ĭ"
      ],
      [
        "é",
        "Ĵ±"
      ],
      [
        "è¿",
        "ĩ"
      ],
      [
        "èĢ",
        "ģ"
      ],
      [
        "é",
        "Ŀ"
      ],
      [
        "äº",
        "Ľ"
      ],
      [
        "å",
        "Ŀ"
      ],
      [
        "å",
        "¦"
      ],
      [
        "â",
        "Ģ"
      ],
      [
        "åı¯",
        "æĺ¯"
      ],
      [
        "å",
        "¸"
      ],
      [
        "Ģ",
        "ä¹Ī"
      ],
      [
        "ä»",
        "Ģä¹Ī"
      ],
      [
        "å®",
        "¶"
      ],
      [
        "ï¼ģ",
        "\""
      ],
      [
        "èµ",
        "·"
      ],
      [
        "æĭ",
        "ī"
      ],
      [
        "è",
        "®"
      ],
      [
        "äº",
        "ĭ"
      ],
      [
        "è",
        "¡"
      ],
      [
        "å",
        "Ģ"
      ],
      [
        "èĢ",
        "Į"
      ],
      [
        "è",
        "Ħ"
      ],
      [
        "å¤",
        "ļ"
      ],
      [
        "âĢ",
        "Ķ"
      ],
      [
        "Ļ",
        "½"
      ],
      [
        "å",
        "ĵ"
      ],
      [
        "æĹ",
        "¶"
      ],
      [
        "åı",
        "Ī"
      ],
      [
        "æ",
        "Ħ"
      ],
      [
        "è",
        "±"
      ],
      [
        "æ°",
        "Ķ"
      ],
      [
        "æł",
        "·"
      ],
      [
        "çĶ",
        "Ł"
      ],
      [
        "å",
        "Ĵ"
      ],
      [
        "è",
        "¾"
      ],
      [
        "é",
        "ģ"
      ],
      [
        "ä»",
        "¥"
      ],
      [
        "èµ",
        "°"
      ],
      [
        "è±",
        "¡"
      ],
      [
        "ä¸",
        "º"
      ],
      [
        "åĳ",
        "¢"
      ],
      [
        "ï¼",
        "ļ"
      ],
      [
        "æ²¡",
        "æľī"
      ],
      [
        "åı",
        "ª"
      ],
      [
        "æ",
        "Ķ"
      ],
      [
        "ç",
        "Ī"
      ],
      [
        "åħ",
        "Ī"
      ],
      [
        "æ",
        "ĸ"
      ],
      [
        "ä¼",
        "ļ"
      ],
      [
        "æ",
        "Ľ"
      ],
      [
        "ç",
        "Ħ"
      ],
      [
        "ç",
        "Ł"
      ],
      [
        "å",
        "±"
      ],
      [
        "åĨ",
        "į"
      ],
      [
        "ç",
        "Ľ"
      ],
      [
        "çĦ",
        "¶"
      ],
      [
        "å",
        "¯"
      ],
      [
        "ç",
        "®"
      ],
      [
        "ä",
        "¾"
      ],
      [
        "å¤",
        "ª"
      ],
      [
        "æ",
        "´"
      ],
      [
        "çļĦ",
        "ç"
      ],
      [
        "ä¼",
        "¼"
      ],
      [
        "ç»",
        "Ļ"
      ],
      [
        "å",
        "½"
      ],
      [
        "æĦ",
        "ı"
      ],
      [
        "å",
        "ĸ"
      ],
      [
        "åĩ",
        "ł"
      ],
      [
        "å",
        "£"
      ],
      [
        "è",
        "Ļ"
      ],
      [
        "æī",
        "ĵ"
      ],
      [
        "çľ",
        "¼"
      ],
      [
        "ç",
        "Ļ½"
      ],
      [
        "è",
        "º"
      ],
      [
        "ä¸",
        "İ"
      ],
      [
        "ä»ĸ",
        "çļĦ"
      ],
      [
        "å",
        "º"
      ],
      [
        "æ",
        "¯"
      ],
      [
        "åĪ",
        "«"
      ],
      [
        "å",
        "ī"
      ],
      [
        "åľ",
        "°"
      ],
      [
        "åĽ",
        "ŀ"
      ],
      [
        "åĲ",
        "ĥ"
      ],
      [
        "éģ",
        "ĵ"
      ],
      [
        "ä¸",
        "¤"
      ],
      [
        "åĴ",
        "Į"
      ],
      [
        "é",
        "©"
      ],
      [
        "æ",
        "Į"
      ],
      [
        "æ",
        "³"
      ],
      [
        "å·",
        "²"
      ],
      [
        "è",
        "°"
      ],
      [
        "é",
        "ª"
      ],
      [
        "èĻ",
        "İ"
      ],
      [
        "è¯",
        "Ŀ"
      ],
      [
        "çŁ",
        "¥"
      ],
      [
        "ä¹",
        "°"
      ],
      [
        "æī",
        "ĭ"
      ],
      [
        "ç",
        "ī"
      ],
      [
        "ä½",
        "ľ"
      ],
      [
        "å¾",
        "Ī"
      ],
      [
        "ç",
        "ĥ"
      ],
      [
        "¥",
        "¿"
      ],
      [
        "è",
        "Ĥ"
      ],
      [
        "è§",
        "ģ"
      ],
      [
        "åı",
        "£"
      ],
      [
        "åĢ",
        "Ļ"
      ],
      [
        "è§",
        "ī"
      ],
      [
        "æĺ",
        "İ"
      ],
      [
        "é",
        "¡"
      ],
      [
        "å¾",
        "Ģ"
      ],
      [
        "åĽ",
        "Ľ"
      ],
      [
        "æĢ",
        "İ"
      ],
      [
        "è",
        "¶"
      ],
      [
        "ä¾",
        "¿"
      ],
      [
        "å£",
        "°"
      ],
      [
        "åħĪ",
        "çĶŁ"
      ],
      [
        "åį",
        "ģ"
      ],
      [
        "åĲ",
        "İ"
      ],
      [
        "é",
        "Ļ"
      ],
      [
        "éĹ",
        "¨"
      ],
      [
        "èº",
        "«"
      ],
      [
        "è",
        "ĭ"
      ],
      [
        "ç",
        "İ"
      ],
      [
        "ä¸į",
        "èĥ½"
      ],
      [
        "ä¸Ģ",
        "ä¸ª"
      ],
      [
        "æĹ¶",
        "åĢĻ"
      ],
      [
        "å",
        "Į"
      ],
      [
        "å¿",
        "«"
      ],
      [
        "é",
        "Ģ"
      ],
      [
        "è",
        "¥¿"
      ],
      [
        "åĿ",
        "Ĺ"
      ],
      [
        "æ",
        "Ļ"
      ],
      [
        "ç",
        "ģ"
      ],
      [
        "åĲ",
        "§"
      ],
      [
        "å¯",
        "¹"
      ],
      [
        "æ",
        "ħ"
      ],
      [
        "å½",
        "ĵ"
      ],
      [
        "æĪ",
        "Ĳ"
      ],
      [
        "äº",
        "Į"
      ],
      [
        "âĢĶ",
        "âĢĶ"
      ],
      [
        "ä¹",
        "İ"
      ],
      [
        "æ",
        "İ"
      ],
      [
        "ä»ĸ",
        "ä»¬"
      ],
      [
        "è¿Ļ",
        "ä¹Ī"
      ],
      [
        "è",
        "´"
      ],
      [
        "è",
        "ĥ"
      ],
      [
        "ä½",
        "ı"
      ],
      [
        "å¦",
        "ŀ"
      ],
      [
        "èĻİ",
        "å¦ŀ"
      ],
      [
        "è",
        "¢"
      ],
      [
        "è¿Ļ",
        "ä¸ª"
      ],
      [
        "ï¼Ł",
        "\""
      ],
      [
        "æ",
        "¸"
      ],
      [
        "ä¹Ł",
        "ä¸į"
      ],
      [
        "ä½",
        "¿"
      ],
      [
        "å¹",
        "²"
      ],
      [
        "èµ·",
        "æĿ¥"
      ],
      [
        "é",
        "ļ"
      ],
      [
        "å¼",
        "Ģ"
      ],
      [
        "ï¼ļ",
        "\""
      ],
      [
        "é",
        "£"
      ],
      [
        "æĶ",
        "¾"
      ],
      [
        "åī",
        "į"
      ],
      [
        "ç",
        "¬"
      ],
      [
        "ä¸",
        "ī"
      ],
      [
        "ä¸",
        "ľ"
      ],
      [
        "éĤ£",
        "ä¹Ī"
      ],
      [
        "è",
        "Ĭ"
      ],
      [
        "é",
        "ĺ"
      ],
      [
        "åħ",
        "¨"
      ],
      [
        "éĿ",
        "¢"
      ],
      [
        "è·",
        "ĳ"
      ],
      [
        "ç",
        "Ń"
      ],
      [
        "é",
        "Ľ"
      ],
      [
        "èĩªå·±",
        "çļĦ"
      ],
      [
        "å¤§",
        "å®¶"
      ],
      [
        "é",
        "«"
      ],
      [
        "å",
        "§"
      ],
      [
        "æ",
        "ŀ"
      ],
      [
        "äºĨ",
        "ä¸Ģ"
      ],
      [
        "é",
        "»"
      ],
      [
        "çĶ",
        "¨"
      ],
      [
        "å¿ĥ",
        "ä¸Ń"
      ],
      [
        "ç",
        "©"
      ],
      [
        "æī",
        "į"
      ],
      [
        "å¹",
        "´"
      ],
      [
        "åĬ",
        "¨"
      ],
      [
        "æĽ",
        "¹"
      ],
      [
        "çŁ¥",
        "éģĵ"
      ],
      [
        "é«",
        "ĺ"
      ],
      [
        "åı",
        "ĳ"
      ],
      [
        "æĹ",
        "ł"
      ],
      [
        "ç",
        "º"
      ],
      [
        "åį",
        "ĸ"
      ],
      [
        "æ",
        "±"
      ],
      [
        "æĸ",
        "¹"
      ],
      [
        "æ",
        "ģ"
      ],
      [
        "ä»ĸ",
        "ä¸į"
      ],
      [
        "é",
        "¥"
      ],
      [
        "é",
        "ĵ"
      ],
      [
        "å¤",
        "Ħ"
      ],
      [
        "æī",
        "¾"
      ],
      [
        "åĲ",
        "¬"
      ],
      [
        "åĩº",
        "æĿ¥"
      ],
      [
        "æķ",
        "¢"
      ],
      [
        "åĿ",
        "Ĳ"
      ],
      [
        "å",
        "ģ"
      ],
      [
        "ç",
        "Ĺ"
      ],
      [
        "å±",
        "ĭ"
      ],
      [
        "ç",
        "§"
      ],
      [
        "è¿",
        "Ľ"
      ],
      [
        "â",
        "ĳ"
      ],
      [
        "å¤",
        "«"
      ],
      [
        "è¿",
        "ŀ"
      ],
      [
        "ç",
        "«"
      ],
      [
        "è",
        "ħ"
      ],
      [
        "å¤",
        "ĸ"
      ],
      [
        "æ",
        "ĳ"
      ],
      [
        "ä¸į",
        "æĺ¯"
      ],
      [
        "è¶",
        "Ĭ"
      ],
      [
        "æĭ",
        "¿"
      ],
      [
        "ç®",
        "Ĺ"
      ],
      [
        "æŃ",
        "»"
      ],
      [
        "åħ",
        "ī"
      ],
      [
        "ç",
        "¦"
      ],
      [
        "å°",
        "ĳ"
      ],
      [
        "ç",
        "¢"
      ],
      [
        "æ³",
        "ķ"
      ],
      [
        "åĬ",
        "Ľ"
      ],
      [
        "æī",
        "Ģ"
      ],
      [
        "èĦ",
        "¸"
      ],
      [
        "è§ī",
        "å¾Ĺ"
      ],
      [
        "ç»",
        "ı"
      ],
      [
        "è°",
        "ģ"
      ],
      [
        "ä¸Ģ",
        "çĤ¹"
      ],
      [
        "å®",
        "Į"
      ],
      [
        "ä¸ľ",
        "è¥¿"
      ],
      [
        "åı¯",
        "ä»¥"
      ],
      [
        "åĽ",
        "ł"
      ],
      [
        "å¥",
        "³"
      ],
      [
        "åĪ",
        "ĺ"
      ],
      [
        "å¹",
        "¶"
      ],
      [
        "è·",
        "Ł"
      ],
      [
        "çĽ",
        "´"
      ],
      [
        "æ´",
        "»"
      ],
      [
        "æħ",
        "¢"
      ],
      [
        "æ",
        "¬"
      ],
      [
        "ç",
        "´"
      ],
      [
        "è",
        "Ĳ"
      ],
      [
        "å®",
        "ļ"
      ],
      [
        "çľ",
        "Ł"
      ],
      [
        "çİ",
        "°"
      ],
      [
        "èĬ",
        "±"
      ],
      [
        "è¾",
        "¹"
      ],
      [
        "å",
        "ĺ"
      ],
      [
        "ä¸",
        "»"
      ],
      [
        "éĿ",
        "ŀ"
      ],
      [
        "ä",
        "¿"
      ],
      [
        "åĸ",
        "Ŀ"
      ],
      [
        "å",
        "¨"
      ],
      [
        "æ",
        "£"
      ],
      [
        "ä¸",
        "Ķ"
      ],
      [
        "æĢ",
        "ķ"
      ],
      [
        "è¢",
        "«"
      ],
      [
        "ãĢĤ",
        "\""
      ],
      [
        "çĶ",
        "±"
      ],
      [
        "æ°",
        "´"
      ],
      [
        "æŃ",
        "£"
      ],
      [
        "ä¼¼",
        "çļĦ"
      ],
      [
        "é©",
        "¬"
      ],
      [
        "é",
        "ķ"
      ],
      [
        "åį",
        "Ĭ"
      ],
      [
        "éĹ",
        "´"
      ],
      [
        "çĪ",
        "·"
      ],
      [
        "æĽ",
        "´"
      ],
      [
        "ä¼¼",
        "ä¹İ"
      ],
      [
        "çļĦ",
        "äºº"
      ],
      [
        "çļĦ",
        "æĹ¶åĢĻ"
      ],
      [
        "å¿",
        "½"
      ],
      [
        "åĵ",
        "ª"
      ],
      [
        "çŃ",
        "ī"
      ],
      [
        "ç",
        "ĭ"
      ],
      [
        "çļĦ",
        "äºĭ"
      ],
      [
        "åĩº",
        "åİ»"
      ],
      [
        "å°±",
        "æĺ¯"
      ],
      [
        "å¸",
        "¸"
      ],
      [
        "è¡",
        "Į"
      ],
      [
        "è¾",
        "Ĩ"
      ],
      [
        "æķ",
        "Ļ"
      ],
      [
        "å¦",
        "Ī"
      ],
      [
        "è®",
        "¸"
      ],
      [
        "å¤ª",
        "å¤ª"
      ],
      [
        "ä»",
        "İ"
      ],
      [
        "æĽ¹",
        "åħĪçĶŁ"
      ],
      [
        "èĦ",
        "ļ"
      ],
      [
        "ç®",
        "¡"
      ],
      [
        "ç¦",
        "ı"
      ],
      [
        "æĭī",
        "è½¦"
      ],
      [
        "è¡",
        "Ĺ"
      ],
      [
        "ç¬",
        "ĳ"
      ],
      [
        "é»",
        "ĳ"
      ],
      [
        "æ",
        "»"
      ],
      [
        "å¿",
        "ħ"
      ],
      [
        "è¿",
        "ľ"
      ],
      [
        "è¿Ļ",
        "æł·"
      ],
      [
        "èĲ",
        "½"
      ],
      [
        "æ",
        "Ħ¿"
      ],
      [
        "è·",
        "¯"
      ],
      [
        "å",
        "ķ"
      ],
      [
        "æ¸",
        "ħ"
      ],
      [
        "åĪ",
        "ĩ"
      ],
      [
        "æĥ",
        "ħ"
      ],
      [
        "åĬ",
        "ŀ"
      ],
      [
        "é£",
        "İ"
      ],
      [
        "çº",
        "¢"
      ],
      [
        "éķ",
        "¿"
      ],
      [
        "ç¦ı",
        "åŃĲ"
      ],
      [
        "æ",
        "µ"
      ],
      [
        "æ",
        "·"
      ],
      [
        "é",
        "ħ"
      ],
      [
        "å°ı",
        "ç¦ıåŃĲ"
      ],
      [
        "æĸ",
        "°"
      ],
      [
        "è½¦",
        "å¤«"
      ],
      [
        "åĽł",
        "ä¸º"
      ],
      [
        "å",
        "Ł"
      ],
      [
        "å¼",
        "º"
      ],
      [
        "è",
        "Ļ½"
      ],
      [
        "ä½",
        "Ľ"
      ],
      [
        "åĪ°",
        "äºĨ"
      ],
      [
        "çľĭ",
        "çĿĢ"
      ],
      [
        "èĭ",
        "¦"
      ],
      [
        "çİ°",
        "åľ¨"
      ],
      [
        "ä»",
        "¿"
      ],
      [
        "æĿ",
        "¡"
      ],
      [
        "åĪĺ",
        "åĽĽ"
      ],
      [
        "åı",
        "Ĺ"
      ],
      [
        "åĲ",
        "Į"
      ],
      [
        "åĳ",
        "½"
      ],
      [
        "ä»¿",
        "ä½Ľ"
      ],
      [
        "è",
        "£"
      ],
      [
        "äº",
        "®"
      ],
      [
        "å¸",
        "¦"
      ],
      [
        "æ¯",
        "Ķ"
      ],
      [
        "åľ°",
        "æĸ¹"
      ],
      [
        "é©",
        "¼"
      ],
      [
        "éļ",
        "¾"
      ],
      [
        "ç",
        "¨"
      ],
      [
        "ç",
        "²"
      ],
      [
        "Ĩ",
        "é©¼"
      ],
      [
        "åĲ",
        "ĳ"
      ],
      [
        "å®",
        "ĥ"
      ],
      [
        "è½",
        "»"
      ],
      [
        "æĢ",
        "Ŀ"
      ],
      [
        "å¹",
        "³"
      ],
      [
        "èĢģ",
        "å¤´"
      ],
      [
        "åĢ",
        "Ĵ"
      ],
      [
        "éª",
        "Ĩé©¼"
      ],
      [
        "åĺ",
        "´"
      ],
      [
        "çĥ",
        "Ń"
      ],
      [
        "éĻ",
        "¢"
      ],
      [
        "é",
        "Ķ"
      ],
      [
        "è",
        "ī"
      ],
      [
        "äº",
        "İ"
      ],
      [
        "ç",
        "ł"
      ],
      [
        "ä¸Ĭ",
        "çļĦ"
      ],
      [
        "çĪ",
        "±"
      ],
      [
        "ç",
        "¾"
      ],
      [
        "æĢİ",
        "æł·"
      ],
      [
        "èĢģå¤´",
        "åŃĲ"
      ],
      [
        "è",
        "į"
      ],
      [
        "å¥¹",
        "çļĦ"
      ],
      [
        "éĿ",
        "Ļ"
      ],
      [
        "å·²",
        "ç»ı"
      ],
      [
        "èĻ½",
        "çĦ¶"
      ],
      [
        "è",
        "Į"
      ],
      [
        "æľ",
        "Ľ"
      ],
      [
        "æĪ",
        "ĸ"
      ],
      [
        "é¥",
        "Ń"
      ],
      [
        "ç«",
        "ĭ"
      ],
      [
        "é",
        "¢"
      ],
      [
        "ä¸Ģ",
        "å¤©"
      ],
      [
        "æľ",
        "Ī"
      ],
      [
        "æľī",
        "çĤ¹"
      ],
      [
        "æĢ",
        "¥"
      ],
      [
        "ç",
        "¼"
      ],
      [
        "æľ",
        "¬"
      ],
      [
        "å¿½",
        "çĦ¶"
      ],
      [
        "ç",
        "ħ"
      ],
      [
        "åı",
        "«"
      ],
      [
        "ä½",
        "İ"
      ],
      [
        "åŁ",
        "İ"
      ],
      [
        "æ",
        "į"
      ],
      [
        "ç",
        "ĸ"
      ],
      [
        "ä¸Ģ",
        "äºĽ"
      ],
      [
        "ä½",
        "Ĩ"
      ],
      [
        "æĹ",
        "¢"
      ],
      [
        "è¿ĺ",
        "æĺ¯"
      ],
      [
        "æ",
        "ļ"
      ],
      [
        "ä¸Ģ",
        "åĪĩ"
      ],
      [
        "èĤ",
        "¯"
      ],
      [
        "èĩ",
        "³"
      ],
      [
        "ç§",
        "į"
      ],
      [
        "å®",
        "ŀ"
      ],
      [
        "åį",
        "³"
      ],
      [
        "éĤ£",
        "ä¸ª"
      ],
      [
        "è¡",
        "£"
      ],
      [
        "èĢĮ",
        "ä¸Ķ"
      ],
      [
        "åĽŀ",
        "æĿ¥"
      ],
      [
        "ï¼Į",
        "\""
      ],
      [
        "ä¹",
        "±"
      ],
      [
        "å·",
        "¥"
      ],
      [
        "æ",
        "¥"
      ],
      [
        "åı",
        "¥"
      ],
      [
        "è¿ĩ",
        "åİ»"
      ],
      [
        "æľ",
        "Ģ"
      ],
      [
        "æĪ",
        "¿"
      ],
      [
        "æĹ",
        "©"
      ],
      [
        "æ",
        "¡"
      ],
      [
        "åİ",
        "Ĥ"
      ],
      [
        "ç",
        "ķ"
      ],
      [
        "èµ",
        "¶"
      ],
      [
        "çľĭ",
        "è§ģ"
      ],
      [
        "å",
        "Ĵ±"
      ],
      [
        "çĿ",
        "¡"
      ],
      [
        "æŃ",
        "¤"
      ],
      [
        "ç©",
        "º"
      ],
      [
        "åĪĺåĽĽ",
        "çĪ·"
      ],
      [
        "å",
        "Ķ"
      ],
      [
        "åĪ",
        "ļ"
      ],
      [
        "ä¸»",
        "æĦı"
      ],
      [
        "é",
        "Ĵ"
      ],
      [
        "é",
        "ľ"
      ],
      [
        "æľī",
        "äºĽ"
      ],
      [
        "çł",
        "´"
      ],
      [
        "åŃ",
        "©"
      ],
      [
        "æĶ",
        "¶"
      ],
      [
        "åº",
        "Ķ"
      ],
      [
        "åĮ",
        "ħ"
      ],
      [
        "å",
        "Ĺ"
      ],
      [
[...]
