{
  "version": "1.0",
  "truncation": null,
  "padding": null,
  "added_tokens": [
    {
      "id": 0,
      "content": "<|endoftext|>",
      "single_word": false,
      "lstrip": false,
      "rstrip": false,
      "normalized": true,
      "special": true
    }
  ],
  "normalizer": null,
  "pre_tokenizer": {
    "type": "ByteLevel",
    "add_prefix_space": false,
    "trim_offsets": true,
    "use_regex": true
  },
  "post_processor": {
    "type": "ByteLevel",
    "add_prefix_space": true,
    "trim_offsets": false,
    "use_regex": true
  },
  "decoder": {
    "type": "ByteLevel",
    "add_prefix_space": true,
    "trim_offsets": true,
    "use_regex": true
  },
  "model": {
    "type": "BPE",
    "dropout": null,
    "unk_token": null,
    "continuing_subword_prefix": "",
    "end_of_word_suffix": "",
    "fuse_unk": false,
    "byte_fallback": false,
    "ignore_merges": false,
    "vocab": {
      "<|endoftext|>": 0,
      "!": 1,
      "\"": 2,
      "#": 3,
      "$": 4,
      "%": 5,
      "&": 6,
      "'": 7,
      "(": 8,
      ")": 9,
      "*": 10,
      "+": 11,
      ",": 12,
      "-": 13,
      ".": 14,
      "/": 15,
      "0": 16,
      "1": 17,
      "2": 18,
      "3": 19,
      "4": 20,
      "5": 21,
      "6": 22,
      "7": 23,
      "8": 24,
      "9": 25,
      ":": 26,
      ";": 27,
      "<": 28,
      "=": 29,
      ">": 30,
      "?": 31,
      "@": 32,
      "A": 33,
      "B": 34,
      "C": 35,
      "D": 36,
      "E": 37,
      "F": 38,
      "G": 39,
      "H": 40,
      "I": 41,
      "J": 42,
      "K": 43,
      "L": 44,
      "M": 45,
      "N": 46,
      "O": 47,
      "P": 48,
      "Q": 49,
      "R": 50,
      "S": 51,
      "T": 52,
      "U": 53,
      "V": 54,
      "W": 55,
      "X": 56,
      "Y": 57,
      "Z": 58,
      "[": 59,
      "\\": 60,
      "]": 61,
      "^": 62,
      "_": 63,
      "`": 64,
      "a": 65,
      "b": 66,
      "c": 67,
      "d": 68,
      "e": 69,
      "f": 70,
      "g": 71,
      "h": 72,
      "i": 73,
      "j": 74,
      "k": 75,
      "l": 76,
      "m": 77,
      "n": 78,
      "o": 79,
      "p": 80,
      "q": 81,
      "r": 82,
      "s": 83,
      "t": 84,
      "u": 85,
      "v": 86,
      "w": 87,
      "x": 88,
      "y": 89,
      "z": 90,
      "{": 91,
      "|": 92,
      "}": 93,
      "~": 94,
      "¡": 95,
      "¢": 96,
      "£": 97,
      "¤": 98,
      "¥": 99,
      "¦": 100,
      "§": 101,
      "¨": 102,
      "©": 103,
      "ª": 104,
      "«": 105,
      "¬": 106,
      "®": 107,
      "¯": 108,
      "°": 109,
      "±": 110,
      "²": 111,
      "³": 112,
      "´": 113,
      "µ": 114,
      "¶": 115,
      "·": 116,
      "¸": 117,
      "¹": 118,
      "º": 119,
      "»": 120,
      "¼": 121,
      "½": 122,
      "¾": 123,
      "¿": 124,
      "À": 125,
      "Á": 126,
      "Â": 127,
      "Ã": 128,
      "Ä": 129,
      "Å": 130,
      "Æ": 131,
      "Ç": 132,
      "È": 133,
      "É": 134,
      "Ê": 135,
      "Ë": 136,
      "Ì": 137,
      "Í": 138,
      "Î": 139,
      "Ï": 140,
      "Ð": 141,
      "Ñ": 142,
      "Ò": 143,
      "Ó": 144,
      "Ô": 145,
      "Õ": 146,
      "Ö": 147,
      "×": 148,
      "Ø": 149,
      "Ù": 150,
      "Ú": 151,
      "Û": 152,
      "Ü": 153,
      "Ý": 154,
      "Þ": 155,
      "ß": 156,
      "à": 157,
      "á": 158,
      "â": 159,
      "ã": 160,
      "ä": 161,
      "å": 162,
      "æ": 163,
      "ç": 164,
      "è": 165,
      "é": 166,
      "ê": 167,
      "ë": 168,
      "ì": 169,
      "í": 170,
      "î": 171,
      "ï": 172,
      "ð": 173,
      "ñ": 174,
      "ò": 175,
      "ó": 176,
      "ô": 177,
      "õ": 178,
      "ö": 179,
      "÷": 180,
      "ø": 181,
      "ù": 182,
      "ú": 183,
      "û": 184,
      "ü": 185,
      "ý": 186,
      "þ": 187,
      "ÿ": 188,
      "Ā": 189,
      "ā": 190,
      "Ă": 191,
      "ă": 192,
      "Ą": 193,
      "ą": 194,
      "Ć": 195,
      "ć": 196,
      "Ĉ": 197,
      "ĉ": 198,
      "Ċ": 199,
      "ċ": 200,
      "Č": 201,
      "č": 202,
      "Ď": 203,
      "ď": 204,
      "Đ": 205,
      "đ": 206,
      "Ē": 207,
      "ē": 208,
      "Ĕ": 209,
      "ĕ": 210,
      "Ė": 211,
      "ė": 212,
      "Ę": 213,
      "ę": 214,
      "Ě": 215,
      "ě": 216,
      "Ĝ": 217,
      "ĝ": 218,
      "Ğ": 219,
      "ğ": 220,
      "Ġ": 221,
      "ġ": 222,
      "Ģ": 223,
      "ģ": 224,
      "Ĥ": 225,
      "ĥ": 226,
      "Ħ": 227,
      "ħ": 228,
      "Ĩ": 229,
      "ĩ": 230,
      "Ī": 231,
      "ī": 232,
      "Ĭ": 233,
      "ĭ": 234,
      "Į": 235,
      "į": 236,
      "İ": 237,
      "ı": 238,
      "Ĳ": 239,
      "ĳ": 240,
      "Ĵ": 241,
      "ĵ": 242,
      "Ķ": 243,
      "ķ": 244,
      "ĸ": 245,
      "Ĺ": 246,
      "ĺ": 247,
      "Ļ": 248,
      "ļ": 249,
      "Ľ": 250,
      "ľ": 251,
      "Ŀ": 252,
      "ŀ": 253,
      "Ł": 254,
      "ł": 255,
      "Ń": 256,
      "ï¼": 257,
      "ä¸": 258,
      "ï¼Į": 259,
      "çļ": 260,
      "çļĦ": 261,
      "äº": 262,
      "ä»": 263,
      "ãĢ": 264,
      "ãĢĤ": 265,
      "å¤": 266,
      "ä»ĸ": 267,
      "åı": 268,
      "æĺ": 269,
      "ä¸į": 270,
      "äºĨ": 271,
      "è¿": 272,
      "æĺ¯": 273,
      "æľ": 274,
      "ä¸Ģ": 275,
      "ä¹": 276,
      "å¥": 277,
      "æĪ": 278,
      "ä½": 279,
      "å®": 280,
      "å°": 281,
      "åĪ": 282,
      "æĿ": 283,
      "è¯": 284,
      "åŃ": 285,
      "èĢ": 286,
      "äºº": 287,
      "åľ": 288,
      "åĲ": 289,
      "å¾": 290,
      "ï¼ģ": 291,
      "æĪĳ": 292,
      "æľī": 293,
      "æī": 294,
      "çľ": 295,
      "çĿ": 296,
      "åħ": 297,
      "æĹ": 298,
      "âĢ": 299,
      "åĩ": 300,
      "æĿ¥": 301,
      "å¿": 302,
      "çĿĢ": 303,
      "åİ": 304,
      "åľ¨": 305,
      "ĥ½": 306,
      "çĶ": 307,
      "åŃĲ": 308,
      "ä¸ª": 309,
      "å¥¹": 310,
      "èµ": 311,
      "æ²": 312,
      "ä»¬": 313,
      "åĽ": 314,
      "è¿Ļ": 315,
      "ä¸Ĭ": 316,
      "åİ»": 317,
      "å·": 318,
      "ä¼": 319,
      "åı¯": 320,
      "æ²¡": 321,
      "æĬ": 322,
      "ç»": 323,
      "å¤§": 324,
      "å¾Ĺ": 325,
      "ä¹Ł": 326,
      "åĪ°": 327,
      "ä¹Ī": 328,
      "åĳ": 329,
      "åĨ": 330,
      "Ħ¿": 331,
      "éĩ": 332,
      "æĥ": 333,
      "å¹": 334,
      "è¯´": 335,
      "æĢ": 336,
      "èĩ": 337,
      "åĬ": 338,
      "èĢģ": 339,
      "çľĭ": 340,
      "åį": 341,
      "åĩº": 342,
      "å¥½": 343,
      "åĦ¿": 344,
      "éĤ": 345,
      "éĹ": 346,
      "å¼": 347,
      "èĢĮ": 348,
      "æķ": 349,
      "éĤ£": 350,
      "å°±": 351,
      "ï¼Ł": 352,
      "å®¶": 353,
      "è§": 354,
      "èĩª": 355,
      "å°ı": 356,
      "çĤ": 357,
      "éĥ½": 358,
      "ä½ł": 359,
      "æŃ": 360,
      "åĴ": 361,
      "ä¸Ń": 362,
      "è®": 363,
      "æĭ": 364,
      "æł": 365,
      "¦ģ": 366,
      "éĩĮ": 367,
      "ï¼Ľ": 368,
      "çĤ¹": 369,
      "è¦ģ": 370,
      "å¦": 371,
      "æĬĬ": 372,
      "æ°": 373,
      "è¿ĺ": 374,
      "æĥ³": 375,
      "å¤©": 376,
      "èĥ½": 377,
      "åı¯æĺ¯": 378,
      "å¿ĥ": 379,
      "çĪ": 380,
      "äºĭ": 381,
      "ï¼ģ\"": 382,
      "âĢĶ": 383,
      "ï¼ļ": 384,
      "çĶŁ": 385,
      "ä¸º": 386,
      "çļĦè": 387,
      "æĦ": 388,
      "éĴ": 389,
      "ä¸ĭ": 390,
      "è¿ĩ": 391,
      "æĸ": 392,
      "ä¼ļ": 393,
      "å¸": 394,
      "éĿ": 395,
      "ä»ĸä»¬": 396,
      "ä¸İ": 397,
      "åĵ": 398,
      "éģ": 399,
      "ä»¥": 400,
      "ä»Ģ": 401,
      "å¯": 402,
      "ä»Ģä¹Ī": 403,
      "å¤ļ": 404,
      "åıª": 405,
      "å·±": 406,
      "å¤ª": 407,
      "èĩªå·±": 408,
      "å¤´": 409,
      "èµ·": 410,
      "ç¥": 411,
      "è½": 412,
      "æľ¬": 413,
      "çŁ": 414,
      "éĴ±": 415,
      "è¡": 416,
      "åº": 417,
      "æ²¡æľī": 418,
      "åĮ": 419,
      "åĢ": 420,
      "æĹ¶": 421,
      "æĹ¥": 422,
      "å±": 423,
      "åĳ¢": 424,
      "å½": 425,
      "Ļ½": 426,
      "åĴĮ": 427,
      "çļĦç": 428,
      "èµ°": 429,
      "åıĪ": 430,
      "é¡": 431,
      "ä½ľ": 432,
      "çĳ": 433,
      "çĳŀ": 434,
      "ç»Ļ": 435,
      "æł·": 436,
      "ä¾": 437,
      "åĿ": 438,
      "è·": 439,
      "çĦ": 440,
      "å£": 441,
      "åħĪ": 442,
      "æ¯": 443,
      "éģĵ": 444,
      "éķ": 445,
      "çľ¼": 446,
      "ç¬": 447,
      "æĦı": 448,
      "çĦ¶": 449,
      "è±": 450,
      "çĽ": 451,
      "æ°Ķ": 452,
      "èĦ": 453,
      "æĶ": 454,
      "çī": 455,
      "âĢľ": 456,
      "âĢĿ": 457,
      "éķ¿": 458,
      "å¾Ī": 459,
      "äºĽ": 460,
      "è±¡": 461,
      "ä»ĸçļĦ": 462,
      "æ³": 463,
      "è¯Ŀ": 464,
      "æ´": 465,
      "éĻ": 466,
      "æīĭ": 467,
      "å¯¹": 468,
      "çŁ¥": 469,
      "ï¼ļ\"": 470,
      "æĻ": 471,
      "æīĵ": 472,
      "æĹ¥æľ¬": 473,
      "éĢ": 474,
      "è§ģ": 475,
      "åĸ": 476,
      "ä¾¿": 477,
      "è°": 478,
      "å£°": 479,
      "åĨį": 480,
      "ä¸ī": 481,
      "ä¸¤": 482,
      "ç®": 483,
      "æĮ": 484,
      "å¼Ģ": 485,
      "çİ": 486,
      "å·²": 487,
      "å½ĵ": 488,
      "çĻ½": 489,
      "èĭ": 490,
      "çĶ¨": 491,
      "åľ°": 492,
      "è¾": 493,
      "åĽŀ": 494,
      "ä¸Ģä¸ª": 495,
      "åģ": 496,
      "åĲİ": 497,
      "âĢĶâĢĶ": 498,
      "åĩł": 499,
      "åħĪçĶŁ": 500,
      "æŀ": 501,
      "äºĮ": 502,
      "éĹ¨": 503,
      "åī": 504,
      "æĢİ": 505,
      "æİ": 506,
      "åĽ½": 507,
      "æĺİ": 508,
      "äºĨä¸Ģ": 509,
      "åĪ«": 510,
      "ä½¿": 511,
      "æķĻ": 512,
      "èĤ": 513,
      "æģ": 514,
      "å®£": 515,
      "åĬ¨": 516,
      "ä¼¼": 517,
      "çº": 518,
      "è´": 519,
      "éĿ¢": 520,
      "èĥ": 521,
      "çĥ": 522,
      "å¹³": 523,
      "çĪ·": 524,
      "ä¿": 525,
      "çŁ¥éģĵ": 526,
      "æĽ": 527,
      "åĢĻ": 528,
      "éĺ": 529,
      "å®ļ": 530,
      "çŃ": 531,
      "éļ": 532,
      "ä¸ľ": 533,
      "èĬ": 534,
      "é«": 535,
      "ï¼Ł\"": 536,
      "æĹł": 537,
      "çĳŀå®£": 538,
      "é«ĺ": 539,
      "ä¸įèĥ½": 540,
      "è¢": 541,
      "åħ¨": 542,
      "åı£": 543,
      "åĽł": 544,
      "æĹ¥æľ¬äºº": 545,
      "ä½ı": 546,
      "åıĳ": 547,
      "çļĦäºº": 548,
      "èº": 549,
      "å¹´": 550,
      "æĹ¶åĢĻ": 551,
      "ãĢĤ\"": 552,
      "åĽĽ": 553,
      "ç§": 554,
      "æħ": 555,
      "æīĢ": 556,
      "èĢģäºº": 557,
      "è½¦": 558,
      "åĲ¬": 559,
      "å¿ħ": 560,
      "¥¿": 561,
      "å¦Ī": 562,
      "åĲĥ": 563,
      "æĪĲ": 564,
      "ä¸įæĺ¯": 565,
      "èį": 566,
      "ç¬ĳ": 567,
      "æŃ»": 568,
      "ç«": 569,
      "ç©": 570,
      "å¾Ģ": 571,
      "è§ī": 572,
      "æ±": 573,
      "æīį": 574,
      "åŃ¦": 575,
      "å¤ĸ": 576,
      "æ¸": 577,
      "å§": 578,
      "æ¬": 579,
      "çľŁ": 580,
      "åīį": 581,
      "èµ·æĿ¥": 582,
      "æ³ķ": 583,
      "åĲ§": 584,
      "åįģ": 585,
      "è¶": 586,
      "åĮĹ": 587,
      "å¿«": 588,
      "å°ĳ": 589,
      "æĻĵ": 590,
      "å¹¶": 591,
      "åĩºæĿ¥": 592,
      "æķ¢": 593,
      "é»": 594,
      "è¥¿": 595,
      "ç»ı": 596,
      "é¢": 597,
      "æĸ¹": 598,
      "é©": 599,
      "çģ": 600,
      "å¥³": 601,
      "éĹ®": 602,
      "åĬŀ": 603,
      "å¤ªå¤ª": 604,
      "é£": 605,
      "éĤ£ä¹Ī": 606,
      "ä¸ĢçĤ¹": 607,
      "åĲĮ": 608,
      "èº«": 609,
      "æĶ¾": 610,
      "ä¹Łä¸į": 611,
      "æī¾": 612,
      "è¿Ľ": 613,
      "äºİ": 614,
      "çĶ±": 615,
      "åķ": 616,
      "é¥": 617,
      "æľĢ": 618,
      "æĪĳä»¬": 619,
      "èĦ¸": 620,
      "å¤§å®¶": 621,
      "åĽłä¸º": 622,
      "æĭ¿": 623,
      "æ´»": 624,
      "æĥħ": 625,
      "æŃ£": 626,
      "æĽ´": 627,
      "åºĶ": 628,
      "æĢķ": 629,
      "çĭ": 630,
      "è®¸": 631,
      "å¤Ħ": 632,
      "è¢«": 633,
      "èĭ¥": 634,
      "å¹²": 635,
      "åĺ": 636,
      "ç´": 637,
      "åģĩ": 638,
      "çŃī": 639,
      "è¿Ļä¸ª": 640,
      "æµ": 641,
      "çİ°": 642,
      "éª": 643,
      "åı«": 644,
      "è¿Ļä¹Ī": 645,
      "é¡º": 646,
      "ç¾": 647,
      "æĳ": 648,
      "è°ģ": 649,
      "ä»İ": 650,
      "åĳĬ": 651,
      "çĪ±": 652,
      "åĬĽ": 653,
      "è§īå¾Ĺ": 654,
      "åħī": 655,
      "åıĹ": 656,
      "æħ¢": 657,
      "è¿ŀ": 658,
      "ä¼¼çļĦ": 659,
      "é¡»": 660,
      "å®Į": 661,
      "æı": 662,
      "ä¹İ": 663,
      "åĲĳ": 664,
      "ç¥¥": 665,
      "çĹ": 666,
      "åı¯ä»¥": 667,
      "é©¬": 668,
      "è·Ł": 669,
      "æį": 670,
      "å®ŀ": 671,
      "å±ĭ": 672,
      "å¸¸": 673,
      "æĪĸ": 674,
      "åĿĹ": 675,
      "éļ¾": 676,
      "å¥¹çļĦ": 677,
      "å¨": 678,
      "å¤«": 679,
      "å¿ĥä¸Ń": 680,
      "åĮĹå¹³": 681,
      "çļĦäºĭ": 682,
      "èī": 683,
      "å¼Ł": 684,
      "éĵ": 685,
      "ç²": 686,
      "çļĦæĹ¶åĢĻ": 687,
      "ä¸Ķ": 688,
      "åĪĨ": 689,
      "èĬ±": 690,
      "äº²": 691,
      "åįĬ": 692,
      "ä»ĸä¸į": 693,
      "æĭī": 694,
      "åĮħ": 695,
      "è¿ľ": 696,
      "ç¥¥åŃĲ": 697,
      "åĿĲ": 698,
      "ä¸»": 699,
      "è¾¹": 700,
      "æ·": 701,
      "è½»": 702,
      "è¡Į": 703,
      "è¿Ļæł·": 704,
      "çķ": 705,
      "ä¸°": 706,
      "ä¹°": 707,
      "èį·": 708,
      "æĦ¿": 709,
      "èĲ": 710,
      "å©": 711,
      "åĵª": 712,
      "éĽ": 713,
      "åĨł": 714,
      "ç®¡": 715,
      "éŁ": 716,
      "æĭĽ": 717,
      "ä¹ĭ": 718,
      "ä»»": 719,
      "æĻĵèį·": 720,
      "æĦŁ": 721,
      "çĳŀä¸°": 722,
      "æ¯Ķ": 723,
      "æĪĳçļĦ": 724,
      "çĲ": 725,
      "åŁ": 726,
      "åĴ±": 727,
      "æĸĩ": 728,
      "ç¬¬": 729,
      "ç¥ģ": 730,
      "å°±æĺ¯": 731,
      "æĿİ": 732,
      "ï¼ģâĢĿ": 733,
      "å®ī": 734,
      "åĢĴ": 735,
      "åĥ": 736,
      "éĺ³": 737,
      "ä¸ľè¥¿": 738,
      "åĪĩ": 739,
      "æĢİä¹Ī": 740,
      "åĺ´": 741,
      "éħ": 742,
      "å·²ç»ı": 743,
      "æ¸ħ": 744,
      "æ»": 745,
      "æ¢": 746,
      "èĻ": 747,
      "ç®Ĺ": 748,
      "èĩ³": 749,
      "ç§į": 750,
      "ç«ĭ": 751,
      "æ¥": 752,
      "èĻ½": 753,
      "çľĭè§ģ": 754,
      "çİ°åľ¨": 755,
      "å®ĥ": 756,
      "æ¡": 757,
      "åŃĻ": 758,
      "åĨ³": 759,
      "åĲĹ": 760,
      "åĴ±ä»¬": 761,
      "åĩºåİ»": 762,
      "ä½Ĩ": 763,
      "åıĭ": 764,
      "èĩªå·±çļĦ": 765,
      "ä¿¡": 766,
      "åĳ½": 767,
      "åĶ": 768,
      "éĶ": 769,
      "æľīçĤ¹": 770,
      "æŁ": 771,
      "æ¶": 772,
      "çĽ´": 773,
      "åħ³": 774,
      "åĥı": 775,
      "ç³": 776,
      "å¦Ĥ": 777,
      "ç¤": 778,
      "é¦": 779,
      "æľį": 780,
      "ä½İ": 781,
      "åıĺ": 782,
      "æŀģ": 783,
      "éĹ´": 784,
      "å¸¦": 785,
      "åı¥": 786,
      "âĢ¦": 787,
      "çĽ¸": 788,
      "ä¸ŃåĽ½": 789,
      "ç¢": 790,
      "è¶Ĭ": 791,
      "åĪ°äºĨ": 792,
      "èĲ½": 793,
      "çĪ¶": 794,
      "åĸľ": 795,
      "åģĩèĭ¥": 796,
      "åŁİ": 797,
      "åŃĹ": 798,
      "çļĦä¸Ģ": 799,
      "éĿŀ": 800,
      "ç¥ŀ": 801,
      "è¿ĺæĺ¯": 802,
      "çļĦèĦ": 803,
      "çĲĨ": 804,
      "å¦ĩ": 805,
      "ä½Ľ": 806,
      "åŃ©": 807,
      "ç´§": 808,
      "æīĢä»¥": 809,
      "è£": 810,
      "ç©º": 811,
      "æ£": 812,
      "æĢĿ": 813,
      "èħ": 814,
      "å¿½": 815,
      "è·ĳ": 816,
      "ç½": 817,
      "æ°´": 818,
      "æĸ°": 819,
      "èĤ¯": 820,
      "ä½į": 821,
      "éĻ¢": 822,
      "çº¢": 823,
      "è¯ī": 824,
      "èµ¤": 825,
      "å¼ł": 826,
      "èĢĮä¸Ķ": 827,
      "çĸ": 828,
      "æĺİçĻ½": 829,
      "é»ĳ": 830,
      "é¥Ń": 831,
      "éľ": 832,
      "äºĶ": 833,
      "åıį": 834,
      "æĤ": 835,
      "å±±": 836,
      "åĳĢ": 837,
      "æĲ": 838,
      "ä»Ĭ": 839,
      "æŃ¤": 840,
      "èĻ½çĦ¶": 841,
      "æļ": 842,
      "ç¼": 843,
      "é£İ": 844,
      "æĿ¡": 845,
      "ä½ķ": 846,
      "åįĸ": 847,
      "æĢİæł·": 848,
      "ä»¿": 849,
      "åĳĬè¯ī": 850,
      "çł": 851,
      "åĵ¥": 852,
      "èµ¤åĮħ": 853,
      "å¤§èµ¤åĮħ": 854,
      "å¦ŀ": 855,
      "ç¦": 856,
      "å¢": 857,
      "æľĽ": 858,
      "è¡Ĺ": 859,
      "çĥŃ": 860,
      "ä»¶": 861,
      "ä»¿ä½Ľ": 862,
      "éĤ£ä¸ª": 863,
      "ä¼ļåĦ¿": 864,
      "æĬ¥": 865,
      "æĢ»": 866,
      "å·¡": 867,
      "æĪ¿": 868,
      "åºĶå½ĵ": 869,
      "ä¸ĥ": 870,
      "èµ¶": 871,
      "éĩĳ": 872,
      "ä¸¤ä¸ª": 873,
      "ç¨": 874,
      "çļĦè¯Ŀ": 875,
      "æ°¸": 876,
      "åĨĻ": 877,
      "æĹ¢": 878,
      "åĸĿ": 879,
      "ä½Ĩæĺ¯": 880,
      "èģ": 881,
      "èĪ": 882,
      "æĺ¯ä¸ª": 883,
      "åľ°æĸ¹": 884,
      "è¡¨": 885,
      "ä¸įæķ¢": 886,
      "åĪļ": 887,
      "æľĪ": 888,
      "åħ´": 889,
      "ä¼¼ä¹İ": 890,
      "åĽĽçĪ·": 891,
      "äººçļĦ": 892,
      "å¿ĺ": 893,
      "å«": 894,
      "å¿Ļ": 895,
      "å·¥": 896,
      "åĽŀæĿ¥": 897,
      "å´": 898,
      "è·¯": 899,
      "åŃ©åŃĲ": 900,
      "é¼": 901,
      "éĹ¹": 902,
      "è®º": 903,
      "èĢģäºĮ": 904,
      "çħ": 905,
      "æĹ©": 906,
      "å²": 907,
      "éĴ±åħĪçĶŁ": 908,
      "ç»ĵ": 909,
      "ä¸įä¼ļ": 910,
      "çľĭçĿĢ": 911,
      "ä»¥ä¸º": 912,
      "éļı": 913,
      "æ¬¡": 914,
      "èĮ": 915,
      "çĮ": 916,
      "åł": 917,
      "æ¯ı": 918,
      "å©Ĩ": 919,
      "ä¸ĢäºĽ": 920,
      "å¿½çĦ¶": 921,
      "åĤ": 922,
      "å®ĺ": 923,
      "äº®": 924,
      "æĢ¥": 925,
      "åºķ": 926,
      "å¤ļå°ĳ": 927,
      "éħĴ": 928,
      "è®¤": 929,
      "æĪĺ": 930,
      "ç¾İ": 931,
      "ä½ĵ": 932,
      "äº¤": 933,
      "ä¹±": 934,
      "ç¡": 935,
      "ä»ĸæĺ¯": 936,
      "çī¹": 937,
      "æ±Ĥ": 938,
      "æ»¡": 939,
      "æ°¸è¿ľ": 940,
      "æľĭ": 941,
      "æŃ¥": 942,
      "æ¬¢": 943,
      "åĵŃ": 944,
      "ä¸ľéĺ³": 945,
      "çļĦå°ı": 946,
      "é©¬ä¸Ĭ": 947,
      "éŁ³": 948,
      "æľĭåıĭ": 949,
      "å´Ķ": 950,
      "å®¢": 951,
      "éĥ½æĺ¯": 952,
      "æĶ¶": 953,
      "åķ¦": 954,
      "åľº": 955,
      "ç©¿": 956,
      "èĦļ": 957,
      "å¾®": 958,
      "ä»Ĭå¤©": 959,
      "åĨĽ": 960,
      "ç»Ĩ": 961,
      "èī²": 962,
      "å¥½è±¡": 963,
      "å°Ĩ": 964,
      "è®¸å¤ļ": 965,
      "å°ıå´Ķ": 966,
      "å¿ĥéĩĮ": 967,
      "åĬŀæ³ķ": 968,
      "å¤±": 969,
      "åħ¬": 970,
      "çª": 971,
      "ä¹¦": 972,
      "åıªæľī": 973,
      "ä¸ĬçļĦ": 974,
      "çī©": 975,
      "æĭĽå¼Ł": 976,
      "éĶĻ": 977,
      "ï¼ŁâĢĿ": 978,
      "èĢħ": 979,
      "æĥ³åĪ°": 980,
      "å®¹": 981,
      "çľĭçľĭ": 982,
      "éĢģ": 983,
      "ä¸ĸ": 984,
      "è¯¥": 985,
      "æľº": 986,
      "éĤ£äºĽ": 987,
      "ç¿": 988,
      "çİ©": 989,
      "å¦Īå¦Ī": 990,
      "åľ¨è¿Ļ": 991,
      "çļĦè¯´": 992,
      "ä¸įè¿ĩ": 993,
      "åĩĨ": 994,
      "éĩį": 995,
      "åĲĪ": 996,
      "çĹħ": 997,
      "è¡£": 998,
      "å§ĭ": 999,
      "æ¢ħ": 1000,
      "è¦ģæĺ¯": 1001,
      "å°½": 1002,
      "åį³": 1003,
      "æ³ª": 1004,
      "æĻĵå¾Ĺ": 1005,
      "çĥŁ": 1006,
      "å¹¶ä¸į": 1007,
      "èı": 1008,
      "åı·": 1009,
      "æĴ": 1010,
      "è¿ĺæľī": 1011,
      "å¸®": 1012,
      "æ´ĭ": 1013,
      "æľīäºĨ": 1014,
      "ä»ĸæĥ³": 1015,
      "è¯·": 1016,
      "è¿Ļæĺ¯": 1017,
      "åĲį": 1018,
      "èĥ¡": 1019,
      "ï¼Į\"": 1020,
      "éĿĻ": 1021,
      "æ¶Ī": 1022,
      "çļĦæĺ¯": 1023,
      "¨Ģ": 1024,
      "æ¦": 1025,
      "åħµ": 1026,
      "é¸": 1027,
      "æł¡": 1028,
      "æħ¢æħ¢": 1029,
      "Ń¦": 1030,
      "æĮĩ": 1031,
      "æİ¥": 1032,
      "å¼º": 1033,
      "çģ«": 1034,
      "çĶ·": 1035,
      "åĪ«äºº": 1036,
      "æĦ¿æĦı": 1037,
      "è¿ĩåİ»": 1038,
      "è°Ī": 1039,
      "çŃĶ": 1040,
      "çļĦèĦ¸": 1041,
      "ä»ĸä¹Ł": 1042,
      "è®°": 1043,
      "åŃ¦çĶŁ": 1044,
      "æĿĢ": 1045,
      "åħ«": 1046,
      "éĿĴ": 1047,
      "å¨ĺ": 1048,
      "ä¸įåĩº": 1049,
      "åĨ³å®ļ": 1050,
      "çħ§": 1051,
      "èŃ¦": 1052,
      "åĨ·": 1053,
      "éķ¿é¡º": 1054,
      "åĬł": 1055,
      "åįķ": 1056,
      "å¼Ħ": 1057,
      "çĹĽ": 1058,
      "ä»ĸä¸Ģ": 1059,
      "äººå®¶": 1060,
      "åĹ": 1061,
      "ä¸ĭåİ»": 1062,
      "å·®": 1063,
      "è®²": 1064,
      "æł¹": 1065,
      "å»": 1066,
      "ä¸ĬäºĨ": 1067,
      "è½¬": 1068,
      "æ¯Ľ": 1069,
      "ï¼ļâĢľ": 1070,
      "æĪĳä¸į": 1071,
      "å¿ħé¡»": 1072,
      "è¯Ń": 1073,
      "èĮ¶": 1074,
      "ç»Ŀ": 1075,
      "çĿ¡": 1076,
      "èĭ¦": 1077,
      "æģ¯": 1078,
      "ç¥ģèĢģäºº": 1079,
      "è¿Ļä¸Ģ": 1080,
      "å¤§çļĦ": 1081,
      "ä½łä»¬": 1082,
      "èĭ±": 1083,
      "é»Ħ": 1084,
      "åĩłä¸ª": 1085,
      "é«ĺç¬¬": 1086,
      "å¿ĺäºĨ": 1087,
      "æģ¨": 1088,
      "æıĲ": 1089,
      "çł´": 1090,
      "è¯Ĩ": 1091,
      "è¨Ģ": 1092,
      "ä¸ģ": 1093,
      "ä¸ĩ": 1094,
      "è¿ĺä¸į": 1095,
      "çļĦè¡": 1096,
      "æĺĵ": 1097,
      "è¿ĩæĿ¥": 1098,
      "ç¤º": 1099,
      "èĵ": 1100,
      "ä½ıäºĨ": 1101,
      "éĵº": 1102,
      "ä¸ĢåĪĩ": 1103,
      "å®³": 1104,
      "åİŁ": 1105,
      "çİĭ": 1106,
      "ä¹Łè®¸": 1107,
      "èĻİ": 1108,
      "æ®": 1109,
      "å°ıé¡º": 1110,
      "å¸Į": 1111,
      "ãĢĤâĢĿ": 1112,
      "æķħ": 1113,
      "çĪ¸": 1114,
      "åĪ«çļĦ": 1115,
      "çŀ": 1116,
      "åĭ": 1117,
      "æ¼": 1118,
      "æ¦Ĥ": 1119,
      "åĮĸ": 1120,
      "ä¿©": 1121,
      "åħ¥": 1122,
      "æŀª": 1123,
      "æµ·": 1124,
      "ç¦»": 1125,
      "åĪĺ": 1126,
      "æĶ¹": 1127,
      "ä»ĸåıĪ": 1128,
      "è¿ĻäºĽ": 1129,
      "æłĳ": 1130,
      "æ°ĳ": 1131,
      "è¶³": 1132,
      "ä¸Ģå¤©": 1133,
      "çľ¼çĿ": 1134,
      "èĦ¸ä¸Ĭ": 1135,
      "å¸ĮæľĽ": 1136,
      "éĩı": 1137,
      "ä¿Ŀ": 1138,
      "å°ıé¡ºåĦ¿": 1139,
      "çļ®": 1140,
      "æĩ": 1141,
      "ä¹Łæ²¡": 1142,
      "éŁµ": 1143,
      "âĢ¦âĢ¦": 1144,
      "èĬĤ": 1145,
      "æĿİåĽĽçĪ·": 1146,
      "ä¸Ģå®ļ": 1147,
      "çīĩ": 1148,
      "åħ¶": 1149,
      "æĻļ": 1150,
      "åģ·": 1151,
      "åį³ä½¿": 1152,
      "éŁµæ¢ħ": 1153,
      "ä»ĸèĩªå·±": 1154,
      "å£°éŁ³": 1155,
      "åĸľæ¬¢": 1156,
      "æī¯": 1157,
      "å¤§æ¦Ĥ": 1158,
      "çľ¼çĿĽ": 1159,
      "ä¸Ī": 1160,
      "è¿ĳ": 1161,
      "åĪ©": 1162,
      "ä¼¯": 1163,
      "çŁ³": 1164,
      "æĦıæĢĿ": 1165,
      "æĿ¥çļĦ": 1166,
      "éĤ£æł·": 1167,
      "åĸĦ": 1168,
      "åĳ³": 1169,
      "èĢģä¸ī": 1170,
      "èĢĮåĲİ": 1171,
      "éģĩ": 1172,
      "ä¸įèĤ¯": 1173,
      "éĩİ": 1174,
      "èīº": 1175,
      "å²ģ": 1176,
      "éĹŃ": 1177,
      "åıªè¦ģ": 1178,
      "æĳ¸": 1179,
      "é¬": 1180,
      "æĪı": 1181,
      "æ¯į": 1182,
      "åıĺæĪĲ": 1183,
      "ä»ĸå°±": 1184,
      "å¥¹ä»¬": 1185,
      "åĸĬ": 1186,
      "æ·±": 1187,
      "æ¥ŀ": 1188,
      "çĻ": 1189,
      "å¾ĹåĪ°": 1190,
      "ä¸»æĦı": 1191,
      "äº¡": 1192,
      "è®¡": 1193,
      "ä»ĸä»¬çļĦ": 1194,
      "æĦŁåĪ°": 1195,
      "å¤Ł": 1196,
      "åĵį": 1197,
      "è£ħ": 1198,
      "é¬¼": 1199,
      "éªĤ": 1200,
      "è¯Ĺ": 1201,
      "åŃĲçļĦ": 1202,
      "åĪ°åºķ": 1203,
      "ä¸įåĪ°": 1204,
      "é«ĺåħ´": 1205,
      "å¢Ļ": 1206,
      "èĵĿ": 1207,
      "å§Ĳ": 1208,
      "å¤ĩ": 1209,
      "å½±": 1210,
      "ä»ĸè§īå¾Ĺ": 1211,
      "åĩłä¹İ": 1212,
      "åįĹ": 1213,
      "è§£": 1214,
      "ç®Ģ": 1215,
      "åħŃ": 1216,
      "ä»ĸçļĦè": 1217,
      "éŀ": 1218,
      "ä½ĳ": 1219,
      "ä¹ħ": 1220,
      "åľĪ": 1221,
      "å±Ģ": 1222,
      "å®Įåħ¨": 1223,
      "æ²¡æ³ķ": 1224,
      "å¾Ĺå¾Ī": 1225,
      "ç²¾": 1226,
      "ç³»": 1227,
      "ä»£": 1228,
      "æĺ¾": 1229,
      "ä¸ĢåĿĹ": 1230,
      "çº¸": 1231,
      "æļĹ": 1232,
      "å¸ĥ": 1233,
      "å«Ĥ": 1234,
      "ä¸įå¾Ĺ": 1235,
      "æķ´": 1236,
      "åįĬå¤©": 1237,
      "ä¸įäºĨ": 1238,
      "å¥½çļĦ": 1239,
      "åª": 1240,
      "ä»ĸåıª": 1241,
      "ä¸Ģè¾¹": 1242,
      "æĢª": 1243,
      "èĩªçĦ¶": 1244,
      "äºĭæĥħ": 1245,
      "è·³": 1246,
      "åĵ¼": 1247,
      "çº¦": 1248,
      "çķĮ": 1249,
      "å±ĭéĩĮ": 1250,
      "éĿŀå¸¸": 1251,
      "å¤©ä½ĳ": 1252,
      "é¦Ļ": 1253,
      "çķĻ": 1254,
      "æħ¢æħ¢çļĦ": 1255,
      "å¤ľ": 1256,
      "åı°": 1257,
      "é¡¾": 1258,
      "åŃĻä¸ĥ": 1259,
      "ä¸įå¥½": 1260,
      "éĹ²": 1261,
      "èĢĮæĺ¯": 1262,
      "èĬ³": 1263,
      "ç»Ļä»ĸ": 1264,
      "èĥĸ": 1265,
      "ä¸įå¤§": 1266,
      "é¡¶": 1267,
      "æĵ": 1268,
      "ĲèĬ³": 1269,
      "çļĦåľ°æĸ¹": 1270,
      "å¼ĢäºĨ": 1271,
      "å¼Ģå§ĭ": 1272,
      "æ¡ĲèĬ³": 1273,
      "å¥¶": 1274,
      "æľīæĹ¶åĢĻ": 1275,
      "ä¸ŃçļĦ": 1276,
      "ä»»ä½ķ": 1277,
      "éľ²": 1278,
      "çı": 1279,
      "ä¸Ģæł·": 1280,
      "ä½¿ä»ĸ": 1281,
      "å¿ħå®ļ": 1282,
      "å©ļ": 1283,
      "å·´": 1284,
      "æķ°": 1285,
      "èĩ³äºİ": 1286,
      "æĿ¥äºĨ": 1287,
      "å±ħ": 1288,
      "éĥ": 1289,
      "åľŁ": 1290,
      "ä¼Ļ": 1291,
      "ä¸ŃåĽ½äºº": 1292,
      "ä¸įç®¡": 1293,
      "åĨįè¯´": 1294,
      "ä¸Ģä¼ļåĦ¿": 1295,
      "æģ¶": 1296,
      "åķĬ": 1297,
      "éĵģ": 1298,
      "ä¸įèµ·": 1299,
      "åĬ²": 1300,
      "çĳŀåħ¨": 1301,
      "åĦ¿åŃĲ": 1302,
      "çīĮ": 1303,
      "æŀľ": 1304,
      "èĤī": 1305,
      "äºī": 1306,
      "æķĮ": 1307,
      "åĿı": 1308,
      "èĥĮ": 1309,
      "æľīä»Ģä¹Ī": 1310,
      "é¢Ĩ": 1311,
      "çĪ¶äº²": 1312,
      "éĩĳä¸ī": 1313,
      "ç±": 1314,
      "ä¸ºä»Ģä¹Ī": 1315,
      "éĻ¤": 1316,
      "å·¡éķ¿": 1317,
      "å»ī": 1318,
      "äººä»¬": 1319,
      "ç»¿": 1320,
      "ä¹Łæĺ¯": 1321,
      "å¹¶æ²¡": 1322,
      "è¿Ĳ": 1323,
      "çĭĹ": 1324,
      "ç¡¬": 1325,
      "åħ³ç³»": 1326,
      "¢äºĨ": 1327,
      "éĨ": 1328,
      "ä¹Łå°±": 1329,
      "èĢģåħĪçĶŁ": 1330,
      "åĩºäºĨ": 1331,
      "æ±Ĺ": 1332,
      "åı¦": 1333,
      "æĹ§": 1334,
      "å®¶çļĦ": 1335,
      "è®¨": 1336,
      "è¿ĺæ²¡": 1337,
      "ç¥ĸ": 1338,
      "ç£": 1339,
      "æ¥ļ": 1340,
      "ä¸Ģä¸ĭ": 1341,
      "æľīä¸ª": 1342,
      "çīĽ": 1343,
      "çľŁçļĦ": 1344,
      "å¤§åĵ¥": 1345,
      "ä¸ĭæĿ¥": 1346,
      "çľĭåĪ°": 1347,
      "èĢĮåıª": 1348,
      "çīĻ": 1349,
      "ä¹Ĳ": 1350,
      "æľīä¸Ģ": 1351,
      "æĽ¿": 1352,
      "ä¸Ģå£°": 1353,
      "é½": 1354,
      "æĬĹ": 1355,
      "å¥½äºĨ": 1356,
      "çĶļ": 1357,
      "è®©": 1358,
      "èº«ä¸Ĭ": 1359,
      "ä»ĸçŁ¥éģĵ": 1360,
      "åĳĨ": 1361,
      "é¼»": 1362,
      "º«": 1363,
      "æ¨": 1364,
      "æľ¨": 1365,
      "è¡Ģ": 1366,
      "å¾ħ": 1367,
      "æĪĳæĺ¯": 1368,
      "è¯´è¯Ŀ": 1369,
      "å·¡èŃ¦": 1370,
      "ä¸ĸçķĮ": 1371,
      "å¤ı": 1372,
      "åĨłæĻĵèį·": 1373,
      "çĬ": 1374,
      "å¸¦çĿĢ": 1375,
      "ä¹ī": 1376,
      "æŃ¦": 1377,
      "è´¹": 1378,
      "ç«Ļ": 1379,
      "ä»ĸæĬĬ": 1380,
      "éĴŁ": 1381,
      "éĺµ": 1382,
      "ä¸Īå¤«": 1383,
      "çĶµ": 1384,
      "æĬĵ": 1385,
      "çľĭäºĨ": 1386,
      "å¸Ī": 1387,
      "ä»¥åĲİ": 1388,
      "é£Ł": 1389,
      "è¿ĽæĿ¥": 1390,
      "åĨłåħĪçĶŁ": 1391,
      "æľīäºĽ": 1392,
      "çļĦç¬": 1393,
      "éĢļ": 1394,
      "èĥľ": 1395,
      "æ±ī": 1396,
      "æ¸ħæ¥ļ": 1397,
      "åĲĦ": 1398,
      "åĩĢ": 1399,
      "åĳ¼": 1400,
      "è¯´äºĨ": 1401,
      "è§Ĵ": 1402,
      "çĺ": 1403,
      "ä¸įè¦ģ": 1404,
      "åĩī": 1405,
      "è¿Ľåİ»": 1406,
      "éĻ©": 1407,
      "é£ŀ": 1408,
      "ç³Ĭ": 1409,
      "è¡¨ç¤º": 1410,
      "æĺ¯ä¸Ģ": 1411,
      "å¿µ": 1412,
      "çĶ»": 1413,
      "æĥ³èµ·": 1414,
      "æĸŃ": 1415,
      "æĶ¾åľ¨": 1416,
      "é½Ĳ": 1417,
      "ä½łçļĦ": 1418,
      "è¢ĭ": 1419,
      "ãĢĤâĢľ": 1420,
      "åģľ": 1421,
      "çľĭè§ģäºĨ": 1422,
      "æľīçļĦ": 1423,
      "å¿į": 1424,
      "æĮ£": 1425,
      "åª³": 1426,
      "ä¸įå¤ļ": 1427,
      "çĿĢä¸Ģ": 1428,
      "çĻ½å·¡éķ¿": 1429,
      "ç½ª": 1430,
      "å®¹æĺĵ": 1431,
      "ä¸¥": 1432,
      "è®¾": 1433,
      "ç¤¼": 1434,
      "éĩĳä¸īçĪ·": 1435,
      "æº": 1436,
      "å°¤": 1437,
      "çĵ": 1438,
      "æĳĨ": 1439,
      "åĿĲåľ¨": 1440,
      "åħ»": 1441,
      "çļĦå¤§": 1442,
      "ä¸įåĨį": 1443,
      "æ³¨": 1444,
      "å¦ŀåŃĲ": 1445,
      "æľīäºº": 1446,
      "åº¦": 1447,
      "åĲ¬åĪ°": 1448,
      "ä¸įçŁ¥": 1449,
      "ä¹Łæ²¡æľī": 1450,
      "èĦĳ": 1451,
      "æ´¾": 1452,
      "æİī": 1453,
      "é¢ĺ": 1454,
      "å±ĭä¸Ń": 1455,
      "ç¢°": 1456,
      "é¥¿": 1457,
      "ä¸įåı¯": 1458,
      "åĨħ": 1459,
      "åĬ¡": 1460,
      "æĿ¿": 1461,
      "åĲ¸": 1462,
      "ä¼¤": 1463,
      "èµ°äºĨ": 1464,
      "åľ°ä¸Ĭ": 1465,
      "æģĲ": 1466,
      "é»ĺ": 1467,
      "æį¢": 1468,
      "éº": 1469,
      "åİ»äºĨ": 1470,
      "æ´Ĺ": 1471,
      "æ··": 1472,
      "åŃĲéĩĮ": 1473,
      "éĻĪ": 1474,
      "çĥ§": 1475,
      "åı£æ°Ķ": 1476,
      "åįģåĪĨ": 1477,
      "çļĦä¸ľè¥¿": 1478,
      "ä¸įä¸Ĭ": 1479,
      "æĹģ": 1480,
      "è¿ĻéĩĮ": 1481,
      "çĤ¹å¤´": 1482,
      "æł·åŃĲ": 1483,
      "æĳĩ": 1484,
      "ç²®": 1485,
      "å®¶éĩĮ": 1486,
      "æĢĴ": 1487,
      "æķ£": 1488,
      "éĤ£éĩĮ": 1489,
      "çļĦèĥ": 1490,
      "éĢĥ": 1491,
      "ä¾¿æĺ¯": 1492,
      "æĹłè®º": 1493,
      "åĲĮæĹ¶": 1494,
      "è·ŁçĿĢ": 1495,
      "èĭ±åĽ½": 1496,
      "ä»¤": 1497,
      "åıĬ": 1498,
      "å¦Ļ": 1499,
      "æ¶Īæģ¯": 1500,
      "åĩŃ": 1501,
      "åįĥ": 1502,
      "è§ģäºĨ": 1503,
      "å¥³åĦ¿": 1504,
      "æĢ§": 1505,
      "å¿«çļĦ": 1506,
      "ä»ĸæ²¡": 1507,
      "æĬ¬": 1508,
      "èĢģå¤ªå¤ª": 1509,
      "åıªæĺ¯": 1510,
      "å±Ī": 1511,
      "å£«": 1512,
      "ç¦ı": 1513,
      "èıĬ": 1514,
      "èħ¿": 1515,
      "ç¡®": 1516,
      "ä¸ļ": 1517,
      "ä»·": 1518,
      "ä¸Ģçľ¼": 1519,
      "äºĨä¸Ģä¸ĭ": 1520,
      "å¹¶æ²¡æľī": 1521,
      "è½»è½»": 1522,
      "ªçĿĢ": 1523,
      "ä»ĸä¸įèĥ½": 1524,
      "æİĮ": 1525,
      "æµģ": 1526,
      "ç¾¤": 1527,
      "\"ï¼Į": 1528,
      "åŃ¦æł¡": 1529,
      "çģ¯": 1530,
      "æł¼": 1531,
      "å¯Į": 1532,
      "çŃīçĿĢ": 1533,
      "ä¸»ä»»": 1534,
      "åıªå¥½": 1535,
      "ç»ĻæĪĳ": 1536,
      "çĦ¶åĲİ": 1537,
      "åŃĻåŃĲ": 1538,
      "è¿·": 1539,
      "è¿ĻçĤ¹": 1540,
      "ä¸ĭäºĨ": 1541,
      "åĽŀçŃĶ": 1542,
      "å¹³æĹ¥": 1543,
      "çĭ±": 1544,
      "åĨłå®¶": 1545,
      "èĽ": 1546,
      "åĬŁ": 1547,
      "çļĦè½": 1548,
      "åºĬ": 1549,
      "çĻ¾": 1550,
      "ä¸įçĿĢ": 1551,
      "å¤ļä¹Ī": 1552,
      "ä¸īä¸ª": 1553,
      "è´£": 1554,
      "èĢ³": 1555,
      "ä¹Łå¾Ĺ": 1556,
      "è¿ĩäºĨ": 1557,
      "é¢Ħ": 1558,
      "åłĤ": 1559,
      "çļĦç¬ĳ": 1560,
      "æ³¨æĦı": 1561,
      "åĻ": 1562,
      "åİĮ": 1563,
      "æ²¹": 1564,
      "å®¶ä¸Ń": 1565,
      "è°ĥ": 1566,
      "å£°çļĦ": 1567,
      "åĽŀäºĭ": 1568,
      "çģ°": 1569,
      "æĺ¯åľ¨": 1570,
      "æĿ¾": 1571,
      "èĥĨ": 1572,
      "è¡Ĺä¸Ĭ": 1573,
      "çļĦæīĭ": 1574,
      "è¯´ä»Ģä¹Ī": 1575,
      "æĮĤ": 1576,
      "åĽłæŃ¤": 1577,
      "ä»ĸä¾¿": 1578,
      "åĪº": 1579,
      "åį´": 1580,
      "ä¸Ģä¸ªäºº": 1581,
      "éĹ¨å¤ĸ": 1582,
      "å®ĥä»¬": 1583,
      "ç¿°": 1584,
      "èĻİå¦ŀ": 1585,
      "çº¦ç¿°": 1586,
      "ä¸įä½ı": 1587,
      "åĪĢ": 1588,
      "ä¼ł": 1589,
      "éĥ½ä¸į": 1590,
      "çĶŁæ´»": 1591,
      "åĢ¼": 1592,
      "å½¢": 1593,
      "æŀ¶": 1594,
      "ï¼ĮâĢľ": 1595,
      "åĪ»": 1596,
      "æĮ¨": 1597,
      "éªĮ": 1598,
      "ä»ĸè¿ĺ": 1599,
      "äºĨä¸ª": 1600,
      "çľī": 1601,
      "è§Ħ": 1602,
      "åĴ¬": 1603,
      "é¼ĵ": 1604,
      "æľºä¼ļ": 1605,
      "æĵ¦": 1606,
      "çıł": 1607,
      "åıĮ": 1608,
      "çĿĢå¤´": 1609,
      "æ¯«": 1610,
      "åĵªåĦ¿": 1611,
      "ç¥ĸçĪ¶": 1612,
      "ç¬¬äºĮ": 1613,
      "èıľ": 1614,
      "å¤į": 1615,
      "åĬĿ": 1616,
      "èĢģå¤´": 1617,
      "äºĭå®ŀ": 1618,
      "çļĦèº«": 1619,
      "èįī": 1620,
      "èĢ»": 1621,
      "è¿Ļç§į": 1622,
      "å¤§å«Ĥ": 1623,
      "èį¯": 1624,
      "ç¢Ĺ": 1625,
      "éĢł": 1626,
      "éļıä¾¿": 1627,
      "éŀĭ": 1628,
      "éĿŀå¸¸çļĦ": 1629,
      "äºĨä¸¤": 1630,
      "æĪĳå°±": 1631,
      "å¾Ģå¤ĸ": 1632,
      "æ´»çĿĢ": 1633,
      "çĹĽå¿«": 1634,
      "çļĦçľ¼": 1635,
      "å¥ĩ": 1636,
      "åĪ¶": 1637,
      "åľ¨ä¸Ģ": 1638,
      "æ²ī": 1639,
      "æĥĬ": 1640,
      "åĿĹéĴ±": 1641,
      "éĻ¢ä¸Ń": 1642,
      "çĨ": 1643,
      "ãĢģ": 1644,
      "ä¸įçŁ¥éģĵ": 1645,
      "æķ¬": 1646,
      "åĵĪ": 1647,
      "éº»": 1648,
      "¯äºĨ": 1649,
      "å¥¸": 1650,
      "åĽŃ": 1651,
      "çļĦè´": 1652,
      "çŁŃ": 1653,
      "ç§ĳ": 1654,
      "é¢¤": 1655,
      "éĹ®é¢ĺ": 1656,
      "çĭ¬": 1657,
      "çĽ¸å½ĵ": 1658,
      "æĺİçĻ½äºĨ": 1659,
      "ä»ĩ": 1660,
      "æĻ¯": 1661,
      "æħ°": 1662,
      "èµ¶ç´§": 1663,
      "éĿĴå¹´": 1664,
      "éĻ¤äºĨ": 1665,
      "éĨĴ": 1666,
      "âĳ": 1667,
      "åı¶": 1668,
      "æĺ¥": 1669,
      "å§ĳ": 1670,
      "ç´¢": 1671,
      "ç©ºå±±": 1672,
      "æĩĤ": 1673,
      "éĥ¨": 1674,
      "åª³å¦ĩ": 1675,
      "æĪ·": 1676,
      "åĬ©": 1677,
      "å¥½åĥı": 1678,
      "æŁľ": 1679,
      "äº¦": 1680,
      "ä¸įéĶĻ": 1681,
      "å¿ĥçļĦ": 1682,
      "æħĮ": 1683,
      "æīįèĥ½": 1684,
      "å¤«å¦ĩ": 1685,
      "æ¢¦": 1686,
      "æĲ¬": 1687,
      "å·¦": 1688,
      "æķĳ": 1689,
      "åºľ": 1690,
      "å½ĵçĦ¶": 1691,
      "æĽ¹": 1692,
      "è®¤è¯Ĩ": 1693,
      "çĪ·çĪ·": 1694,
      "ç¬ĳäºĨ": 1695,
      "äº§": 1696,
      "çĽ®": 1697,
      "éļ¾è¿ĩ": 1698,
      "å¦Ĥä½ķ": 1699,
      "çĸĳ": 1700,
      "éļıçĿĢ": 1701,
      "é¸¡": 1702,
      "\"ãĢĤ": 1703,
      "éĻĢ": 1704,
      "æĮº": 1705,
      "æŁ³": 1706,
      "å®¢æ°Ķ": 1707,
      "èĹ": 1708,
      "åı¹": 1709,
      "å¤´ä¸Ĭ": 1710,
      "æ·¡": 1711,
      "é¦Ĩ": 1712,
      "èĥ¡åĲĮ": 1713,
      "æ¿": 1714,
      "ä»½": 1715,
      "ä»ĸä»¥ä¸º": 1716,
      "æĺ¯éĤ£ä¹Ī": 1717,
      "åĲµ": 1718,
      "åľ¨ä»ĸ": 1719,
      "è¯´å®Į": 1720,
      "æĦıçļĦ": 1721,
      "åı¥è¯Ŀ": 1722,
      "èıĬåŃĲ": 1723,
      "ä¸ĵ": 1724,
      "æĺ¯çļĦ": 1725,
      "ç»Ī": 1726,
      "åº§": 1727,
      "æ¯Ĵ": 1728,
      "èĤ¡": 1729,
      "åķĨ": 1730,
      "æ¿Ģ": 1731,
      "è¹": 1732,
      "èĩŃ": 1733,
      "è®®": 1734,
      "åĬ²åĦ¿": 1735,
      "è§Ĥ": 1736,
      "æ¸Ĳ": 1737,
      "çªĿ": 1738,
      "éĩİæ±Ĥ": 1739,
      "å¥¹ä¸į": 1740,
      "çĤ¹äºĨ": 1741,
      "ä»¥åīį": 1742,
      "çŁ©": 1743,
      "å¹²ä»Ģä¹Ī": 1744,
      "åĶ±": 1745,
      "çĽ¸ä¿¡": 1746,
      "æĿĲ": 1747,
      "æĬ±": 1748,
      "åĨµ": 1749,
      "åį±": 1750,
      "æĪĲäºĨ": 1751,
      "æĬ¢": 1752,
      "ç¬Ķ": 1753,
      "è¾Ĩ": 1754,
      "éĺŁ": 1755,
      "æĸ¹éĿ¢": 1756,
      "æĪĸèĢħ": 1757,
      "éĽ¨": 1758,
      "ç¥ģå®¶": 1759,
      "æ¡Į": 1760,
      "å·¥å¤«": 1761,
      "äº¦éĻĢ": 1762,
      "åı³": 1763,
      "çļĦçī": 1764,
      "èĤļ": 1765,
      "æŃ»äºĨ": 1766,
      "å·¥ä½ľ": 1767,
      "çī¹åĪ«": 1768,
      "ĸåŃĲ": 1769,
      "æľª": 1770,
      "æĭ¾": 1771,
      "ï¼ģ\"\"": 1772,
      "çļĦç¡": 1773,
      "ç»ĻäºĨ": 1774,
      "éĢĢ": 1775,
      "åĽŀå®¶": 1776,
      "å¥³äºº": 1777,
      "éª¨": 1778,
      "çĺ¦": 1779,
      "åĪĿ": 1780,
      "æĪĳæ²¡": 1781,
      "æĪĳä¹Ł": 1782,
      "æĿ¥åĪ°": 1783,
      "å¥¹æĺ¯": 1784,
      "äºĨä¸Ģä¼ļåĦ¿": 1785,
      "ç«ĭèµ·æĿ¥": 1786,
      "å·®ä¸įå¤ļ": 1787,
      "ç®ĢçĽ´": 1788,
      "èİ": 1789,
      "ä¸Ģç§į": 1790,
      "å¾·": 1791,
      "æ²Ļ": 1792,
      "é¡¿": 1793,
      "æĶ¿": 1794,
      "è¾Ī": 1795,
      "ä½¿äºº": 1796,
      "å¨ģ": 1797,
      "äºĳ": 1798,
      "ä¸įçĶ¨": 1799,
      "å®ħ": 1800,
      "çľģ": 1801,
      "åįİ": 1802,
      "æĮī": 1803,
      "å¤§å®¶éĥ½": 1804,
      "å¨ĥ": 1805,
      "èģĮ": 1806,
      "åıĸ": 1807,
      "è¯»": 1808,
      "å¤ļäºĨ": 1809,
      "ç¨ĭ": 1810,
      "è¶³ä»¥": 1811,
      "è½»è½»çļĦ": 1812,
      "å¡": 1813,
      "ä»Ĺ": 1814,
      "æ²»": 1815,
      "åİ»æī¾": 1816,
      "åĳĺ": 1817,
      "èµ°åĪ°": 1818,
      "ä»¶äºĭ": 1819,
      "èĪĴ": 1820,
      "è¯ķ": 1821,
      "åħĦ": 1822,
      "æĹĹ": 1823,
      "çĶŁæĦı": 1824,
      "ä½ľäºĨ": 1825,
      "æ¸¸": 1826,
      "åĶĩ": 1827,
      "ç¿»": 1828,
      "ä»ĸæīį": 1829,
      "æī¿": 1830,
      "åİī": 1831,
      "æŃ¢": 1832,
      "æĮģ": 1833,
      "æİ¢": 1834,
      "æ®µ": 1835,
      "ä»ĸå¾Ī": 1836,
      "çĿģ": 1837,
      "åİĨ": 1838,
      "åİĭ": 1839,
      "ä¼¸": 1840,
      "æĬ¤": 1841,
      "éĤ»": 1842,
      "äºĮåįģ": 1843,
      "çģµ": 1844,
      "åıįæŃ£": 1845,
      "ä¸įå¿ħ": 1846,
      "å¥Ķ": 1847,
      "åī©": 1848,
      "å®ĮäºĨ": 1849,
      "æį®": 1850,
      "åĵªéĩĮ": 1851,
      "ä½ĵéĿ¢": 1852,
      "ä¸ģçº¦ç¿°": 1853,
      "æĺŁ": 1854,
      "åĨ°": 1855,
      "å¹¸": 1856,
      "å°ıæĸĩ": 1857,
      "å¯¹äºİ": 1858,
      "æĿİç©ºå±±": 1859,
      "è§ĦçŁ©": 1860,
      "åŀ": 1861,
      "ä»ĸçľĭ": 1862,
      "ä¸Ģæĥ³": 1863,
      "æĹłåı¯": 1864,
      "æĭ¿çĿĢ": 1865,
      "æĲŃ": 1866,
      "åĤ²": 1867,
      "é¼»åŃĲ": 1868,
      "ä»ĸåı¯æĺ¯": 1869,
      "æĪĳæĥ³": 1870,
      "è½¯": 1871,
      "æĺİå¤©": 1872,
      "æĹ¥æľ¬äººçļĦ": 1873,
      "å§Ķ": 1874,
      "ç¾Ĭ": 1875,
      "æĸĩåĮĸ": 1876,
      "èĩ³å°ĳ": 1877,
      "çļĦç¡®": 1878,
      "ä»²": 1879,
      "ä¸ĢæĿ¡": 1880,
      "æĿ¨": 1881,
      "åĨĴ": 1882,
      "åĬ¿": 1883,
      "çļĦèĭ": 1884,
      "éĻ·": 1885,
      "è´§": 1886,
      "æĭīè½¦": 1887,
      "é¦ĸ": 1888,
      "çĸ¼": 1889,
      "æĪĺäºī": 1890,
      "å¤©ä½ĳå¤ªå¤ª": 1891,
      "æ±īå¥¸": 1892,
      "è¸": 1893,
      "ä¸¢": 1894,
      "ä¹Ŀ": 1895,
      "åĲ¹": 1896,
      "ä¸ªäºº": 1897,
      "æĢĢ": 1898,
      "åįł": 1899,
      "åı¯æĺ¯ä»ĸ": 1900,
      "çĶŁåĳ½": 1901,
      "çļĦè·": 1902,
      "å¸Ĥ": 1903,
      "æ¥¼": 1904,
      "èģĬ": 1905,
      "æł¡éķ¿": 1906,
      "ä¸įä¾¿": 1907,
      "æľĿ": 1908,
      "åĽ°": 1909,
      "èĢģå©Ĩ": 1910,
      "çļĦèĤ": 1911,
      "åı£ä¸Ń": 1912,
      "åĲ¬è§ģ": 1913,
      "å¾Ģåīį": 1914,
      "ç¢İ": 1915,
      "èħ°": 1916,
      "åľ¨è¿ĻéĩĮ": 1917,
      "å±Ģéķ¿": 1918,
      "é¢Ħå¤ĩ": 1919,
      "ä¸įåİ»": 1920,
      "åĲ«": 1921,
      "éĤ£çĤ¹": 1922,
      "äºİæĺ¯": 1923,
      "çĪ¸çĪ¸": 1924,
      "è®¨åİĮ": 1925,
      "å§ĳå¨ĺ": 1926,
      "èĹı": 1927,
      "çļĦæĹ¶": 1928,
      "äº«": 1929,
      "æľµ": 1930,
      "è¯ļ": 1931,
      "æĥ¹": 1932,
      "èĩªçĶ±": 1933,
      "ä¾Ŀ": 1934,
      "åĩłå¤©": 1935,
      "èº²": 1936,
      "ç¬ĳçĿĢ": 1937,
      "ç©¶": 1938,
      "å§ĵ": 1939,
      "åĬĽéĩı": 1940,
      "ä¹ĭåĲİ": 1941,
      "æķħäºĭ": 1942,
      "ç²¾ç¥ŀ": 1943,
      "ãĢĭ": 1944,
      "èµĦ": 1945,
      "åĽ¢": 1946,
      "æĹ¥åŃĲ": 1947,
      "çļĦç«": 1948,
      "æĮĳ": 1949,
      "çĥ¦": 1950,
      "èºº": 1951,
      "è¿Ļæł·çļĦ": 1952,
      "æĦŁæĥħ": 1953,
      "èĻĳ": 1954,
      "èĵĿä¸ľéĺ³": 1955,
      "åıĬèĩ³": 1956,
      "ãĢĬ": 1957,
      "åŃĺ": 1958,
      "çļĦçº": 1959,
      "çĥŃéĹ¹": 1960,
      "è¡£æľį": 1961,
      "åĭĩ": 1962,
      "åĨµä¸Ķ": 1963,
      "è¤": 1964,
      "å®Ī": 1965,
      "å°ıè¯´": 1966,
      "æĬĬä»ĸ": 1967,
      "ä¸ºäºĨ": 1968,
      "ç»Ļå¥¹": 1969,
      "åĿļ": 1970,
      "çĽ¼": 1971,
      "ä»ĸçļĦå¿ĥ": 1972,
      "éĹ¨åı£": 1973,
      "èĥ¸": 1974,
      "åıĳäºĨ": 1975,
      "çĭĤ": 1976,
      "å®ŀåľ¨": 1977,
      "åļ": 1978,
      "ä¸¾": 1979,
      "äº¬": 1980,
      "æĺ¯ä¸įæĺ¯": 1981,
      "æİ¨": 1982,
      "æİĴ": 1983,
      "åĬĽæ°Ķ": 1984,
      "æĬ¥åĳĬ": 1985,
      "çļĦå¿ĥ": 1986,
      "å°ģ": 1987,
      "æĢľ": 1988,
      "éĢĤ": 1989,
      "äºĨä¸ĢäºĽ": 1990,
      "æķĮäºº": 1991,
      "æºľ": 1992,
      "åİīå®³": 1993,
      "æ¹": 1994,
      "ï¼ĮâĢĿ": 1995,
      "è§Ĩ": 1996,
      "æĭį": 1997,
      "æĮ¤": 1998,
      "è´Ł": 1999,
      "å¹´è½»": 2000,
      "ç»ıéªĮ": 2001,
      "å¨¶": 2002,
      "çĮľ": 2003,
      "¾æ°Ķ": 2004,
      "ä»ĸè¦ģ": 2005,
      "åı²": 2006,
      "ä¹¡": 2007,
      "åĲŁ": 2008,
      "å¤´åıĳ": 2009,
      "çļĦçĥ": 2010,
      "åľ°ä½į": 2011,
      "åĽŀåİ»": 2012,
      "è®°å¾Ĺ": 2013,
      "çŀ§": 2014,
      "æ¼Ĥ": 2015,
      "é¾": 2016,
      "å¥Ĺ": 2017,
      "åĩĳ": 2018,
      "å°ıçļĦ": 2019,
      "ä½łçľĭ": 2020,
      "æīĭéĩĮ": 2021,
      "æķĻä»ĸ": 2022,
      "èĤ²": 2023,
      "åĿĲçĿĢ": 2024,
      "æĤĶ": 2025,
      "çļĦè½¦": 2026,
      "èĢģå¤´åŃĲ": 2027,
      "èĸ": 2028,
      "ä¸ĢçĽ´": 2029,
      "æĿĳ": 2030,
      "ç»Ń": 2031,
      "è¯´ä¸į": 2032,
      "åĮ»": 2033,
      "æīĢéķ¿": 2034,
      "éļ¾éģĵ": 2035,
      "å¼Łå¼Ł": 2036,
      "æĤ²": 2037,
      "å¯ĮåĸĦ": 2038,
      "æ¤": 2039,
      "èĳ": 2040,
      "åĲ¦": 2041,
      "åħį": 2042,
      "è±¡ä¸ª": 2043,
      "éĻħ": 2044,
      "åį±éĻ©": 2045,
      "èĪĴæľį": 2046,
      "çļĦæĬĬ": 2047,
      "ä»ĸé¡»": 2048,
      "å¼ı": 2049,
      "èĩªä»İ": 2050,
      "æĭ¦": 2051,
      "æĸĭ": 2052,
      "åıªèĥ½": 2053,
      "å¤ªéĺ³": 2054,
      "ä»ĸçļĦçľ¼": 2055,
      "åĬ¨äºĨ": 2056,
      "æĹłèģĬ": 2057,
      "åĮĹå¹³çļĦ": 2058,
      "ç¬¬ä¸Ģ": 2059,
      "ä½İçĿĢå¤´": 2060,
      "åĤ»": 2061,
      "å¥¶å¥¶": 2062,
      "èĽĭ": 2063,
      "å¯ĮåĸĦåħĪçĶŁ": 2064,
      "æĺ¯ä¸į": 2065,
      "æľ¯": 2066,
      "åı¯çĪ±": 2067,
      "åįļ": 2068,
      "æľ¬äºĭ": 2069,
      "çļĦçģ": 2070,
      "åĩłåı¥": 2071,
      "äºĮçĪ·": 2072,
      "åĽ½å®¶": 2073,
      "æī¾åĪ°": 2074,
      "æĭīçĿĢ": 2075,
      "ä¹°åįĸ": 2076,
      "å®īæħ°": 2077,
      "æĩĴ": 2078,
      "èĨ": 2079,
      "ä»ĸä¼ļ": 2080,
      "è¯ģ": 2081,
      "æĬĺ": 2082,
      "æĢģ": 2083,
      "èĢģå®ŀ": 2084,
      "åĦ¿çļĦ": 2085,
      "å°ıå§Ĳ": 2086,
      "æİı": 2087,
      "åĲĥé¥Ń": 2088,
      "æĶ¾å¿ĥ": 2089,
      "åıĹäºĨ": 2090,
      "çķ¥": 2091,
      "çĨŁ": 2092,
      "å§Ķå±Ī": 2093,
      "æĿ¯": 2094,
      "åľ¨äºĨ": 2095,
      "éĹ·": 2096,
      "éĿł": 2097,
      "è´µ": 2098,
      "åĽĽå¤§": 2099,
      "ç©¿çĿĢ": 2100,
      "å§ĭç»Ī": 2101,
      "ç§ĳéķ¿": 2102,
      "ä¸įæĦ¿": 2103,
      "æľŁ": 2104,
      "è¿ĺèĥ½": 2105,
      "ç»Ļä½ł": 2106,
      "å¾Ģä¸ĭ": 2107,
      "æ±½": 2108,
      "åĮĹå¹³äºº": 2109,
      "åĿĲä¸ĭ": 2110,
      "çļĦèĦ¸ä¸Ĭ": 2111,
      "å°¤èĢģäºĮ": 2112,
      "æİĮæŁľ": 2113,
      "é²": 2114,
      "ä¸įåĲĮ": 2115,
      "äººçī©": 2116,
      "æīĺ": 2117,
      "çĿĢæĢ¥": 2118,
      "æ²³": 2119,
      "åĨľ": 2120,
      "è¯´åĩº": 2121,
      "è¡¥": 2122,
      "æĶ¯": 2123,
      "è¾ŀ": 2124,
      "éĽª": 2125,
      "éĺ³åħī": 2126,
      "æ¶Ĥ": 2127,
      "åıįåĢĴ": 2128,
      "å¸®åĬ©": 2129,
      "å»īä¼¯": 2130,
      "åı¸": 2131,
      "å®Ŀ": 2132,
      "æĬ¹": 2133,
      "æĬķ": 2134,
      "éĤ£ä¸Ģ": 2135,
      "ç¥¨": 2136,
      "æľ¬æĿ¥": 2137,
      "æ²¡æľīä»Ģä¹Ī": 2138,
      "ä½ľäºĭ": 2139,
      "çĽĺ": 2140,
      "éĻį": 2141,
      "æīĵç®Ĺ": 2142,
      "è½¦å¤«": 2143,
      "æŃ£åľ¨": 2144,
      "åŃ©åŃĲä»¬": 2145,
      "ç£¨": 2146,
      "åĪĴ": 2147,
      "åĩı": 2148,
      "åİļ": 2149,
      "è¾±": 2150,
      "çģŃ": 2151,
      "è¿ĽäºĨ": 2152,
      "äºĨå¥½": 2153,
      "äºĨäºĽ": 2154,
      "å¼ķ": 2155,
      "æķĻèĤ²": 2156,
      "è¶£": 2157,
      "å¢ŀ": 2158,
      "å«ģ": 2159,
      "ç®Ģåįķ": 2160,
      "æ§": 2161,
      "ä»ĸè¯´": 2162,
      "åı¤": 2163,
      "äºĨåįĬå¤©": 2164,
      "å¤§å¤«": 2165,
      "å¼¹": 2166,
      "è¦ģä¸į": 2167,
      "è´¢": 2168,
      "ä»ĸå·²": 2169,
      "ä»ĸå¿ĥä¸Ń": 2170,
      "åĲĲ": 2171,
      "æī«": 2172,
      "åį·": 2173,
      "èĦĨ": 2174,
      "è¯ĿæĿ¥": 2175,
      "æīĵåĲ¬": 2176,
      "è´¥": 2177,
      "é¥¼": 2178,
      "ç²ī": 2179,
      "ç±»": 2180,
      "é»ĺåĲŁ": 2181,
      "æĽ¹åħĪçĶŁ": 2182,
      "æī¿è®¤": 2183,
      "éŃ": 2184,
      "ä¸Ŀ": 2185,
      "ä¸¢äºĨ": 2186,
      "ä½©": 2187,
      "æĪĳçŁ¥éģĵ": 2188,
      "çĿĢçĤ¹": 2189,
      "ä¸įèĥ½ä¸į": 2190,
      "ç©·": 2191,
      "æ¸©": 2192,
      "æĢĿç´¢": 2193,
      "åĳĬè¯īä½ł": 2194,
      "çªĹ": 2195,
      "çľĭäºĨçľĭ": 2196,
      "èľ": 2197,
      "ä¸§": 2198,
      "çļĦèµ°": 2199,
      "å¾ĹæĦı": 2200,
      "åĨ²": 2201,
      "èĦ±": 2202,
      "ä¸¤å¤©": 2203,
      "åĽŀåĪ°": 2204,
      "äº«åıĹ": 2205,
      "æĪĳè¯´": 2206,
      "æīŃ": 2207,
      "åħ±": 2208,
      "å°±ä¸į": 2209,
      "æĸĻ": 2210,
      "å£®": 2211,
      "äºĨä¸Ģå£°": 2212,
      "è¢į": 2213,
      "éĵľ": 2214,
      "æ£º": 2215,
      "éľĢ": 2216,
      "ç»ĵå©ļ": 2217,
      "å¸®å¿Ļ": 2218,
      "çŃĶåºĶ": 2219,
      "âĢ¦âĢ¦\"": 2220,
      "éĤ»å±ħ": 2221,
      "é¾Ļ": 2222,
      "çļĦæł·åŃĲ": 2223,
      "æĿĤ": 2224,
      "æĿŁ": 2225,
      "æĪĳçľĭ": 2226,
      "ç»§": 2227,
      "å±ķ": 2228,
      "é©¼": 2229,
      "æįī": 2230,
      "ç¼Ŀ": 2231,
      "ç±³": 2232,
      "å°Ĭ": 2233,
      "æĪĳåİ»": 2234,
      "æĪĳèĩªå·±": 2235,
      "æīĶ": 2236,
      "åħĥ": 2237,
      "å¥¹ä¹Ł": 2238,
      "è¿ĺå¾Ĺ": 2239,
      "åĢŁ": 2240,
      "åĿŁ": 2241,
      "è°ħ": 2242,
      "ä»ĸä¸įæķ¢": 2243,
      "çļĦä¸ĢåĪĩ": 2244,
      "æļĸ": 2245,
      "ç¼º": 2246,
      "çĬ¯": 2247,
      "çĤ¹äºĨçĤ¹å¤´": 2248,
      "æ§Ĳ": 2249,
      "æ£ºæĿĲ": 2250,
      "ªæĺİ": 2251,
      "æĺ¯æľĢ": 2252,
      "æ²¡äºĨ": 2253,
      "æ²¡äºº": 2254,
      "çī²": 2255,
      "ä¸īåįģ": 2256,
      "åĲ¬çĿĢ": 2257,
      "çĭł": 2258,
      "æ»ļ": 2259,
      "åĵ¥åĵ¥": 2260,
      "æł¹æľ¬": 2261,
      "çļĦè¡£": 2262,
      "å¦Ļæĸĭ": 2263,
      "åİĨåı²": 2264,
      "Ĩé©¼": 2265,
      "ä¸įä¹ħ": 2266,
      "ä¹ł": 2267,
      "è¯¦": 2268,
      "åĲĵ": 2269,
      "æĪĳè¦ģ": 2270,
      "åİĤ": 2271,
      "åĽ´": 2272,
      "ä¼ĳ": 2273,
      "å¯Ĩ": 2274,
      "äºĨä¸ĢçĤ¹": 2275,
      "æĪĲä¸º": 2276,
      "æ´»åĬ¨": 2277,
      "éªĨé©¼": 2278,
      "æı¡": 2279,
      "éĻ¢éĩĮ": 2280,
      "éľŀ": 2281,
      "åĤħ": 2282,
      "ä¸ģä¸»ä»»": 2283,
      "çĻ»": 2284,
      "éľ²åĩº": 2285,
      "çĶļèĩ³äºİ": 2286,
      "å¸ĪåĤħ": 2287,
      "æ¼Ĥäº®": 2288,
      "èĢį": 2289,
      "å°±å¾Ĺ": 2290,
      "å¤©å¤©": 2291,
      "ä¸įèĥ½åĨį": 2292,
      "å¹´çļĦ": 2293,
      "éĽĦ": 2294,
      "æĭĽåĳ¼": 2295,
      "æģĲæĢķ": 2296,
      "çļĦä¸į": 2297,
      "åŃĿ": 2298,
      "ä¸Ĭæµ·": 2299,
      "æĬ½": 2300,
      "å°ıç¦ı": 2301,
      "åĵģ": 2302,
      "çļĦç²": 2303,
      "é¢ĩ": 2304,
      "èĪį": 2305,
      "éģĩåĪ°": 2306,
      "æ¨ª": 2307,
      "çĭ¬èĩª": 2308,
      "çļĦç«ĭ": 2309,
      "äºĨä»ĸ": 2310,
      "è¿ĻåĦ¿": 2311,
      "å¼ĥ": 2312,
      "èģĶ": 2313,
      "çī¹åĪ«çļĦ": 2314,
      "åįļå£«": 2315,
      "çļĦç§": 2316,
      "çļĦçĽ": 2317,
      "çĥĤ": 2318,
      "ç«Ł": 2319,
      "æŁ¥": 2320,
      "ç¨³": 2321,
      "åłĨ": 2322,
      "æ±½è½¦": 2323,
      "ä»ĸæľī": 2324,
      "åİ»çľĭ": 2325,
      "åį°": 2326,
      "èĢĮä¸į": 2327,
      "çĤ¸": 2328,
      "åĵŁ": 2329,
      "å¯Ł": 2330,
      "çľ¼åīį": 2331,
      "çĽĸ": 2332,
      "æĶ»": 2333,
      "èį£": 2334,
      "å¤ĸå©Ĩ": 2335,
      "æ¬º": 2336,
      "æįķ": 2337,
      "èĻļ": 2338,
      "æ£ļ": 2339,
      "çĶ·äºº": 2340,
      "åĳĨåĳĨ": 2341,
      "é²ľ": 2342,
      "ä»ĸåľ¨": 2343,
      "äºĨå£°": 2344,
      "è¿«": 2345,
      "ä¸Ģåı¥": 2346,
      "ä¸ĢæŃ¥": 2347,
      "æĪĳå¾Ĺ": 2348,
      "åħħ": 2349,
      "åºĨ": 2350,
      "ä½İå£°": 2351,
      "æĢĿæĥ³": 2352,
      "ç¨į": 2353,
      "å®¢äºº": 2354,
      "åŃ¦çĶŁä»¬": 2355,
      "ç»Ŀå¯¹": 2356,
      "ç£ķ": 2357,
      "è¾ĪåŃĲ": 2358,
      "éľĢè¦ģ": 2359,
      "çļĦå£°éŁ³": 2360,
      "ä¸Ģéĺµ": 2361,
      "å¿§": 2362,
      "æ²¡åĩº": 2363,
      "çĤ®": 2364,
      "éģį": 2365,
      "æ³¥": 2366,
      "æİĪ": 2367,
      "æī¾ä¸įåĪ°": 2368,
      "åįĹäº¬": 2369,
      "ç¾ĬåľĪ": 2370,
      "æ¤ħ": 2371,
      "ç¯": 2372,
      "çļĦå¥½": 2373,
      "ä¹ı": 2374,
      "å®ľ": 2375,
      "åĪ°å¤Ħ": 2376,
      "æĥ¨": 2377,
      "åĬ³": 2378,
      "æĭ³": 2379,
      "ä¸ºæĺ¯": 2380,
      "æĸĹ": 2381,
      "èĦ¾æ°Ķ": 2382,
      "çºª": 2383,
      "ç§ĭ": 2384,
      "åĳ½ä»¤": 2385,
      "æĤ¨": 2386,
      "åİŁè°ħ": 2387,
      "è²": 2388,
      "çļĦåĬŀæ³ķ": 2389,
      "è¿Ł": 2390,
      "ä¸Ģé½Ĳ": 2391,
      "å¥´": 2392,
      "å¥ĭ": 2393,
      "å°ĸ": 2394,
      "æĪĳæľī": 2395,
      "çĿĢä»ĸ": 2396,
      "èĩ´": 2397,
      "éĹ»": 2398,
      "è¿ĺæ²¡æľī": 2399,
      "åºĻ": 2400,
      "å±Ĥ": 2401,
      "âĢĶâĢĶ\"": 2402,
      "æĽ¾": 2403,
      "çļĦäººä»¬": 2404,
      "ç«ł": 2405,
      "åĬŀåĳ¢": 2406,
      "æıı": 2407,
      "ç«ĭåľ¨": 2408,
      "åĶ¯": 2409,
      "ç¤¾": 2410,
      "åĪĺå¸ĪåĤħ": 2411,
      "æ¨¡": 2412,
      "èĤļåŃĲ": 2413,
      "äºĨèµ·æĿ¥": 2414,
      "è¿İ": 2415,
      "ä¸Ģæ¬¡": 2416,
      "åĴ½": 2417,
      "âĢĿï¼Į": 2418,
      "ä¸Ģä¸ªå°ı": 2419,
      "è²Į": 2420,
      "çļ±": 2421,
      "ä¸Ģæĸ¹éĿ¢": 2422,
      "èĢģå¤ª": 2423,
      "åĴĮå¹³": 2424,
      "æ°ĶçļĦ": 2425,
      "æľĢåĲİ": 2426,
      "å¹²åĲĹ": 2427,
      "è£¤": 2428,
      "æĢ»æĺ¯": 2429,
      "åģ·åģ·": 2430,
      "èĥĸèıĬåŃĲ": 2431,
      "æĺ¯ä»Ģä¹Ī": 2432,
      "æĪĳä¸įèĥ½": 2433,
      "æī®": 2434,
      "åı¯æĢľ": 2435,
      "å°±ä¼ļ": 2436,
      "çļĦèħ": 2437,
      "çļĦèĬ": 2438,
      "çŁ®": 2439,
      "å½¼": 2440,
      "è°¢": 2441,
      "çĻ½çļĦ": 2442,
      "çĶ¨æīĭ": 2443,
      "åĬĽçļĦ": 2444,
      "åŁİéĩĮ": 2445,
      "ä¼¯ä¼¯": 2446,
      "ç¡®æĺ¯": 2447,
      "çļĦè´£": 2448,
      "±¼": 2449,
      "é±¼": 2450,
      "ä¸½": 2451,
      "ä»ĸå¯¹": 2452,
      "ä»ĸå¿ħé¡»": 2453,
      "ä¸įå°ĳ": 2454,
      "åĩ¡": 2455,
      "çĿĢçľ¼": 2456,
      "åĽ¾": 2457,
      "åįĪ": 2458,
      "å¼±": 2459,
      "éĴ±å®¶": 2460,
      "ç»Ļä»ĸä»¬": 2461,
      "èĦĸåŃĲ": 2462,
      "éĢı": 2463,
      "æķĻæİĪ": 2464,
      "æıī": 2465,
      "ä»¿ä½Ľæĺ¯": 2466,
      "æĬ¥çº¸": 2467,
      "çĮĽ": 2468,
      "æĶ¶æĭ¾": 2469,
      "ç¦»å¼Ģ": 2470,
      "æ¯įäº²": 2471,
      "¯çļĦ": 2472,
      "äºĨçļĦ": 2473,
      "åľ¨åľ°ä¸Ĭ": 2474,
      "å¾Ĺèµ·": 2475,
      "å°ıç¾ĬåľĪ": 2476,
      "éĥ½æľī": 2477,
      "å¦¹": 2478,
      "å½Ĵ": 2479,
      "çĽĳ": 2480,
      "ä¸īå¤©": 2481,
      "åĲİæĤĶ": 2482,
      "è´´": 2483,
      "çĥĪ": 2484,
      "æĸ¹æ³ķ": 2485,
      "åĺ´åĶĩ": 2486,
      "èĻ«": 2487,
      "å¾®å¾®": 2488,
      "å°½ç®¡": 2489,
      "èĿ": 2490,
      "å®½": 2491,
      "è¯¾": 2492,
      "è¿ĻæĹ¶åĢĻ": 2493,
      "ä¹Łå¥½": 2494,
      "éĥ½åľ¨": 2495,
      "å¸½": 2496,
      "æĹ¶éĹ´": 2497,
      "å½©": 2498,
      "æ´ŀ": 2499,
      "è§īåĪ°": 2500,
      "åĩºæĿ¥çļĦ": 2501,
      "å¸¸äºĮçĪ·": 2502,
      "äº²å®¶": 2503,
      "æ»¡æĦı": 2504,
      "ä¸ĩä¸Ģ": 2505,
      "ä»į": 2506,
      "ä»ĺ": 2507,
      "å¤¹": 2508,
      "ä»ĸæ²¡æľī": 2509,
      "äºĨåĩł": 2510,
      "åĪĳ": 2511,
      "åŃŁ": 2512,
      "å¥¹èĩªå·±": 2513,
      "æĭľ": 2514,
      "å¦ĵ": 2515,
      "çļĦçĻ½": 2516,
      "éĢ¢": 2517,
      "é¢ľ": 2518,
      "çİ©èīº": 2519,
      "åı·çļĦ": 2520,
      "åĹĵ": 2521,
      "å°ıç¦ıåŃĲ": 2522,
      "å½¼æŃ¤": 2523,
      "ä»ĸæīĢ": 2524,
      "ä¸įåĬ¨": 2525,
      "ä¸Ģä»¶": 2526,
      "å·§": 2527,
      "åĨ¬": 2528,
      "æĦ§": 2529,
      "çĽĨ": 2530,
      "æīĭä¸Ń": 2531,
      "æģ°": 2532,
      "çº¿": 2533,
      "è´¦": 2534,
      "èĢģäººä»¬": 2535,
      "é¥ŃåĲĥ": 2536,
      "å°ĨåĨĽ": 2537,
      "ä¸ĢæĿ¥": 2538,
      "ä¸ĢæĬĬ": 2539,
      "å°¸": 2540,
      "ä¸Ĭåİ»": 2541,
      "å¾ĹäºĨ": 2542,
      "ä¹Łæľī": 2543,
      "æķĪ": 2544,
      "éĩĮåİ»": 2545,
      "çĪ¬": 2546,
      "å¯Ĥ": 2547,
      "å¼Ģåı£": 2548,
      "ä¹Łä¸įæķ¢": 2549,
      "å¹²åĩĢ": 2550,
      "ç¾ŀ": 2551,
      "å¿½çĦ¶çļĦ": 2552,
      "æĺ¾åĩº": 2553,
      "èİ«": 2554,
      "çļĦåİ»": 2555,
      "äºı": 2556,
      "ä»ĸåĨ³å®ļ": 2557,
      "è¿½": 2558,
      "ä¸Ģå®¶": 2559,
      "åĩ»": 2560,
      "ä¹Łä¸įèĥ½": 2561,
      "åĳķ": 2562,
      "å¹¼": 2563,
      "å¹¿": 2564,
      "å¥½åĲ§": 2565,
      "å®¶ä¼Ļ": 2566,
      "ä½łè¯´": 2567,
      "åĴķ": 2568,
      "çļĦç½": 2569,
      "çľ¼çıł": 2570,
      "çĶ¨ä¸įçĿĢ": 2571,
      "ä½¿å¥¹": 2572,
      "æĳĶ": 2573,
      "åĲĳæĿ¥": 2574,
      "å¸¸å¸¸": 2575,
      "ç½®": 2576,
      "çĸ²": 2577,
      "åłª": 2578,
      "å°ĨæĿ¥": 2579,
      "æĺ¾çĿĢ": 2580,
      "çļĦåħī": 2581,
      "çļĦçľĭçĿĢ": 2582,
      "ä¸įè¡Į": 2583,
      "æĿĥ": 2584,
      "æĢ¨": 2585,
      "å¥½å¤Ħ": 2586,
      "èĢĮæĬĬ": 2587,
      "ä¸ĭçļĦ": 2588,
      "éĴ±çļĦ": 2589,
      "è±¡ä¸Ģ": 2590,
      "åģı": 2591,
      "æŀĿ": 2592,
      "ç´¯": 2593,
      "æ£ī": 2594,
      "è®¾æ³ķ": 2595,
      "äºĨè®¸å¤ļ": 2596,
      "äºĨåı£æ°Ķ": 2597,
      "è¯´åĩºæĿ¥": 2598,
      "èĢĮåıĪ": 2599,
      "å°ıåŃ©": 2600,
      "ç¥¸": 2601,
      "åºŃ": 2602,
      "éĢĴ": 2603,
      "ç¬ĳäºĨä¸Ģä¸ĭ": 2604,
      "ç«¯": 2605,
      "å¹¶ä¸Ķ": 2606,
      "å¦ĩäºº": 2607,
      "åĪ°åºķæĺ¯": 2608,
      "çĶµå½±": 2609,
      "ºçī²": 2610,
      "æĪ´": 2611,
      "æĪĳä¸Ģ": 2612,
      "æĪĳè¿ĺ": 2613,
      "æīİ": 2614,
      "èµŀ": 2615,
      "å¾Ĺç½ª": 2616,
      "åįĩ": 2617,
      "å¯¿": 2618,
      "æĹ¶å¸¸": 2619,
      "çļĦçĹ": 2620,
      "ä¾µ": 2621,
      "çĶ±çļĦ": 2622,
      "èī¯": 2623,
      "åŁĭ": 2624,
      "ç«ĭåĪ»": 2625,
      "å¦ĤæŃ¤": 2626,
      "è®¡åĪĴ": 2627,
      "å»īä»²": 2628,
      "åľ¨ä¸Ģå¤Ħ": 2629,
      "æ¹¿": 2630,
      "ç»§ç»Ń": 2631,
      "çļĦèĬ±": 2632,
      "æĺı": 2633,
      "åĪĽ": 2634,
      "è¯¯": 2635,
      "ä¹Łä¼ļ": 2636,
      "åĨ»": 2637,
      "çľĭåĩº": 2638,
      "éĩĮçļĦ": 2639,
      "å¯Ĵ": 2640,
      "åºĹ": 2641,
      "æīĵäºĨ": 2642,
      "æīĵæī®": 2643,
      "åĲİéĿ¢": 2644,
      "å¹´æľĪ": 2645,
      "å¦ĪçļĦ": 2646,
      "è¶Ł": 2647,
      "å±ĭåŃĲ": 2648,
      "éļ¾åłª": 2649,
      "èĲ¥": 2650,
      "ä½İå£°çļĦ": 2651,
      "æ£Ģ": 2652,
      "æĸ°çļĦ": 2653,
      "å¨ĺä»¬": 2654,
      "å±ħçĦ¶": 2655,
      "åĽ°éļ¾": 2656,
      "çļĦçº¢": 2657,
      "è¤Ĥ": 2658,
      "çļĩ": 2659,
      "æĺ¯è¦ģ": 2660,
      "ä¸Ģåı£": 2661,
      "åĲĬ": 2662,
      "çĿĢåĳ¢": 2663,
      "çĶĺ": 2664,
      "èµĶ": 2665,
      "æĥľ": 2666,
      "èĢģå¤§": 2667,
      "æĸ¤": 2668,
      "éĴ±ä¼¯ä¼¯": 2669,
      "çļĦç©": 2670,
      "éĺ»": 2671,
      "å¹¶ä¸įæĺ¯": 2672,
      "çļĦèĦĳ": 2673,
      "äºĶåįģ": 2674,
      "çĮ®": 2675,
      "ç¾İåĽ½": 2676,
      "å·®äºĭ": 2677,
      "å°ıé¡ºåĦ¿çļĦ": 2678,
      "èĴ": 2679,
      "ä»Ĩ": 2680,
      "æĪĳåıĪ": 2681,
      "çľ¨": 2682,
      "åĦ¿å¥³": 2683,
      "å°±èĥ½": 2684,
      "æĭļ": 2685,
      "æĬĬå¥¹": 2686,
      "å¤©ä¸Ĭ": 2687,
      "éģ¿": 2688,
      "çľ¼ä¸Ń": 2689,
      "éĽĨ": 2690,
      "å®īéĹ¨": 2691,
      "æļ´": 2692,
      "éĩįè¦ģ": 2693,
      "çĶ·å¥³": 2694,
      "å®³æĢķ": 2695,
      "æĻļä¸Ĭ": 2696,
      "åıĺæĪĲäºĨ": 2697,
      "èĭ±åĽ½åºľ": 2698,
      "çĽ¸å½ĵçļĦ": 2699,
      "åĨľåľº": 2700,
      "çļĦè´£ä»»": 2701,
      "é¢ľèī²": 2702,
      "åıĤ": 2703,
      "äºĨåİ»": 2704,
      "åŃĲä¸Ĭ": 2705,
      "åĬª": 2706,
      "éĹª": 2707,
      "å¼Ĥ": 2708,
      "å¦»": 2709,
      "çļĦç¾": 2710,
      "ä¾¿å®ľ": 2711,
      "å½ĵä½ľ": 2712,
      "çĶ¨çļĦ": 2713,
      "å°ĳå¥¶å¥¶": 2714,
      "åģĩå¦Ĥ": 2715,
      "çĪ¶æ¯į": 2716,
      "åħ´å¥ĭ": 2717,
      "äº¡åĽ½": 2718,
      "è¯Ĺäºº": 2719,
      "ä¸ĢåĿĹåĦ¿": 2720,
      "æĵį": 2721,
      "å·¦åı³": 2722,
      "çļĦèĭ¦": 2723,
      "ä¼ĳæģ¯": 2724,
      "çļĦéĹ®": 2725,
      "ä¸įæĥ³": 2726,
      "æĺ¯æľī": 2727,
      "çĶ°": 2728,
      "ç»ķ": 2729,
      "çľĭä¸įèµ·": 2730,
      "å°±æĽ´": 2731,
      "éĴ»": 2732,
      "æĹ¶æĹ¶": 2733,
      "è±Ĩ": 2734,
      "éĿ¢çļĦ": 2735,
      "åĲĥäºĨ": 2736,
      "è§īåĩº": 2737,
      "æ·»": 2738,
      "æŁĶ": 2739,
      "å¤±åİ»": 2740,
      "æĨ": 2741,
      "ä»ĸåİ»": 2742,
      "èĢĥ": 2743,
      "åľĨ": 2744,
      "æī¶": 2745,
      "è¿Ļä¸įæĺ¯": 2746,
      "ä¸Ĭä¸Ģ": 2747,
      "æĬµ": 2748,
      "åĩºå£°": 2749,
      "çļĦèģ": 2750,
      "ä»ĸä»¬ä¿©": 2751,
      "éĢī": 2752,
      "éĿ¢åīį": 2753,
      "çĳŀå®£çļĦ": 2754,
      "æŃ»äº¡": 2755,
      "æĭ¿åĩº": 2756,
      "åĺ±": 2757,
      "ç²Ĺ": 2758,
      "åıĺäºĨ": 2759,
      "èĲ½äºĨ": 2760,
      "æĪ¿åŃĲ": 2761,
      "åĤ¬": 2762,
      "åĻ¨": 2763,
      "æııåĨĻ": 2764,
      "ä¸²": 2765,
      "ä¸ĳ": 2766,
      "æī£": 2767,
      "å¥¹çŁ¥éģĵ": 2768,
      "è¯´çļĦ": 2769,
      "è¯´çĿĢ": 2770,
      "å®¶åºŃ": 2771,
      "åĴĲ": 2772,
      "æĭĴ": 2773,
      "æĥ³èµ·æĿ¥": 2774,
      "äºĭçļĦ": 2775,
      "ä¸ĭå¤´": 2776,
      "ä»¥ä¾¿": 2777,
      "çļĦçİ": 2778,
      "æĦıè§ģ": 2779,
      "çī¢": 2780,
      "æ´¥": 2781,
      "æķĻæĪĳ": 2782,
      "èĤ©": 2783,
      "çķª": 2784,
      "ç¥ŀæ°Ķ": 2785,
      "å¦ĩå¥³": 2786,
      "èģªæĺİ": 2787,
      "åłµ": 2788,
      "æ¯ıéĢ¢": 2789,
      "çī¹åĬ¡": 2790,
      "çļĦè¡¨": 2791,
      "åĪĺåĽĽçĪ·": 2792,
      "çļĦæĹ¶èĬĤ": 2793,
      "ç¤¾ä¼ļ": 2794,
      "çļĦç½ª": 2795,
      "ä»ĸæĻĵå¾Ĺ": 2796,
      "æĺ¯ä¸º": 2797,
      "åħ·": 2798,
      "åľ¨éĤ£": 2799,
      "åĳ¨": 2800,
      "æķ²": 2801,
      "æĭħ": 2802,
      "å¤©å®īéĹ¨": 2803,
      "çŁ¥è¯Ĩ": 2804,
      "è¾ĥ": 2805,
      "åī§": 2806,
      "æĢİèĥ½": 2807,
      "ä¿®": 2808,
      "åĽĽåįģ": 2809,
      "å¾Ģå¾Ģ": 2810,
      "èº«åŃĲ": 2811,
      "å¹²èĦĨ": 2812,
      "çŃīåĪ°": 2813,
      "æıĴ": 2814,
      "çļĦèĦļ": 2815,
      "éĵºæĪ·": 2816,
      "ä¼Ļè®¡": 2817,
      "æ¯«æĹł": 2818,
      "åķĨè®®": 2819,
      "çļĦçĥŃ": 2820,
      "ä»ĸå¼Ģå§ĭ": 2821,
      "ä¸įè±¡": 2822,
      "ä¸ĢåĬ¨": 2823,
      "æľīè®¸å¤ļ": 2824,
      "çĿĢçļĦ": 2825,
      "ç»´": 2826,
      "æķ·": 2827,
      "éĤ£æĺ¯": 2828,
      "å°±è¿Ļä¹Ī": 2829,
      "æŃ¹": 2830,
      "éģ®": 2831,
      "å¯¡": 2832,
      "å¤´çļĦ": 2833,
      "çļĦçĭ": 2834,
      "ç»ĻæĹ¥æľ¬äºº": 2835,
      "æł·çļĦ": 2836,
      "è¾©": 2837,
      "åĽŀå¤´": 2838,
      "æŃ»çļĦ": 2839,
      "èĭ¥æĺ¯": 2840,
      "æ¡¥": 2841,
      "èµ¶åĪ°": 2842,
      "çħ¤": 2843,
      "åľ¨è¿ĻåĦ¿": 2844,
      "å¨ĺå®¶": 2845,
      "è¨Ģè¯Ń": 2846,
      "çŀİ": 2847,
      "æĢģåº¦": 2848,
      "ä½©æľį": 2849,
      "ä»ĸåĴĮ": 2850,
      "ä»ĸä¼¼ä¹İ": 2851,
      "ä¸ĢåįĬ": 2852,
      "æĿ¥è¶Ĭ": 2853,
      "çĿĢèĦ¸": 2854,
      "ä¸ĬæĿ¥": 2855,
      "å¤§éĹ¨": 2856,
      "æĦģ": 2857,
      "ä¸¤ä½į": 2858,
      "ç®±": 2859,
      "æĢİåĽŀäºĭ": 2860,
      "å¹´çºª": 2861,
      "èĢģäººçļĦ": 2862,
      "åīįéĿ¢": 2863,
      "åı«ä½ľ": 2864,
      "åĽŀæĿ¥äºĨ": 2865,
      "æ²¡æ³ķä¸į": 2866,
      "è¡¨ç¤ºåĩº": 2867,
      "å¨ĥå¨ĥ": 2868,
      "å¦ĵå¥³": 2869,
      "ä»ĸéĥ½": 2870,
      "ä»ĸåĩłä¹İ": 2871,
      "ä¸įæĻĵå¾Ĺ": 2872,
      "ä¸Ģå¼ł": 2873,
      "ä¸ªå°ı": 2874,
      "åı¯æĢķ": 2875,
      "è¯´å¾Ĺ": 2876,
      "å¥½åĩł": 2877,
      "åı¯æĺ¯æĪĳ": 2878,
      "çļĦè¢": 2879,
      "è¡į": 2880,
      "æ²¡æľīäºĨ": 2881,
      "æ²¡æľīä»»ä½ķ": 2882,
      "æŀ£": 2883,
      "èº¬": 2884,
      "èº«ä½ĵ": 2885,
      "æĶ¾ä¸ĭ": 2886,
      "éªĹ": 2887,
      "éĵ¶": 2888,
      "åĪļæīį": 2889,
      "å¿ĻçĿĢ": 2890,
      "åºķä¸ĭ": 2891,
      "åĹ¦": 2892,
      "èĢ³æľµ": 2893,
      "åĭĩæķ¢": 2894,
      "æĭĴç»Ŀ": 2895,
      "ä¸įå®ī": 2896,
      "å®¤": 2897,
      "åĪ·": 2898,
      "è¿Ļä»¶äºĭ": 2899,
      "åĴĴ": 2900,
      "è®Ń": 2901,
      "ä½ľè¿ĩ": 2902,
      "æĹ¥æľ¬åħµ": 2903,
      "çĶ¨å¤Ħ": 2904,
      "åģļ": 2905,
      "éĿ¢ä¸Ĭ": 2906,
      "éĺ´": 2907,
      "ï¼Ł\"\"": 2908,
      "é©¬èĢģå¤ªå¤ª": 2909,
      "ç³ĸ": 2910,
      "è¶ĬæĿ¥è¶Ĭ": 2911,
      "æ£į": 2912,
      "èĮ«": 2913,
      "æĢ¥å¿Ļ": 2914,
      "åħ¥äºĨ": 2915,
      "éŀł": 2916,
      "éĻĪèĢģåħĪçĶŁ": 2917,
      "åºĬä¸Ĭ": 2918,
      "ç¬ĳäºĨç¬ĳ": 2919,
      "è¾Ĩè½¦": 2920,
      "æķ·è¡į": 2921,
      "īå¼º": 2922,
      "ä»ĸå¾Ĺ": 2923,
      "ä»ĸèµ°": 2924,
      "ä»ĸåºĶå½ĵ": 2925,
      "ä¸įè®º": 2926,
      "ä¸Ģçľĭ": 2927,
      "ä¸Ģæīĭ": 2928,
      "ä¸Ģä½į": 2929,
      "å°Ħ": 2930,
      "æī¬": 2931,
      "éĩĬ": 2932,
      "èĩĤ": 2933,
      "æĥ³è±¡": 2934,
      "ç§Ł": 2935,
      "çľŁæŃ£": 2936,
      "å¿«ä¹Ĳ": 2937,
      "è§īå¾Ĺèĩªå·±": 2938,
      "äº²çĥŃ": 2939,
      "çº¢çļĦ": 2940,
      "åĭīå¼º": 2941,
      "éĹŃä¸Ĭ": 2942,
      "é¡¾ä¸įå¾Ĺ": 2943,
      "çīĽæķĻæİĪ": 2944,
      "åĽĽå¤§å¦Ī": 2945,
      "æĨĭ": 2946,
      "ä»ĸèĥ½": 2947,
      "ä¸įæĢķ": 2948,
      "ä¸įæ¸ħ": 2949,
      "ä¸įä½Ĩ": 2950,
      "åľ¨å¥¹": 2951,
      "åľ¨ä»ĸçļĦ": 2952,
      "åľ¨éĤ£éĩĮ": 2953,
      "åİ»çļĦ": 2954,
      "ç»ĥ": 2955,
      "èĢģèĢħ": 2956,
      "ä»ĸä»¬éĥ½": 2957,
      "ä»Ģä¹ĪçļĦ": 2958,
      "çļĦçŃ": 2959,
      "âĢĿãĢĤ": 2960,
      "æĻ´": 2961,
      "æĻĥ": 2962,
      "æķĻä»ĸä»¬": 2963,
      "åĲĪéĢĤ": 2964,
      "é¸Ń": 2965,
      "èīºæľ¯": 2966,
      "æŁ³å±": 2967,
      "æ¸Ĳæ¸Ĳ": 2968,
      "ä¸įåĩĨ": 2969,
      "ä¸įå¹¸": 2970,
      "è¿°": 2971,
      "ä¹ĸ": 2972,
      "ä½Ļ": 2973,
      "è¯į": 2974,
      "çĶľ": 2975,
      "å¼¯": 2976,
      "éĥ½å¾Ĺ": 2977,
      "å¤ļçļĦ": 2978,
      "å£¶": 2979,
      "çīºçī²": 2980,
      "ä»ĸçļĦè¯Ŀ": 2981,
      "å¯¹ä¸įèµ·": 2982,
      "éĺ¶": 2983,
      "æĪĲä¸Ģ": 2984,
      "æĪĲåĬŁ": 2985,
      "å¤ĸéĿ¢": 2986,
      "ä¹Łä¸įä¼ļ": 2987,
      "é¥°": 2988,
      "æĪĳä»¬çļĦ": 2989,
      "ä¹ĭä¸Ń": 2990,
      "éħ¸": 2991,
      "ä½İä¸ĭå¤´": 2992,
      "åŁİå¤ĸ": 2993,
      "éĻ¢åŃĲ": 2994,
      "ç¼ĵ": 2995,
      "æĬ¥ä»ĩ": 2996,
      "èµ¶å¿«": 2997,
      "åĹ½": 2998,
      "æ¼Ķ": 2999,
      "è¿ĲåĬ¨": 3000,
      "ä¸Ģä¸ĭåŃĲ": 3001,
      "èĥľåĪ©": 3002,
      "éº»çĥ¦": 3003,
      "éŃĤ": 3004,
      "å°ıé¡ºåĦ¿çļĦå¦Ī": 3005,
      "ä¸įè§ģ": 3006,
      "æĪª": 3007,
      "èĢĲ": 3008,
      "å¿Ĺ": 3009,
      "èµĮ": 3010,
      "æĬĦ": 3011,
      "æĬĸ": 3012,
      "ç¥Ŀ": 3013,
      "åĴĮä»ĸ": 3014,
      "çļĦçĲ": 3015,
      "ä¾¦": 3016,
      "ä¾Ľ": 3017,
      "éĻĦ": 3018,
      "è¾ĵ": 3019,
      "ä¸ĢçĤ¹ä¹Łä¸į": 3020,
      "åĲĮæĥħ": 3021,
      "åĽłä¸ºä»ĸ": 3022,
      "ä»İåīį": 3023,
      "æį§": 3024,
      "ä¹ĭéĹ´": 3025,
      "éħį": 3026,
      "çĸ¯": 3027,
      "åĪļåĪļ": 3028,
      "ç¾İçļĦ": 3029,
      "æ»¡äºĨ": 3030,
      "åĨ·æ·¡": 3031,
      "æĬĹæĪĺ": 3032,
      "çĵľ": 3033,
      "å¥ĩæĢª": 3034,
      "èĸĦ": 3035,
      "ä¸įçĶļ": 3036,
      "æĹı": 3037,
      "æĿ¥çľĭ": 3038,
      "åľ¨å®¶éĩĮ": 3039,
      "å¥¹åıĪ": 3040,
      "æ²¿": 3041,
      "åİ»ä½ľ": 3042,
      "æĥ¯": 3043,
      "å°ıåŃĲ": 3044,
      "ä½łæĺ¯": 3045,
      "éĩĮéķ¿": 3046,
      "è¿ĺè¦ģ": 3047,
      "å¤©ä¸ĭ": 3048,
      "éĴī": 3049,
      "å¸Ŀ": 3050,
      "åıĪæĺ¯": 3051,
      "éķĩ": 3052,
      "æİ§": 3053,
      "åĬ¨çļĦ": 3054,
      "æ±¡": 3055,
      "éĽ¶": 3056,
      "åĴ±ä»¬çļĦ": 3057,
      "è£³": 3058,
      "ç½Ĺ": 3059,
      "ç»ĵæŀľ": 3060,
      "ç»Ĩç»Ĩ": 3061,
      "ä¸įè¿ĩæĺ¯": 3062,
      "æķ´ä¸ª": 3063,
      "åı°ä¸Ĭ": 3064,
      "âĳł": 3065,
      "æĩĤå¾Ĺ": 3066,
      "æĶ¿åºľ": 3067,
      "æĹłåı¯å¦Ĥä½ķ": 3068,
      "åĿļåĨ³": 3069,
      "ä»ħ": 3070,
      "å¤®": 3071,
      "äºĨåĲ§": 3072,
      "åŃĶ": 3073,
      "å¾ģ": 3074,
      "æĿ¥å¾Ģ": 3075,
      "å¥¹åıª": 3076,
      "ä¼Ł": 3077,
      "æ²¡æĥ³åĪ°": 3078,
      "å¾ĹæĽ´": 3079,
      "åĪ°æĻļ": 3080,
      "æĥ¯äºĨ": 3081,
      "çľĭåĩºæĿ¥": 3082,
      "åį«": 3083,
      "å¥½åķ¦": 3084,
      "å°±åı¯ä»¥": 3085,
      "æĬĬèĩªå·±": 3086,
      "æ²¡æľīä¸ĢçĤ¹": 3087,
      "å£ģ": 3088,
      "èĦı": 3089,
      "å¯¹çĿĢ": 3090,
      "çº¹": 3091,
      "æ¬ł": 3092,
      "åºĶè¯¥": 3093,
      "æµ®": 3094,
      "å±ĭéĹ¨": 3095,
      "è¿ľå¤Ħ": 3096,
      "éĽħ": 3097,
      "åıįæĬĹ": 3098,
      "æĹ¢æĺ¯": 3099,
      "é¼ł": 3100,
      "å°ıå´Ķå¤ªå¤ª": 3101,
      "æĴĴ": 3102,
      "æķħæĦı": 3103,
      "éĵģçīĽ": 3104,
      "æĳĩå¤´": 3105,
      "åļ·": 3106,
      "ç»´æĮģ": 3107,
      "çĿĢäºĨ": 3108,
      "åľ¨åĮĹå¹³": 3109,
      "åĽĶ": 3110,
      "ä¸ĬåĵªåĦ¿": 3111,
      "èĢģçİĭ": 3112,
      "éĥ½æ²¡": 3113,
      "æŃª": 3114,
      "åıªåī©": 3115,
      "æ²¡æľīäºº": 3116,
      "çĦ¶çļĦ": 3117,
      "æİ©": 3118,
      "æģ³": 3119,
      "æģĭ": 3120,
      "éļĶ": 3121,
      "æĶ¾äºĨ": 3122,
      "è°ģçŁ¥éģĵ": 3123,
      "è·ŁæĪĳ": 3124,
      "æ¡ĥ": 3125,
      "ç´§è·ŁçĿĢ": 3126,
      "ç¼©": 3127,
      "è¡¨çİ°": 3128,
      "å²Ĥ": 3129,
      "çĮ«": 3130,
      "å»º": 3131,
      "èĭ±éĽĦ": 3132,
      "æķħæĦıçļĦ": 3133,
      "é¬¼åŃĲ": 3134,
      "ä¸įå¥½æĦıæĢĿ": 3135,
      "èĦĳè¢ĭ": 3136,
      "åı¹äºĨåı£æ°Ķ": 3137,
      "ä»½åĦ¿": 3138,
      "æĬķéĻį": 3139,
      "ä¾¦æİ¢": 3140,
      "çļĦéĤ£": 3141,
      "ä»Ļ": 3142,
      "ä¸įè®¸": 3143,
      "è¿Ī": 3144,
      "ä¹ĺ": 3145,
      "ç»ĩ": 3146,
      "æĬĬå®ĥ": 3147,
      "çĪ½": 3148,
      "çļĦè°": 3149,
      "ä»Ģä¹Īåĳ¢": 3150,
      "åºĦ": 3151,
      "åĮ¹": 3152,
      "åģ¶": 3153,
      "é«ĺäº¦éĻĢ": 3154,
      "æ±ª": 3155,
      "å¤ĸè¾¹": 3156,
      "ç»ıè¿ĩ": 3157,
      "åĲĮåŃ¦": 3158,
      "æĶ¾å¼ĥ": 3159,
      "é¥±": 3160,
      "æļĤ": 3161,
      "è¡ĹéĹ¨": 3162,
      "è·¯ä¸Ĭ": 3163,
      "å¤±äºĨ": 3164,
      "åħ¬åĽŃ": 3165,
      "èĮ¶æĪ¿": 3166,
      "çŀª": 3167,
      "éĨī": 3168,
      "çĵ¶": 3169,
      "åįİåĮĹ": 3170,
      "åħĦå¼Ł": 3171,
      "åĲ«çĿĢ": 3172,
      "ä¾µçķ¥": 3173,
      "åĺ±åĴĲ": 3174,
      "ºåĢĻ": 3175,
      "æ½": 3176,
      "ä»°": 3177,
      "ä»ĸå·²ç»ı": 3178,
      "ä¸ĢæĹ¶": 3179,
      "äººéĥ½": 3180,
      "åľ£": 3181,
      "å¾Ĵ": 3182,
      "æī¹": 3183,
      "çĿĢæīĭ": 3184,
      "åİ¨": 3185,
      "èµı": 3186,
      "ä¼Ĺ": 3187,
      "ä¼ºåĢĻ": 3188,
      "åı¯å°±": 3189,
      "èĢģæ¢ħ": 3190,
      "åĦ¿åª³å¦ĩ": 3191,
      "æŃī": 3192,
      "å¤ļå²ģ": 3193,
      "èµ°åĩºåİ»": 3194,
      "ä»ĸçļĦæīĭ": 3195,
      "æĻº": 3196,
      "åıĳçĶŁ": 3197,
      "åĸľçĪ±": 3198,
      "åĩĨå¤ĩ": 3199,
      "çļĦè¡Į": 3200,
      "åĳ³åĦ¿": 3201,
      "ä»ĸåıªå¥½": 3202,
      "æĮ£éĴ±": 3203,
      "èµĦæł¼": 3204,
      "çļĦè¡£æľį": 3205,
      "åĬªåĬĽ": 3206,
      "æŁ³å±¯çļĦ": 3207,
      "çļĦæ¶Īæģ¯": 3208,
      "å¤¸": 3209,
      "ä¸Ģå¤§": 3210,
      "ä¸Ģå¤Ħ": 3211,
      "æīĳ": 3212,
      "åĩ³": 3213,
      "åı¯ä¹Ł": 3214,
      "çĤķ": 3215,
      "æŃĩ": 3216,
      "åĿĬ": 3217,
      "éģĵçĲĨ": 3218,
      "éĻĲ": 3219,
      "æģ¼": 3220,
      "åĬ¨ä½ľ": 3221,
      "åħ¨èº«": 3222,
      "ç§ģ": 3223,
      "æī¾åĪ°äºĨ": 3224,
      "çŃīçŃī": 3225,
      "æµİ": 3226,
      "æĪĸæĺ¯": 3227,
      "çĲĥ": 3228,
      "æ°¸è¿ľä¸į": 3229,
      "åĩĨçŁ¥éģĵ": 3230,
      "æ®ĭ": 3231,
      "åħŃåįģ": 3232,
      "ä»ĸçļĦèº«": 3233,
      "æŃ¦å°ĨåĨĽ": 3234,
      "åĢ¼å¾Ĺ": 3235,
      "æĢĢçĸĳ": 3236,
      "æ§Ĳæłĳ": 3237,
      "æİ§åĪ¶": 3238,
      "çĴ": 3239,
      "ĨåĹ¦": 3240,
      "ä»ĸçļĦèĦ¸": 3241,
      "äºĨèµ°": 3242,
      "äºĨåĩºæĿ¥": 3243,
      "æĺ¯ä»ĸçļĦ": 3244,
      "ä¸Ģåıª": 3245,
      "ä¸Ģä¸¤": 3246,
      "ä¸ĢéĿ¢": 3247,
      "ä¸Ģç¬ĳ": 3248,
      "ä¸Ģé¡¿": 3249,
      "åĪ®": 3250,
      "å¾ĭ": 3251,
      "åľ¨æĪĳ": 3252,
      "åľ¨å¤§": 3253,
      "å¥¹å°±": 3254,
      "å¥¹æĥ³": 3255,
      "ä»¬çļĦ": 3256,
      "ç»¸": 3257,
      "ç»Ħ": 3258,
      "èĢģçĪ·": 3259,
      "ä½łå°±": 3260,
      "çĤ¹å¿ĥ": 3261,
      "äºĭåĦ¿": 3262,
      "ä¸ĭéĿ¢": 3263,
      "åĵĨåĹ¦": 3264,
      "éģŃ": 3265,
      "ä»Ģä¹ĪæĹ¶åĢĻ": 3266,
      "å¤´æĿ¥": 3267,
      "åĮł": 3268,
      "äºĨä¸ĢåĪĩ": 3269,
      "æķĻå¥¹": 3270,
      "åĬŀäºĭ": 3271,
      "åģĩè£ħ": 3272,
      "çļĦäºĭæĥħ": 3273,
      "è½»æĺĵ": 3274,
      "æĸĩç«ł": 3275,
      "å¥½è±¡æĺ¯": 3276,
      "é¸Ł": 3277,
      "ä¸Ģæł·çļĦ": 3278,
      "é¥¿æŃ»": 3279,
      "æĢĴæ°Ķ": 3280,
      "çĿģå¼Ģ": 3281,
      "çĽ¼æľĽ": 3282,
      "çļĦçĲĨ": 3283,
      "ľåŃĲ": 3284,
      "çļĦåħ³ç³»": 3285,
      "ä»ĸå¿ħ": 3286,
      "ä»ĸæĢ»": 3287,
      "ä¸įèĩ³äºİ": 3288,
      "å°Ķ": 3289,
      "åĪ¤": 3290,
      "æ²¡æķ¢": 3291,
      "å°ıå¿ĥ": 3292,
      "ä½łåİ»": 3293,
      "çĤ¹ä»Ģä¹Ī": 3294,
      "æĬĬæīĭ": 3295,
      "æĥ³æĥ³": 3296,
      "å¤©æ´¥": 3297,
      "çĶŁæ°Ķ": 3298,
      "éĻªçĿĢ": 3299,
      "æķĻåĳĺ": 3300,
      "çĥ«": 3301,
      "èĬ¦": 3302,
      "å¤Ħéķ¿": 3303,
      "æµª": 3304,
      "è°ģä¹Łä¸į": 3305,
      "æįŁ": 3306,
      "æĢİä¹Īåķ¦": 3307,
      "æĢİä¹ĪåĬŀåĳ¢": 3308,
      "æľīçĤ¹åıĳ": 3309,
      "åħ³å¿ĥ": 3310,
      "åŁİéĹ¨": 3311,
      "èĪĮ": 3312,
      "æľºåħ³": 3313,
      "çļĦè¡Ģ": 3314,
      "éĵºåŃĲ": 3315,
      "åħ¶å®ŀ": 3316,
      "å§Ĳä¸Ī": 3317,
      "ä»·éĴ±": 3318,
      "æĭļåĳ½": 3319,
      "çļĦæ°Ķ": 3320,
      "ä¸įåľ¨": 3321,
      "äºĨèĩªå·±": 3322,
      "æľīéĴ±": 3323,
      "ä¸ŃéĹ´": 3324,
      "æĸľ": 3325,
      "ä¾®": 3326,
      "éĢ¼": 3327,
      "åĪ«äººçļĦ": 3328,
      "ä½¿æĪĳ": 3329,
      "å¢ĥ": 3330,
      "ç¨Ģ": 3331,
      "æĹ©å°±": 3332,
      "æİ¥åıĹ": 3333,
      "è®¾èĭ¥": 3334,
      "ç¬¬äºĮå¤©": 3335,
      "éĻ·èĲ½": 3336,
      "ä½İå£°çļĦè¯´": 3337,
      "å¯¡å¦ĩ": 3338,
      "ä¸´": 3339,
      "çļĦæĦıæĢĿ": 3340,
      "ä¸įæĿ¥": 3341,
      "ä¸įå¼Ģ": 3342,
      "äºĨä»ĸçļĦ": 3343,
      "æľ«": 3344,
      "åĪĻ": 3345,
      "éĥ½è¢«": 3346,
      "éĩĮéĿ¢": 3347,
      "ä»Ģä¹Īä¹Łä¸į": 3348,
      "æĹ¶ä»£": 3349,
      "ç»Ļå¤§å®¶": 3350,
      "ä¾ĭ": 3351,
      "è·ª": 3352,
      "æ³Ħ": 3353,
      "æģŃ": 3354,
      "è½¦ä¸Ĭ": 3355,
      "é¥¥": 3356,
      "å®ŀéĻħ": 3357,
      "å¥¹çļĦçľ¼": 3358,
      "ç¥ģåħĪçĶŁ": 3359,
      "æĿİåĽĽ": 3360,
      "ç«ĭçĿĢ": 3361,
      "åĶ¤": 3362,
      "åĶ§": 3363,
      "èĲ½åľ¨": 3364,
      "ç¼İ": 3365,
      "èĪ¬": 3366,
      "ç»ĵæĿŁ": 3367,
      "æĴŃ": 3368,
      "èĮ¶é¦Ĩ": 3369,
      "æ°ĳæĹı": 3370,
      "å°ģä¿¡": 3371,
      "çļĦèħ¿": 3372,
      "çļĦäºĨ": 3373,
      "åı¨": 3374,
      "å¿ł": 3375,
      "å¥¹æĬĬ": 3376,
      "åĽº": 3377,
      "ä¸ĬéĿ¢": 3378,
      "åİ»ä¹°": 3379,
      "èĩªä¿¡": 3380,
      "æŃĮ": 3381,
      "è¦ģæĬĬ": 3382,
      "å¦¥": 3383,
      "å¯¹ä»ĺ": 3384,
      "åĩłå¹´": 3385,
      "äºĨä¸Ģå¤§": 3386,
      "åĪ«æīŃ": 3387,
      "å®£ä¼ł": 3388,
      "å®ļäºĨ": 3389,
      "æĶ¾çĿĢ": 3390,
      "æµħ": 3391,
      "éªĦ": 3392,
      "å¿ĥä¸ŃçļĦ": 3393,
      "ç´§ç´§": 3394,
      "é»ĳæļĹ": 3395,
      "ä»ĸæĥ³èµ·": 3396,
      "è§£éĩĬ": 3397,
      "ä»ĸçļĦèĥ": 3398,
      "æ²¡æ³ķåŃĲ": 3399,
      "å½¢å®¹": 3400,
      "èĢ»è¾±": 3401,
      "å¾Ģå¤ĸèµ°": 3402,
      "ä»²çŁ³": 3403,
      "åĬ¿åĬĽ": 3404,
      "è¯´ä¸įå®ļ": 3405,
      "åŃŁçŁ³": 3406,
      "çļĦèĢģ": 3407,
      "å®ģ": 3408,
      "å°¾": 3409,
      "åİ»åĳ¢": 3410,
      "æ²¡èĥ½": 3411,
      "ç»Ł": 3412,
      "ä¹Łä¸įæĺ¯": 3413,
      "å¥½çľĭ": 3414,
      "å¥½ä¼¼": 3415,
      "æĸ½": 3416,
      "å¸Ń": 3417,
      "èĩªå·±æĺ¯": 3418,
      "éĴ±å¤ªå¤ª": 3419,
      "å±ŀ": 3420,
      "åĴĮæ°Ķ": 3421,
      "æīĵæŀ¶": 3422,
      "è§ģåĪ°": 3423,
      "å¼ĢéĹ¨": 3424,
      "çİī": 3425,
      "è´¼": 3426,
      "åıĳçİ°": 3427,
      "èĢģäººå®¶": 3428,
      "åĬŀåħ¬": 3429,
      "æĭ¿èµ·": 3430,
      "æµĳ": 3431,
      "è·Łä»ĸ": 3432,
      "äº²åıĭ": 3433,
      "åĨ³ä¸į": 3434,
      "æŁĲ": 3435,
      "åģĩèĭ¥ä»ĸ": 3436,
      "æ£µ": 3437,
      "ç½¢": 3438,
      "ä¸¤ä¸ªäºº": 3439,
      "æ¯ĽçĹħ": 3440,
      "ä»»ä½ķäºº": 3441,
      "æºĲ": 3442,
      "ä¼¤å¿ĥ": 3443,
      "æĹģè¾¹": 3444,
      "ç²®é£Ł": 3445,
      "èĥĨåŃĲ": 3446,
      "åĵĪåĵĪ": 3447,
      "èĥ¡åĲĮéĩĮ": 3448,
      "çļĦè·ĳ": 3449,
      "åºĨç¥Ŀ": 3450,
      "åĨ¬å¤©": 3451,
      "çĶĺå¿ĥ": 3452,
      "çļĦç¾İ": 3453,
      "çĴĥ": 3454,
      "ï¼Ī": 3455,
      "ï¼ī": 3456,
      "çļĦåıĳ": 3457,
      "çļĦåĺ´": 3458,
      "ä»ĸæģ¨": 3459,
      "ä¸įç®Ĺ": 3460,
      "æĪĴ": 3461,
      "å®ª": 3462,
      "è¯Ħ": 3463,
      "çĿĢå¥¹": 3464,
      "çĶŃ": 3465,
      "å¥¹è¿ĺ": 3466,
      "éĥ½è¦ģ": 3467,
      "ä»Ģä¹Īäºĭ": 3468,
      "å¤ªå¹³": 3469,
      "è¡«": 3470,
      "èµ°åĲ§": 3471,
      "å¾Īä¸į": 3472,
      "çĶ¨åĬĽ": 3473,
      "å¿ħè¦ģ": 3474,
      "æ±¤": 3475,
      "é¢Ĺ": 3476,
      "å¥³åŃĲ": 3477,
      "å¼ŁåħĦ": 3478,
      "ä»ĸä¸įèĤ¯": 3479,
      "æĭĽå¾ħ": 3480,
      "å®īåħ¨": 3481,
      "éĶħ": 3482,
      "å¦Ĥä»Ĭ": 3483,
      "æĤ£": 3484,
      "æĲģ": 3485,
      "å©Ĩå©Ĩ": 3486,
      "å¤±åİ»äºĨ": 3487,
      "èĥ¡åŃĲ": 3488,
      "é»ĦåħĪçĶŁ": 3489,
      "ä¹Łè®¸æĺ¯": 3490,
      "éģĩä¸Ĭ": 3491,
      "éģĩè§ģ": 3492,
      "çĵ¦": 3493,
      "è´£ä»»": 3494,
      "è¹²": 3495,
      "è¯»ä¹¦": 3496,
      "èĨĿ": 3497,
      "åıĤåĬł": 3498,
      "æĬµæĬĹ": 3499,
      "çļĦæľºä¼ļ": 3500,
      "ä»ĸä¹Łä¸į": 3501,
      "ä»ĸå¹¶ä¸į": 3502,
      "ä¸įå¯¹": 3503,
      "æĪĳåľ¨": 3504,
      "ä¸ªåŃĲ": 3505,
      "è¿ĻåĽŀ": 3506,
      "è¿Ļæ¬¡": 3507,
      "ä¼´": 3508,
      "è¯´åĲ§": 3509,
      "èĢģç¨ĭ": 3510,
      "åĦ¿æĿ¥": 3511,
      "å°ıå¦ŀåŃĲ": 3512,
      "æĥ³äºĨ": 3513,
      "ä¼ļéķ¿": 3514,
      "å¤ļå¤§": 3515,
      "èµ°åĩº": 3516,
      "è¾£": 3517,
      "åĩłæŃ¥": 3518,
      "æĹłæ³ķ": 3519,
      "æĹłé¡»": 3520,
      "æīĢæľīçļĦ": 3521,
      "æŃ»åİ»": 3522,
      "å¤ĸåĽ½": 3523,
      "æ¬£": 3524,
      "å¿«æ´»": 3525,
      "è¿Ļä¹Īä¸Ģ": 3526,
      "ä»ĸä¸įæĦ¿": 3527,
      "ä¸ŃåĽ½çļĦ": 3528,
      "éĩĳéĴ±": 3529,
      "éĹŃä¸ĬäºĨ": 3530,
      "éĹ²çĿĢ": 3531,
      "æ¯«ä¸į": 3532,
      "éĥ¨åĪĨ": 3533,
      "ä¾ĿçĦ¶": 3534,
      "èĪįä¸įå¾Ĺ": 3535,
      "åĹĵåŃĲ": 3536,
      "éªĦåĤ²": 3537,
      "ä»ĸåı¯ä»¥": 3538,
      "ä»ĸæŀģ": 3539,
      "ä¸ĢåĲĳ": 3540,
      "å®Ĺ": 3541,
      "æĪĳåıª": 3542,
      "æĪĳåĴĮ": 3543,
      "æľīä¸¤": 3544,
      "æ²«": 3545,
      "åı¯æģ¶": 3546,
      "ä¹Łè¦ģ": 3547,
      "æĥŃ": 3548,
      "å¥½ä¸įå¥½": 3549,
      "ä½łä¸į": 3550,
      "çĶŁçļĦ": 3551,
      "çļĦçł": 3552,
      "ä½ľçļĦ": 3553,
      "å¾Īå¤§": 3554,
      "å¾Īå¿«çļĦ": 3555,
      "æīĵçĿĢ": 3556,
      "è¾¾": 3557,
      "çļĦäººéĥ½": 3558,
      "å°ĳçĪ·": 3559,
      "å¤§å®¶çļĦ": 3560,
      "æĦŁæ¿Ģ": 3561,
      "å®ĥçļĦ": 3562,
      "ç©ºä¸Ń": 3563,
      "æĲĢ": 3564,
      "æĲĤ": 3565,
      "ç¼ĺ": 3566,
      "æľĭåıĭä»¬": 3567,
      "åľºéķ¿": 3568,
      "å¦Īå¦ĪçļĦ": 3569,
      "æ´ĭäºº": 3570,
      "å¤ľéĩĮ": 3571,
      "ä¸ĸçķĮä¸Ĭ": 3572,
      "ä¹¡ä¸ĭ": 3573,
      "è¦ģä¸įçĦ¶": 3574,
      "ä½İä¸ĭå¤´åİ»": 3575,
      "å®ªåħµ": 3576,
      "èª": 3577,
      "é¹": 3578,
      "äºĨå¥¹": 3579,
      "æĺ¯ä»ĸ": 3580,
      "æĪĳæĬĬ": 3581,
      "æľīå¤ļå°ĳ": 3582,
      "åİ»åĲ§": 3583,
      "éĥ½åı¯ä»¥": 3584,
      "ä½łçŁ¥éģĵ": 3585,
      "æĭĸ": 3586,
      "æĬĬæĪĳ": 3587,
      "è¿ĺåľ¨": 3588,
      "äºĭä½ľ": 3589,
      "æĦ¤": 3590,
      "è¿ĩçļĦ": 3591,
      "å¤´åĦ¿": 3592,
      "å±ģ": 3593,
      "çļĦçĸ": 3594,
      "èµ°å¼Ģ": 3595,
      "æ¯ģ": 3596,
      "æ´ģ": 3597,
      "æĻ¨": 3598,
      "æīĵçīĮ": 3599,
      "æĺİåħĪçĶŁ": 3600,
      "ä½¿ä»ĸä»¬": 3601,
      "è´¨": 3602,
      "é«ĺå¦Ī": 3603,
      "ç§¯": 3604,
      "åŃ¦ä¼ļ": 3605,
      "åŃ¦éĹ®": 3606,
      "å¥³çļĦ": 3607,
      "æľĢå¤§çļĦ": 3608,
      "è¢«æįķ": 3609,
      "èĭ¥éľŀ": 3610,
      "åħīèį£": 3611,
      "åĵªä¸ª": 3612,
      "æĦŁåĬ¨": 3613,
      "éħ¬": 3614,
      "åĥıä¸ª": 3615,
      "å¿ĺè®°": 3616,
      "ç©¿ä¸Ĭ": 3617,
      "åĬłä¸Ĭ": 3618,
      "åİŁæĿ¥": 3619,
      "çĥ§é¥¼": 3620,
      "æ¸¸è¡Į": 3621,
      "ç©¶ç«Ł": 3622,
      "æ¬ºä¾®": 3623,
      "åĳĨåĳĨçļĦçľĭçĿĢ": 3624,
      "ç¨įå¾®": 3625,
      "ç¯ĩ": 3626,
      "«èĬ¦": 3627,
      "çļĦçľ¼çĿĽ": 3628,
      "äºķ": 3629,
      "åıĶ": 3630,
      "ä¸įå¤Ł": 3631,
      "ä¸Ģæ°Ķ": 3632,
      "ä¸Ģè¿Ľ": 3633,
      "æĪĳå¾Ī": 3634,
      "å¥¹é¡»": 3635,
      "å¾Ĺåĩº": 3636,
      "ä¹Łèĥ½": 3637,
      "èĢĮæ²¡æľī": 3638,
      "éĥ½æ²¡æľī": 3639,
      "ä½łè¦ģ": 3640,
      "çĤ¹åĦ¿": 3641,
      "æĥ³ä¸įåĩº": 3642,
      "å¤©çļĦ": 3643,
      "å¤ļæķ°": 3644,
      "çļĦç¤": 3645,
      "çļĦç®": 3646,
      "åĿĳ": 3647,
      "æĹ¥æľ¬é¬¼åŃĲ": 3648,
      "éĢĽ": 3649,
      "èĤĥ": 3650,
      "è½¦çļĦ": 3651,
      "ç´«": 3652,
      "åı«ä»ĸ": 3653,
      "æ¡Ī": 3654,
      "åĨ³å¿ĥ": 3655,
      "ç³Ł": 3656,
      "åĳĬè¯īæĪĳ": 3657,
      "ä¸įæķ¢åĨį": 3658,
      "éĢģåĪ°": 3659,
      "æĿĢäºº": 3660,
      "åİŁåĽł": 3661,
      "çİĭèĢģå¤ªå¤ª": 3662,
      "æĶ¹äºĨ": 3663,
      "å¢ŀåĬł": 3664,
      "çļĦç²¾": 3665,
      "åģ·åģ·çļĦ": 3666,
      "æļĤæĹ¶": 3667,
      "æ½®": 3668,
      "ä»ĸåĲĳ": 3669,
      "å°ļ": 3670,
      "æĪĳåĳ¢": 3671,
      "æĹħ": 3672,
      "åĩ¤": 3673,
      "çĤ¹éĴŁ": 3674,
      "è¦ģç´§": 3675,
      "æĬĬè¯Ŀ": 3676,
      "ä¸ºéļ¾": 3677,
      "åĵĢ": 3678,
      "å¯º": 3679,
      "éĴ±é»ĺåĲŁ": 3680,
      "åĿİ": 3681,
      "éĻª": 3682,
      "æīĭæĮĩ": 3683,
      "æĻķ": 3684,
      "çº¯": 3685,
      "éĺĶ": 3686,
      "è¢Ħ": 3687,
      "åħ¨æĺ¯": 3688,
      "æĸ¹ä¾¿": 3689,
      "åķ¼": 3690,
      "æľĢå¥½": 3691,
      "æĳĬ": 3692,
      "åĵªæĢķ": 3693,
      "éĶģ": 3694,
      "çĲĨæĥ³": 3695,
      "éĤ£ä¸ªäºº": 3696,
      "å¿ĥéĩĮè¯´": 3697,
      "å¤±è´¥": 3698,
      "çĿ¡è§ī": 3699,
      "æ°ĳä¼ļ": 3700,
      "ä¸Ģå¤©åĪ°æĻļ": 3701,
      "é¦ĻçĥŁ": 3702,
      "çıŃ": 3703,
      "æĬĵä½ı": 3704,
      "åıĮæīĭ": 3705,
      "åŃĺåľ¨": 3706,
      "å¼ķèµ·": 3707,
      "æĽ¾ç»ı": 3708,
      "èĢģå¤ªå©Ĩ": 3709,
      "çİ©èīºåĦ¿": 3710,
      "çĸ²ä¹ı": 3711,
      "ç°": 3712,
      "èļ": 3713,
      "çļĦåĳ¢": 3714,
      "ä»ģ": 3715,
      "ä»ĸèĢģ": 3716,
      "ä»ĸå¦ĪçļĦ": 3717,
      "ä¸įå®ļ": 3718,
      "ä¸įåºĶå½ĵ": 3719,
      "ä¸įåįķ": 3720,
      "ä¸ĢçļĦ": 3721,
      "ä¸ĢåĲĮ": 3722,
      "æĪĳä¼ļ": 3723,
      "çĶ²": 3724,
      "å¥¹å·²": 3725,
      "å¤§äºĭ": 3726,
      "ä¹Łå¾Ī": 3727,
      "ä¹Łå°±æĺ¯": 3728,
      "åĨ¯": 3729,
      "èĢģåĪĺ": 3730,
      "å¥½æŃ¹": 3731,
      "å°ıä¸ī": 3732,
      "å¿ĥçľ¼": 3733,
      "åĢį": 3734,
      "ä½ľä¸º": 3735,
      "æĹ¥æľ¬åĨĽ": 3736,
      "éĢĨ": 3737,
      "äºĮæĿ¥": 3738,
      "äºĮå¦ŀ": 3739,
      "çŃ¾": 3740,
      "åıĳçĿĢ": 3741,
      "æ¬¾": 3742,
      "é¥¶": 3743,
      "è¢«æĹ¥æľ¬äºº": 3744,
      "ä»İæŃ¤": 3745,
      "æıį": 3746,
      "æĸĩåŃĹ": 3747,
      "å®īéĿĻ": 3748,
      "åĺ´å·´": 3749,
      "èĲ½æ³ª": 3750,
      "åĳĬè¯īä»ĸ": 3751,
      "çłĸ": 3752,
      "èĥ¡æ¶Ĥ": 3753,
      "å¤§æ¦Ĥæĺ¯": 3754,
      "åĪ©çĶ¨": 3755,
      "è§£åĨ³": 3756,
      "æĮ£æīİ": 3757,
      "çľģå¾Ĺ": 3758,
      "ç¨ĭéķ¿é¡º": 3759,
      "ä»ĹçĿĢ": 3760,
      "çļĦçĹħ": 3761,
      "éŀłèº¬": 3762,
      "åİ¨æĪ¿": 3763,
      "ä»ĸæĺ¯ä¸ª": 3764,
      "ä¸įåįģåĪĨ": 3765,
      "äººåĴĮ": 3766,
      "åħĶ": 3767,
      "çĿĢè¯´": 3768,
      "ä½łä¹Ł": 3769,
      "ä¸Ńå±±": 3770,
      "éĩĮè¾¹": 3771,
      "è¦ģæ±Ĥ": 3772,
      "éĴĪ": 3773,
      "èµ°è¿Ľ": 3774,
      "ä½ľä¸ª": 3775,
      "æĦıä¹ī": 3776,
      "ä¸¤åıª": 3777,
      "åī¯": 3778,
      "åīĥ": 3779,
      "è¢ĸ": 3780,
      "åıĳè¡¨": 3781,
      "ç§°": 3782,
      "å¿ħèĥ½": 3783,
      "èįĴ": 3784,
      "å§¨": 3785,
      "åĮĹæµ·": 3786,
      "é£ĺ": 3787,
      "æĥħå½¢": 3788,
      "çĹĴ": 3789,
      "è·ĳäºĨ": 3790,
      "è·ĳåĪ°": 3791,
      "ç½ļ": 3792,
      "åĳĬè¯īäºĨ": 3793,
      "ä¸ĥåħ«": 3794,
      "æĹ¢çĦ¶": 3795,
      "ä¼¼ä¹İæĺ¯": 3796,
      "ç¾İä¸½": 3797,
      "æ°¸è¿ľæĺ¯": 3798,
      "å°Ĩè¦ģ": 3799,
      "éĤ£æł·çļĦ": 3800,
      "å«ĤåŃĲ": 3801,
      "ç¤¼çī©": 3802,
      "ä»·åĢ¼": 3803,
      "åĨĴéĻ©": 3804,
      "èº²å¼Ģ": 3805,
      "èĳ«èĬ¦": 3806,
      "åĩıå°ĳ": 3807,
      "å¿§èĻĳ": 3808,
      "æ£ĢæŁ¥": 3809,
      "çļĦè¢«": 3810,
      "èĶ": 3811,
      "ä»ĸè¿ĺæĺ¯": 3812,
      "æĺ¨": 3813,
      "æĺ¯åĲ¦": 3814,
      "ä¸Ģçīĩ": 3815,
      "ä¸Ģè¾ĪåŃĲ": 3816,
      "ä¸Ģè¶Ł": 3817,
      "äººç±»": 3818,
      "æĪĳæīį": 3819,
      "æĹ¦": 3820,
      "åľ¨è¿Ļä¸ª": 3821,
      "åľ¨è¡Ĺä¸Ĭ": 3822,
      "åľ¨éĻ¢ä¸Ń": 3823,
      "ä¸ªåĦ¿": 3824,
      "å¥¹ä¾¿": 3825,
      "å¾Ĺä½ı": 3826,
      "åĩºä¸Ģ": 3827,
      "èĩªå±ħ": 3828,
      "ä½łè¦ģæĺ¯": 3829,
      "æłª": 3830,
      "åı¯æĺ¯å¥¹": 3831,
      "åĮĨ": 3832,
      "èµ°çĿĢ": 3833,
      "çĽĬ": 3834,
      "å¾Īå¤§çļĦ": 3835,
      "æĹ¥æľ¬çļĦ": 3836,
      "ä¸īåĲĪ": 3837,
      "å½ĵçļĦ": 3838,
      "åĬ¨æīĭ": 3839,
      "çŁ¥éģĵäºĨ": 3840,
      "åħ¨å®¶": 3841,
      "ç§¦": 3842,
      "æŃ£å¦Ĥ": 3843,
      "åıĹè¿ĩ": 3844,
      "æĪĳçļĦå¿ĥ": 3845,
      "æ£Ĵ": 3846,
      "æĸ°æ°ĳä¼ļ": 3847,
      "åıįä¹ĭ": 3848,
      "å¤§èµ¤åĮħçļĦ": 3849,
      "äº®çļĦ": 3850,
      "è¡£è£³": 3851,
      "éĿĻéĿĻ": 3852,
      "åĭ¾": 3853,
      "è¿ĳæĿ¥": 3854,
      "å¢Ļä¸Ĭ": 3855,
      "çķĻçĿĢ": 3856,
      "åĨįè¯´ä»Ģä¹Ī": 3857,
      "æŀľçĦ¶": 3858,
      "ç»¿çļĦ": 3859,
      "éĴŁå¤´": 3860,
      "éĢĥåĩº": 3861,
      "ä¸įä½ıçļĦ": 3862,
      "åĬĿåĳĬ": 3863,
      "éª¨å¤´": 3864,
      "åĮ»éĻ¢": 3865,
      "èĢģå¤ªçĪ·": 3866,
      "å¸½åŃĲ": 3867,
      "ä»Ĩäºº": 3868,
      "æĶ¾å¼ĥäºĨ": 3869,
      "çĿģå¼Ģçľ¼": 3870,
      "çļĦå°±": 3871,
      "çļĦåľ°": 3872,
      "ä¸įä¿¡": 3873,
      "æĺ¯çĶ±": 3874,
      "å®¡": 3875,
      "æĪĳéĹ®": 3876,
      "åħ½": 3877,
      "åľ¨å®¶": 3878,
      "åľ¨å¹³æĹ¥": 3879,
      "åı¯èĥ½": 3880,
      "å¤§äºĨ": 3881,
      "è¯´åĪ°": 3882,
      "åĩºçĤ¹": 3883,
      "å¥½å¥½çļĦ": 3884,
      "åĦ¿ä»¬": 3885,
      "èĩªåĤ²": 3886,
      "åĴ³": 3887,
      "æĭ§": 3888,
      "éĿ©": 3889,
      "åĵĩ": 3890,
      "æľ¬æĥ³": 3891,
      "åºŁ": 3892,
      "éķ¿çļĦ": 3893,
      "æ³¡": 3894,
      "æīĵä»Ĺ": 3895,
      "åģ¥": 3896,
      "æĺİçļĦ": 3897,
      "èĤ¥": 3898,
      "é«ĺçļĦ": 3899,
      "æĪĲçļĦ": 3900,
      "æ¸º": 3901,
      "æ´»ä¸ĭåİ»": 3902,
      "æµĭ": 3903,
      "è¿Ļä¹Īä¸ª": 3904,
      "èĬ±èįī": 3905,
      "æĿİèĢģäºº": 3906,
      "æ¢³": 3907,
      "åħ³åĪĩ": 3908,
      "èħ®": 3909,
      "æĲľ": 3910,
      "åĸĿéħĴ": 3911,
      "èĪŀ": 3912,
      "æľĪçīĻ": 3913,
      "æĢ¥äºİ": 3914,
      "çªģ": 3915,
      "æĴŀ": 3916,
      "æĶ¹ä¸º": 3917,
      "ä¿ĿæĬ¤": 3918,
      "ç³Ĭç³Ĭ": 3919,
      "çļĦèĥ¡": 3920,
      "æĬ±çĿĢ": 3921,
      "çļĦèĭ±": 3922,
      "è¸¢": 3923,
      "æĩĴå¾Ĺ": 3924,
      "æģ°å¥½": 3925,
      "å¹¿æĴŃ": 3926,
      "çľ¨å·´": 3927,
      "éķĩå®ļ": 3928,
      "¢å¤į": 3929,
      "³èĩĤ": 3930,
      "æ¾": 3931,
      "çļĦåĵį": 3932,
      "ä»ĸéĹ®": 3933,
      "ä»ĸæĢķ": 3934,
      "ä¸Ģå¯¹": 3935,
      "äººæĺ¯": 3936,
      "å¥¹è¦ģ": 3937,
      "è¿Ļæīį": 3938,
      "å·¾": 3939,
      "ä¹Łéĥ½": 3940,
      "ä¹Łåı¯ä»¥": 3941,
      "åĨ¤": 3942,
      "è¯´ä¸įä¸Ĭ": 3943,
      "èĢģé¼ł": 3944,
      "å¥½å®¹æĺĵ": 3945,
      "éĤ£ä¸¤ä¸ª": 3946,
      "åĴĤ": 3947,
      "æĭĲ": 3948,
      "æĬĬéĴ±": 3949,
      "æĹ¥çļĦ": 3950,
      "åĴĮå¥¹": 3951,
      "èµ°è·¯": 3952,
      "çĽħ": 3953,
      "æŀĹ": 3954,
      "æģ¢å¤į": 3955,
      "è´º": 3956,
      "å¹³å®ī": 3957,
      "éĺ®": 3958,
      "çŃĭ": 3959,
      "å¹´åīį": 3960,
      "ç§ĺ": 3961,
      "æħķ": 3962,
      "æĸ¹çļĦ": 3963,
      "å®ŀçļĦ": 3964,
      "å®ŀè¯Ŀ": 3965,
      "ä¹°äºĨ": 3966,
      "éĽĩ": 3967,
      "æ»ĳ": 3968,
      "éĶ£": 3969,
      "éĻ¢åŃĲéĩĮ": 3970,
      "æĤ¦": 3971,
      "ä½ķå¿ħ": 3972,
      "çł¸": 3973,
      "æĹ©å·²": 3974,
      "å²Ĺ": 3975,
      "çĮ´": 3976,
      "æ¯ıä¸Ģ": 3977,
      "æ¯ıå¤©": 3978,
      "æĴ¤": 3979,
      "æ¼Ĩ": 3980,
      "æļĹç¤º": 3981,
      "çĬ¶": 3982,
      "è´£å¤ĩ": 3983,
      "æ²ĻåŃĲ": 3984,
      "çļĦèĤī": 3985,
      "åĮ»çĶŁ": 3986,
      "å°Ĭä¸¥": 3987,
      "è¯¦ç»Ĩ": 3988,
      "ä¸īåĲĪç¥¥": 3989,
      "»çĴĥ": 3990,
      "ä»ĸä¸İ": 3991,
      "ä»ĸçľŁ": 3992,
      "ä»ĸæĦ¿æĦı": 3993,
      "ä¸įçĶ±çļĦ": 3994,
      "æĺ¯å¾Ī": 3995,
      "ä¸Ģç¾¤": 3996,
      "æĪĳä¸įæĺ¯": 3997,
      "æī§": 3998,
      "çĿĢå¤§": 3999,
      "åİħ": 4000,
      "åľ¨å±ĭéĩĮ": 4001,
      "èµļ": 4002,
      "è¿Ļä½į": 4003,
      "å¤§çĪ·": 4004,
      "å¥½äºº": 4005,
      "æĬĬè½¦": 4006,
      "åıªä¼ļ": 4007,
      "èĩªå·±è¯´": 4008,
      "åĮĢ": 4009,
      "è·º": 4010,
      "å¯¹ä»ĸ": 4011,
      "å¯¹äºĨ": 4012,
      "åĨįæĿ¥": 4013,
      "åľ°çļĦ": 4014,
      "è¾Ľ": 4015,
      "çº³": 4016,
      "æħĪ": 4017,
      "åĲ¬è¯´": 4018,
      "æŃ»åľ¨": 4019,
      "å¤ĸçļĦ": 4020,
      "æ³ķåŃĲ": 4021,
      "æĸ¹åħŃ": 4022,
      "èº«åĪĨ": 4023,
      "å¥¹çļĦå¿ĥ": 4024,
      "ä»ĸä¸įä¾¿": 4025,
      "éĽĢ": 4026,
      "æĸĩæĺİ": 4027,
      "æĸĩèīº": 4028,
      "çľĭè§ģè¿ĩ": 4029,
      "éļıæĹ¶": 4030,
      "èī²çļĦ": 4031,
      "æ´ĭè½¦": 4032,
      "é¸¦": 4033,
      "åĹ¯": 4034,
      "è½¬èº«": 4035,
      "äº¡äºĨ": 4036,
      "å¤ŁäºĨ": 4037,
      "æĳĩäºĨ": 4038,
      "æĬ¬å¤´": 4039,
      "è¿·è¿·": 4040,
      "åŀ«": 4041,
      "çĽĺç®Ĺ": 4042,
      "æ¨¡æł·": 4043,
      "ç»Ħç»ĩ": 4044,
      "æĿİåĽĽå¦Ī": 4045,
      "çļĦä½ľ": 4046,
      "å¤º": 4047,
      "ä»ĸèĩªå·±çļĦ": 4048,
      "ä¸įåĩºæĿ¥": 4049,
      "ä¸įåĸľæ¬¢": 4050,
      "äºĨæĪĳ": 4051,
      "äºĨä¸Ģä¸ª": 4052,
      "æĺ¯è°ģ": 4053,
      "ä¸Ģå¹´": 4054,
      "ä¸Ģå¤ľ": 4055,
      "æ²¡åĬŀæ³ķ": 4056,
      "å¾ĹæħĮ": 4057,
      "æĥ§": 4058,
      "æĥ©": 4059,
      "è¯´ä¸įåĩº": 4060,
      "å¥½æķĻ": 4061,
      "éĤ£æĹ¶åĢĻ": 4062,
      "éĤ£ä½į": 4063,
      "å¦Ĵ": 4064,
      "æĬĬè¿Ļ": 4065,
      "è¿ĺåı¯ä»¥": 4066,
      "æĥ³åİ»": 4067,
      "èĥ½å¤Ł": 4068,
      "å±ł": 4069,
      "æ¯ķ": 4070,
      "çľ¼çľĭ": 4071,
      "å¾Īå¤ļ": 4072,
      "æīĭåĦ¿": 4073,
      "åĸī": 4074,
      "ä¸¤æĿ¡": 4075,
      "æĮ¡": 4076,
      "å½ĵä»ĸ": 4077,
      "æīįå¥½": 4078,
      "åŃ¦çļĦ": 4079,
      "çģ¾": 4080,
      "èĬ±çļĦ": 4081,
      "åĥµ": 4082,
      "é¦Ĵ": 4083,
      "ä½İå¤´": 4084,
      "èĲ½ä¸ĭ": 4085,
      "è¡ĹåĿĬ": 4086,
      "çĶ·åŃĲ": 4087,
      "æıĲåĩº": 4088,
      "éĵºçĽĸ": 4089,
      "ä¸ĢåĪĩéĥ½": 4090,
      "åĭ¤": 4091,
      "æħ¢æħ¢çļĦèµ°": 4092,
      "é¡¾å¾Ĺ": 4093,
      "å·´ç»ĵ": 4094,
      "çļĦèº«ä¸Ĭ": 4095,
      "å¾Ģåīįèµ°": 4096,
      "¡æħķ": 4097,
      "£è¨Ģ": 4098,
      "çļĦåĴĮ": 4099,
      "çļĦéĹ¨": 4100,
      "ä»ĸçľĭè§ģäºĨ": 4101,
      "ä¸įé«ĺåħ´": 4102,
      "ä¸įæĶ¾å¿ĥ": 4103,
      "è¿¹": 4104,
      "ä¸ĢåĽŀ": 4105,
      "ä¸Ģåľº": 4106,
      "ä¸Ģåħ±": 4107,
      "ä¸ĢèĪ¬": 4108,
      "æĪĳæĿ¥": 4109,
      "å¥¹åı¯æĺ¯": 4110,
      "èµµ": 4111,
      "è¯´çľŁçļĦ": 4112,
      "çľĭåĪ°äºĨ": 4113,
      "å¥½å¤ļ": 4114,
      "å°±æľī": 4115,
      "åı¯æĺ¯åľ¨": 4116,
      "çļĦèī": 4117,
      "æĦļ": 4118,
      "ä»ĸä»¬æĺ¯": 4119,
      "å¯¸": 4120,
      "å¯¼": 4121,
      "ç¥·": 4122,
      "éĴ±èĢģäºº": 4123,
      "å±ĳ": 4124,
      "é¡¹": 4125,
      "éģĵæŃī": 4126,
      "æīĭèīº": 4127,
      "éĢĲ": 4128,
      "åĨįåİ»": 4129,
      "ä¸īåĽĽ": 4130,
      "çİ¯": 4131,
      "çĻ½å¤©": 4132,
      "äºĮå¼º": 4133,
      "åĬ¨çĿĢ": 4134,
      "åı£è¢ĭ": 4135,
      "åĽĽäºĶ": 4136,
      "å¿ħæĺ¯": 4137,
      "æı£": 4138,
      "ä¸»äºº": 4139,
      "ç¥ģå®¶çļĦ": 4140,
      "åĢĴå¥½è±¡": 4141,
      "éħ±": 4142,
      "çĽ´åĪ°": 4143,
      "çĲĨçļĦ": 4144,
      "èħ¾": 4145,
      "å®ĺåĦ¿": 4146,
      "å¤ļå°ĳéĴ±": 4147,
      "èĦļæŃ¥": 4148,
      "åľ¨è¿Ļç§į": 4149,
      "æĴĩ": 4150,
      "è½¬è¿ĩ": 4151,
      "æ·±æ·±": 4152,
      "éŀŃ": 4153,
      "å¾Ĺå¾Īå¿«": 4154,
      "ä»£è¡¨": 4155,
      "é¡¶å¥½": 4156,
      "æĺ¯ä¸Ģç§į": 4157,
      "ä¸¥èĤĥ": 4158,
      "æĺŁæľŁ": 4159,
      "è´Łè´£": 4160,
      "æ¸©æŁĶ": 4161,
      "é¾Ļäºĳ": 4162,
      "æ¤ħåŃĲ": 4163,
      "ä»įçĦ¶": 4164,
      "æķĪæŀľ": 4165,
      "çļĦå¤´": 4166,
      "çļĦä¹±": 4167,
      "çļĦåĬĽéĩı": 4168,
      "ä»ĸæĿ¥": 4169,
      "ä»ĸä¸įæĺ¯": 4170,
      "ä»ĸæĹ¢": 4171,
      "ä»ĸå¹¶æ²¡": 4172,
      "ä¸įåĲĥ": 4173,
      "ä¸įæĺİçĻ½": 4174,
      "ä¸įæĦ¿æĦı": 4175,
      "ä¸įæĩĤ": 4176,
      "ä¸Ģè§ģ": 4177,
      "å°º": 4178,
      "æĪĳçľŁ": 4179,
      "âĢĺ": 4180,
      "âĢĻ": 4181,
      "åľ¨éĹ¨": 4182,
      "å¥¹è¯´": 4183,
      "ä»¬éĥ½": 4184,
      "è¿Ļå°±æĺ¯": 4185,
      "åı¯æĥľ": 4186,
      "æ²¡ä»Ģä¹Ī": 4187,
      "èĢģå¸Ī": 4188,
      "éĤ±": 4189,
      "èĢĮæĥ³": 4190,
      "å°ıåŃ©åŃĲ": 4191,
      "å°ıå°ıçļĦ": 4192,
      "éĥ½èĥ½": 4193,
      "æĬĬäºĭæĥħ": 4194,
      "å¿ĥä¸Ĭ": 4195,
      "ä»ĸä»¬ä¹Ł": 4196,
      "ä»Ģä¹Īä¹Ł": 4197,
      "æł·åĦ¿": 4198,
      "æīĵå¼Ģ": 4199,
      "éĢĶ": 4200,
      "ä¸īåı·": 4201,
      "ä¸īèĥľ": 4202,
      "å¤ªå¤ªçļĦ": 4203,
      "æŃ£æĺ¯": 4204,
      "éªĳ": 4205,
      "è¿Ļä¹ĪåĬŀ": 4206,
      "è°ģä¹Łæ²¡": 4207,
      "çļĦäºĭåĦ¿": 4208,
      "åĿĲèµ·æĿ¥": 4209,
      "æ»´": 4210,
      "åĶł": 4211,
      "æŀģå¿«çļĦ": 4212,
      "åıįå¯¹": 4213,
      "åįĸäºĨ": 4214,
      "èµ¶ä¸Ĭ": 4215,
      "çĮª": 4216,
      "æĢ¥äºĨ": 4217,
      "äº¤æĥħ": 4218,
      "æ¬¢åĸľ": 4219,
      "æĶ¶åħ¥": 4220,
      "éĶĻäºĨ": 4221,
      "æĥ³åĪ°è¿ĻéĩĮ": 4222,
      "æĮĩçĿĢ": 4223,
      "è¿ĩåİ»äºĨ": 4224,
      "ä»ĸä¸Ģå®ļ": 4225,
      "å§Ĳå§Ĳ": 4226,
      "åªļ": 4227,
      "ä¹ĲæĦı": 4228,
      "çļĦèĥĸ": 4229,
      "çľīæ¯Ľ": 4230,
      "æ²īé»ĺ": 4231,
      "ä¸ĵä¸º": 4232,
      "å¡ŀ": 4233,
      "åī©ä¸ĭ": 4234,
      "åįłæį®": 4235,
      "ä¸Ŀæ¯«": 4236,
      "ç¼ºä¹ı": 4237,
      "ä¹łæĥ¯": 4238,
      "çļĦçĽ¸": 4239,
      "åĩ¡æĺ¯": 4240,
      "çļĦç©º": 4241,
      "å¾ģæľį": 4242,
      "åģ¶å°Ķ": 4243,
      "®åŃĲ": 4244,
      "ç¦ģ": 4245,
      "çļĦå¤©": 4246,
      "çļĦä¸Ģä¸ª": 4247,
      "çļĦä¸ŃåĽ½äºº": 4248,
      "ä»ĸæĽ´": 4249,
      "ä¸įå¾Ī": 4250,
      "ä¸įå¦Ĥ": 4251,
      "ä¸įè¯¥": 4252,
      "ä¸įè®¤è¯Ĩ": 4253,
      "ä¸ĢèĤ¡": 4254,
      "ä¸Ģçķª": 4255,
      "äººä¸İ": 4256,
      "åĲŀ": 4257,
      "æĪĳè§īå¾Ĺ": 4258,
      "æĪĳå·²ç»ı": 4259,
      "æľīè¶£": 4260,
      "åľ¨å±ĭä¸Ń": 4261,
      "åŃĲä¼¼çļĦ": 4262,
      "å¥¹æīį": 4263,
      "ä¸Ĭè½¦": 4264,
      "ä¼ª": 4265,
      "æ²¡çŃī": 4266,
      "è¯´æĺİ": 4267,
      "åĩºéĹ¨": 4268,
      "éĤ£å¤©": 4269,
      "å°±è¦ģ": 4270,
      "è¿ĺä¸įæĺ¯": 4271,
      "èĥ½åĬĽ": 4272,
      "çĶŁæĹ¥": 4273,
      "çļĦèĲ": 4274,
      "ä»Ģä¹Īéĥ½": 4275,
      "å¤ļåįĬ": 4276,
      "åº·": 4277,
      "åıĪè±¡": 4278,
      "ä½ľå®ĺ": 4279,
      "èĦĬ": 4280,
      "ä»ĸçļĦåĺ´": 4281,
      "è¯Ŀåĳ¢": 4282,
      "æĻĴ": 4283,
      "åĸĺ": 4284,
      "åĩłæ¬¡": 4285,
      "äºĨä¸Ģçľ¼": 4286,
      "äºĨä¸Ģåı£": 4287,
      "åĪ«å¤Ħ": 4288,
      "æķĻè®Ń": 4289,
      "è´Ŀ": 4290,
      "åıĳåĩº": 4291,
      "èį¡": 4292,
      "ç¬ĳçļĦ": 4293,
      "æ±Ł": 4294,
      "çľŁæĺ¯": 4295,
      "çģĮ": 4296,
      "æľĢå¥½çļĦ": 4297,
      "åĺŁ": 4298,
      "ç¾¡æħķ": 4299,
      "è°ģä¹Ł": 4300,
      "æĭīä½ı": 4301,
      "æ»ĭ": 4302,
      "ç®Ĺæĺ¯": 4303,
      "åĶ¾": 4304,
      "è£Ĥ": 4305,
      "ç½ĳ": 4306,
      "æĢ»å¾Ĺ": 4307,
      "åĲĪä½ľ": 4308,
      "åĨ·éĿĻ": 4309,
      "åħ¶å¦Ļ": 4310,
      "åĳ³éģĵ": 4311,
      "èĵĿåħĪçĶŁ": 4312,
      "åĿıäºĨ": 4313,
      "æİīäºĨ": 4314,
      "æĬ¬èµ·": 4315,
      "çģ¯åħī": 4316,
      "çļĦèº«ä½ĵ": 4317,
      "éļıä¾¿çļĦ": 4318,
      "å¥Ķèµ°": 4319,
      "è¸©": 4320,
      "åĽĽå¤§çĪ·": 4321,
      "æī¹è¯Ħ": 4322,
      "åĴ³åĹ½": 4323,
      "éĿ©åĳ½": 4324,
      "æ¸ºèĮ«": 4325,
      "ç¥·åĳĬ": 4326,
      "çļĦæķħäºĭ": 4327,
      "ä»ĸåĳ¢": 4328,
      "ä»ĸå¿½çĦ¶": 4329,
      "ä»ĸé©¬ä¸Ĭ": 4330,
      "äºĨçĤ¹": 4331,
      "ä¸Ģåı¥è¯Ŀ": 4332,
      "ä¸ĢåĬ²åĦ¿": 4333,
      "äººæĥħ": 4334,
      "æĪĳåı¯": 4335,
      "æľīçļĦæĺ¯": 4336,
      "åŃĲæĿ¥": 4337,
      "å¥¹ä¼ļ": 4338,
      "è¿Ļä¸¤": 4339,
      "è¿Ļç¾¤": 4340,
      "åı¯åıĪ": 4341,
      "ç»³": 4342,
      "å¤§å°ı": 4343,
      "å¾Ĺè±¡": 4344,
      "å¾Ĺæŀģ": 4345,
      "çľĭæ¸ħæ¥ļ": 4346,
      "éĤ£å°±": 4347,
      "å®¶éĹ¨": 4348,
      "ä½łåı¯": 4349,
      "æŃ¢äºĨ": 4350,
      "æłĩ": 4351,
      "çļĦèº": 4352,
      "çļĦèį": 4353,
      "ä¸ĭåŃĲ": 4354,
      "ä»Ģä¹Īåľ°æĸ¹": 4355,
      "èµ·äºĨ": 4356,
      "çļĦç¼": 4357,
      "çĦ¦": 4358,
      "çĦ¶èĢĮ": 4359,
      "çĽ¯": 4360,
      "ä»ĸçļĦå°ı": 4361,
      "æ³¼": 4362,
      "å¼Ģæ°´": 4363,
      "å½ĵåĪĿ": 4364,
      "åĲİçļĦ": 4365,
      "åĲİè¾¹": 4366,
      "æķĻå®ĺ": 4367,
      "éĺĢ": 4368,
      "çŃĴ": 4369,
      "ä¸ľæ´ĭ": 4370,
      "ä½ıåľ¨": 4371,
      "æĪĲäºĨä¸Ģ": 4372,
      "ç«¥": 4373,
      "åįģäºĮ": 4374,
      "æŃ£å¥½": 4375,
      "çŃīäºİ": 4376,
      "æĳĺ": 4377,
      "é©¬è·¯": 4378,
      "éĵĥ": 4379,
      "ä¸»å¼ł": 4380,
      "ä¹ĭå¤ĸ": 4381,
      "å¸¦æĿ¥": 4382,
      "èħĶ": 4383,
      "å¼łäºĮ": 4384,
      "é»ĳçļĦ": 4385,
      "æĤŁ": 4386,
      "çłģ": 4387,
      "è®²ç©¶": 4388,
      "å®³äºĨ": 4389,
      "ç¦»å©ļ": 4390,
      "çŁ³å¤´": 4391,
      "åĸĬåı«": 4392,
      "ä»ĸåıªèĥ½": 4393,
      "ä¸ºä»Ģä¹Īä¸į": 4394,
      "çĬ¯äºĨ": 4395,
      "çĶµè½¦": 4396,
      "åĩīé£İ": 4397,
      "âĳ¡": 4398,
      "è¹¦": 4399,
      "ä¼¸æīĭ": 4400,
      "å¥ĶäºĨ": 4401,
      "åŀĤ": 4402,
      "æĲŃè®": 4403,
      "é¦ĸåħĪ": 4404,
      "èĨĢ": 4405,
      "åı¸ä»¤": 4406,
      "åĪĽéĢł": 4407,
      "èĢĥèĻĳ": 4408,
      "éĹŃä¸Ĭçľ¼": 4409,
      "éĻĦè¿ĳ": 4410,
      "æµĳèº«": 4411,
      "æĥŃæĦ§": 4412,
      "é¦Ĵå¤´": 4413,
      "çļĦéĥ½": 4414,
      "çļĦå¯¹": 4415,
      "çļĦåŃĹ": 4416,
      "ä¸ĢçĻ¾": 4417,
      "ä¸Ģèĩ´": 4418,
      "åŃ¤": 4419,
      "æĪĳæ²¡æľī": 4420,
      "æĪĳåı¯ä»¥": 4421,
      "æĪĳè¦ģæĺ¯": 4422,
      "åħĭ": 4423,
      "çĿĢæĪĳ": 4424,
      "ä¸ªäººçļĦ": 4425,
      "å¥¹æ²¡": 4426,
      "å¥¹æ²¡æľī": 4427,
      "å¥¹å¿ħé¡»": 4428,
      "åĽļ": 4429,
      "è¿Ļä¸ĢçĤ¹": 4430,
      "è¿Ļä¸¤å¤©": 4431,
      "æĬ«": 4432,
      "å¤§äºº": 4433,
      "çľĭä»ĸ": 4434,
      "çľĭæ¸ħ": 4435,
      "å®¶åİ»": 4436,
      "åĴ§": 4437,
      "è¦ģè¯´": 4438,
      "æĬĬå¤´": 4439,
      "åı¯æĺ¯æ²¡æľī": 4440,
      "ä¸İä»ĸ": 4441,
      "ç¬¼": 4442,
      "ä»ĸçļĦå¿ĥä¸Ń": 4443,
      "éĢĹ": 4444,
      "è§ģè¿ĩ": 4445,
      "åĨįçľĭ": 4446,
      "æĺİéľŀ": 4447,
      "äºĨä¸Ģéĺµ": 4448,
      "çº§": 4449,
      "éĺ²": 4450,
      "åıĳèĦ¾æ°Ķ": 4451,
      "è½¦ç«Ļ": 4452,
      "ç¬ĳè¯Ŀ": 4453,
      "ç¬ĳå®¹": 4454,
      "æ¬²": 4455,
      "å¹¶éĿŀ": 4456,
      "æī¾ä¸ª": 4457,
      "èĦ¸çļĦ": 4458,
      "æ´»äºĨ": 4459,
      "å¤Ħå¤Ħ": 4460,
      "è·Łä½ł": 4461,
      "åĪĨéĴŁ": 4462,
      "èĬ±éĴ±": 4463,
      "è¡ĮçļĦ": 4464,
      "æ¯Ķå¦Ĥ": 4465,
      "æ¶ī": 4466,
      "éĹ´å°ı": 4467,
      "ä¸¤ä¸ªåŃĹ": 4468,
      "åĪļä¸Ģ": 4469,
      "æ¬¢è¿İ": 4470,
      "åĲįåħ¶å¦Ļ": 4471,
      "çĹĽèĭ¦": 4472,
      "æĶ¹åıĺ": 4473,
      "æļĹä¸Ń": 4474,
      "æķ´å¤©": 4475,
      "å¤ıå»ī": 4476,
      "è¯´äºĨè¯Ŀ": 4477,
      "å¿įåıĹ": 4478,
      "éĢĥèµ°": 4479,
      "çĤ¹äºĨå¤´": 4480,
      "çļĦçī¹": 4481,
      "å¹¸èĢĮ": 4482,
      "åļ¼": 4483,
      "æİıåĩº": 4484,
      "ä¸§äºĭ": 4485,
      "çļĦç«ĭèµ·æĿ¥": 4486,
      "ç«Łèĩª": 4487,
      "æĶ»åĩ»": 4488,
      "æ²¡åĩºæģ¯": 4489,
      "èİ«åĲįåħ¶å¦Ļ": 4490,
      "æ¸Ĳæ¸ĲçļĦ": 4491,
      "åĪ¤æĸŃ": 4492,
      "å°ıä¸īåĦ¿": 4493,
      "æ¾¡": 4494,
      "æĳĩäºĨæĳĩå¤´": 4495,
      "æĲŃè®ªçĿĢ": 4496,
      "Ķç©¶": 4497,
      "çļĦä¿¡": 4498,
      "çļĦåŃ©åŃĲ": 4499,
      "çļĦéĿĴå¹´": 4500,
      "ä»ĭ": 4501,
      "ä»ĸçľĭè§ģ": 4502,
      "ä»ĸå¥½è±¡": 4503,
      "ä»ĸæ²¡æ³ķ": 4504,
      "ä¸įä»ħ": 4505,
      "æĺ¯ä¸įä¼ļ": 4506,
      "ä¸Ģè°Ī": 4507,
      "æĿł": 4508,
      "è¯¸": 4509,
      "æĪĳéĥ½": 4510,
      "æĪĳåĳĬè¯īä½ł": 4511,
      "æľīåĩł": 4512,
      "æľīä¸Ģå¤©": 4513,
      "çĿĢå°ı": 4514,
      "çĿĢåĺ´": 4515,
      "åľ¨å°ı": 4516,
      "åľ¨æĹ¥æľ¬äºº": 4517,
      "å¥¹ä¸įèĥ½": 4518,
      "è¿Ļæĺ¯ä¸ª": 4519,
      "å¤§åįĬå¤©": 4520,
      "å¾Ĺä¸į": 4521,
      "éĤ£åĩł": 4522,
      "è§¦": 4523,
      "çĤī": 4524,
      "è®¿": 4525,
      "æĭ©": 4526,
      "æĭĮ": 4527,
      "è¦ģå¼º": 4528,
      "æĬĬä»ĸä»¬": 4529,
      "åı¯æĺ¯è¿ĺ": 4530,
      "åı¯æĺ¯åıĪ": 4531,
      "éĴ¢": 4532,
      "è¿ĩéĶĻ": 4533,
      "åĵİ": 4534,
      "èµ·åİ»": 4535,
      "èµ°åĩºæĿ¥": 4536,
      "åĿ¦": 4537,
      "éģĵå¾·": 4538,
      "éķľåŃĲ": 4539,
      "è°£è¨Ģ": 4540,
      "åĨįæĥ³": 4541,
      "ä¸īå¹´": 4542,
      "åīª": 4543,
      "åĽ½äºĭ": 4544,
      "ä½¿å¤§å®¶": 4545,
      "éļ¶": 4546,
      "æĹłèĢ»": 4547,
      "é«ĺæĺİ": 4548,
      "çļĦäººçī©": 4549,
      "èºģ": 4550,
      "åĽĽä¸ª": 4551,
      "åĲĥè¿ĩ": 4552,
      "åĲĥå®Į": 4553,
      "å¾Ģä¸Ĭ": 4554,
      "æīįæĺ¯": 4555,
      "åįģäºĶ": 4556,
      "ä¹Łä¸įèĤ¯": 4557,
      "è¢«äºº": 4558,
      "åĺĢ": 4559,
      "çĪ±åĽ½": 4560,
      "è¿ŀè¿ŀ": 4561,
      "è¿ľçļĦ": 4562,
      "å°±æĺ¯äºĨ": 4563,
      "æ¶¦": 4564,
      "åıĺåĮĸ": 4565,
      "ç¢į": 4566,
      "ç½Ĳ": 4567,
      "åĳĬè¯īå¥¹": 4568,
      "åĵŃèµ·æĿ¥": 4569,
      "å¾®ç¬ĳ": 4570,
      "éĶĻè¯¯": 4571,
      "éĿĴæĺ¥": 4572,
      "çħ§å¸¸": 4573,
      "è¯Ńå£°": 4574,
      "åĪ©èĲ½": 4575,
      "éĹŃçĿĢçľ¼": 4576,
      "æĳ¸äºĨ": 4577,
      "æ¥ŀäºĨä¸Ģä¼ļåĦ¿": 4578,
      "ç²¾æĺİ": 4579,
      "æķ´é½Ĳ": 4580,
      "éĥİ": 4581,
      "å¤ıå¤©": 4582,
      "åĲĦå¤Ħ": 4583,
      "åģľæŃ¢": 4584,
      "åģľæŃ¢äºĨ": 4585,
      "åįĥä¸ĩ": 4586,
      "æĮĤçĿĢ": 4587,
      "å°ıæĸĩå¤«å¦ĩ": 4588,
      "åĭĩæ°Ķ": 4589,
      "æ¹ĸ": 4590,
      "èĸª": 4591,
      "çļĦçģ°": 4592,
      "æķ´ä¸ªçļĦ": 4593,
      "æģĭçĪ±": 4594,
      "çļĦç¤¼": 4595,
      "çĩ": 4596,
      "äºĴ": 4597,
      "ä»ĸå¿ħå®ļ": 4598,
      "ä»ĸçļĦç¡®": 4599,
      "ä¸įå®¹æĺĵ": 4600,
      "äºĨåı£": 4601,
      "äºĨåĲĹ": 4602,
      "ä¸ĢæĹ¦": 4603,
      "æĪļ": 4604,
      "æĹĭ": 4605,
      "å¿Ĩ": 4606,
      "åİ¿": 4607,
      "è¿Ļåı¯": 4608,
      "è¿ĻæĿ¡": 4609,
      "éĹ¯": 4610,
      "èĢĮå¤ĸ": 4611,
      "ä½łæĢİä¹Ī": 4612,
      "æĭĶ": 4613,
      "ä»ĸä»¬ä¼ļ": 4614,
      "åĵĦ": 4615,
      "è½¿": 4616,
      "éĴ±å°ĳå¥¶å¥¶": 4617,
      "åĢļ": 4618,
      "æĹ¶èĬĤ": 4619,
      "èµ°åĲİ": 4620,
      "æĶ¥": 4621,
      "è±¡æĺ¯": 4622,
      "å¯¹å¾Ĺèµ·": 4623,
      "åĸ·": 4624,
      "æĮª": 4625,
      "å·²æĺ¯": 4626,
      "äºĨä¸Ģåı£æ°Ķ": 4627,
      "æķĻä¹¦": 4628,
      "è´±": 4629,
      "éĿ¢åŃĲ": 4630,
      "ç§Ģ": 4631,
      "åĲ¬è§ģäºĨ": 4632,
      "åŃ¦çĽĳ": 4633,
      "åĩºæĿ¥äºĨ": 4634,
      "ç»ıæµİ": 4635,
      "ä¹Łä¸įè¿ĩ": 4636,
      "æī¾äºĨ": 4637,
      "åı«æĪĳ": 4638,
      "è¿ŀä¸ª": 4639,
      "æıŃ": 4640,
      "éļ¾çľĭ": 4641,
      "èĬ±çĶŁ": 4642,
      "äº²èĩª": 4643,
      "æĭīåĪ°": 4644,
      "è¡ĮåĬ¨": 4645,
      "éĽ·": 4646,
      "çĽ´æİ¥": 4647,
      "ç©ºçļĦ": 4648,
      "èħĲ": 4649,
      "å¦ŀå¦ŀ": 4650,
      "å¿ĺæİī": 4651,
      "å«©": 4652,
      "å´ĩ": 4653,
      "æĹ©æĻ¨": 4654,
      "æ¯ıä¸Ģä¸ª": 4655,
      "äº¤ç»Ļ": 4656,
      "æ»¡åı¯ä»¥": 4657,
      "è°Īè¯Ŀ": 4658,
      "æ¥ŀçĿĢ": 4659,
      "ä»ĸçļĦèħ": 4660,
      "å±ĭéĩĮåİ»": 4661,
      "çķĻä¸ĭ": 4662,
      "éĹ²è¯Ŀ": 4663,
      "éĻ¤éĿŀ": 4664,
      "åı¦ä¸Ģæĸ¹éĿ¢": 4665,
      "åĲ¸çĥŁ": 4666,
      "çļĦç¬ĳäºĨ": 4667,
      "åĪºæ¿Ģ": 4668,
      "å¤įæĿĤ": 4669,
      "é¢¤æĬĸ": 4670,
      "åº§åĦ¿": 4671,
      "æĿĲæĸĻ": 4672,
      "çļĦçīĮ": 4673,
      "å®ħéĹ¨": 4674,
      "æĮīçħ§": 4675,
      "æĭ¦éĺ»": 4676,
      "è¾ŀèģĮ": 4677,
      "è¿Łçĸĳ": 4678,
      "å¥´éļ¶": 4679,
      "äº¡åĽ½å¥´": 4680,
      "ç»Ĩç»ĨçļĦ": 4681,
      "ä¼Łå¤§": 4682,
      "å±ŀäºİ": 4683,
      "éĹŃä¸ĬäºĨçľ¼": 4684,
      "çļĦç²¾ç¥ŀ": 4685,
      "æ²ĻåŃĲé¾Ļ": 4686,
      "¡èĲ": 4687,
      "çļĦé»ĳ": 4688,
      "çļĦéĹ®é¢ĺ": 4689,
      "çļĦå·¥å¤«": 4690,
      "ä»ĸçĶ¨": 4691,
      "ä»ĸæ°¸è¿ľ": 4692,
      "ä¸įæĪĲ": 4693,
      "äºĨæĿ¥": 4694,
      "æĺ¯æĢİæł·": 4695,
      "å°ĺ": 4696,
      "å°Ŀ": 4697,
      "è¯±": 4698,
      "æľīä¸Ģä¸ª": 4699,
      "æľīåĬŀæ³ķ": 4700,
      "åŃĲåĦ¿": 4701,
      "ä¸Ĭæľī": 4702,
      "ä¼ĺ": 4703,
      "å¤§åħ´": 4704,
      "æĥĳ": 4705,
      "åĩºäºİ": 4706,
      "å¥½æĦıæĢĿ": 4707,
      "åĦ¿ä¼¼çļĦ": 4708,
      "éĤ£ç§į": 4709,
      "éĤ£å¼ł": 4710,
      "éĥ½å¾Ī": 4711,
      "æĭ´": 4712,
      "å¤©æ°Ķ": 4713,
      "ä»Ģä¹ĪæĿ¥": 4714,
      "æľ¬èº«": 4715,
      "æľ¬é¢Ĩ": 4716,
      "åĢ¦": 4717,
      "çļĦçĮ": 4718,
      "èµ°åİ»": 4719,
      "ä½ľåĩº": 4720,
      "ä½ľäºĽ": 4721,
      "ä½ľçĶ¨": 4722,
      "è§ģéĿ¢": 4723,
      "è°ĭ": 4724,
      "çİ»çĴĥ": 4725,
      "åľ°çĭ±": 4726,
      "åĬ¨éĿĻ": 4727,
      "èĥİ": 4728,
      "ä¿ı": 4729,
      "é«ĺäºĨ": 4730,
      "æħİ": 4731,
      "å¿ħä¼ļ": 4732,
      "ä¸įæĺ¯ä¸º": 4733,
      "ç¬ĳå¾Ĺ": 4734,
      "è§īçĿĢ": 4735,
      "åĬŀäºĨ": 4736,
      "çĭ¼": 4737,
      "åģĩçļĦ": 4738,
      "åı«äºĨå£°": 4739,
      "å¨¼": 4740,
      "ç²¥": 4741,
      "äº²æĪļ": 4742,
      "ä»ĸä¸įçŁ¥éģĵ": 4743,
      "åĶī": 4744,
      "æľįè£ħ": 4745,
      "åıĺåĬ¨": 4746,
      "çļĦèĦĸåŃĲ": 4747,
      "è£¹": 4748,
      "æ£±": 4749,
      "èĢĮä¸Ķæĺ¯": 4750,
      "éĴ±åħĪçĶŁçļĦ": 4751,
      "å°ıå´ĶçļĦ": 4752,
      "éĢģç¤¼": 4753,
      "æĮĩäºĨ": 4754,
      "è®°ä½ı": 4755,
      "æ¯ĽéĴ±": 4756,
      "åħ¶ä½Ļ": 4757,
      "çķĻç¥ŀ": 4758,
      "åı°éĺ¶": 4759,
      "çīĮæ¥¼": 4760,
      "ç±į": 4761,
      "åĩºäºĨæ±Ĺ": 4762,
      "çĶļèĩ³": 4763,
      "ç«Ļåľ¨": 4764,
      "æĹłè®ºæĢİæł·": 4765,
      "åŃ¦æł¡éĩĮ": 4766,
      "åłĤçļĦ": 4767,
      "äºĭå®ŀä¸Ĭ": 4768,
      "æľªå¿ħ": 4769,
      "åĽŀå®¶åİ»": 4770,
      "æĶ¿æ²»": 4771,
      "æĿ¨åħĪçĶŁ": 4772,
      "å®Ŀè´Ŀ": 4773,
      "çļĦçİ©": 4774,
      "èĩªå±ħä¸º": 4775,
      "ç§¦å¦Ļæĸĭ": 4776,
      "éĺ®æĺİ": 4777,
      "¡èĲĦ": 4778,
      "ºåŃĲ": 4779,
      "ĨåŃĲ": 4780,
      "çļĦåĲĳ": 4781,
      "ä»ĸæľīçĤ¹": 4782,
      "ä»ĸå¿ĺäºĨ": 4783,
      "ä¸įåĥı": 4784,
      "ä¸įéĢļ": 4785,
      "äºĨå¿ĥ": 4786,
      "äºĨè§£": 4787,
      "æĺ¯åĳĢ": 4788,
      "ä¸Ģåı·": 4789,
      "å¥ĸ": 4790,
      "æľīæĹ¶": 4791,
      "æĿ¥åĽŀ": 4792,
      "çĿĢä»ĸçļĦ": 4793,
      "åľ¨ä»ĸä»¬": 4794,
      "å¥¹è§īå¾Ĺ": 4795,
      "å··": 4796,
      "æ²¡äºĭ": 4797,
      "æ²¡è¯´ä»Ģä¹Ī": 4798,
      "æĬĢ": 4799,
      "ç»į": 4800,
      "å¤§è¡«": 4801,
      "ä¹ŁçŁ¥éģĵ": 4802,
      "èĢģå¤©": 4803,
      "åį§": 4804,
      "åĩºåŁİ": 4805,
      "å¥½è¯Ŀ": 4806,
      "å°±éĤ£ä¹Ī": 4807,
      "å°±è¡Į": 4808,
      "å°ıäºĭ": 4809,
      "ä½łåĳ¢": 4810,
      "æĭĨ": 4811,
      "æĬĬéĤ£": 4812,
      "åı¯æĺ¯ä»ĸä»¬": 4813,
      "çĶŁäºĨ": 4814,
      "ä¸ĭåįĪ": 4815,
      "åĵĳ": 4816,
      "å¯ŀ": 4817,
      "ä»Ģä¹Īä¸ľè¥¿": 4818,
      "å¤ªçĪ·çĪ·": 4819,
      "éĴ±ä¹°": 4820,
      "éĴ±å®¶çļĦ": 4821,
      "åºı": 4822,
      "åĢ¾": 4823,
      "åĴĮå°ļ": 4824,
      "ç»Ļäººå®¶": 4825,
      "åĿĽ": 4826,
      "æ°ĶåĦ¿": 4827,
      "æ°Ķæ´¾": 4828,
      "éķ¿å¾Ĺ": 4829,
      "æīĵå¾Ĺ": 4830,
      "åĨįè§ģ": 4831,
      "æĮĸ": 4832,
      "âĢĶâĢĶâĢĿ": 4833,
      "è´«": 4834,
      "éļĲ": 4835,
      "æĹłæīĢ": 4836,
      "è¢Ń": 4837,
      "åĽĽä¸ĸ": 4838,
      "åĽĽåĽ´": 4839,
      "ç¬ĳæĦı": 4840,
      "æ¸´": 4841,
      "è¥¿å±±": 4842,
      "ä¸ĢçĤ¹çĤ¹": 4843,
      "èº«éĩı": 4844,
      "æľĢæľī": 4845,
      "åıĹä¸įäºĨ": 4846,
      "åıĹåĪĳ": 4847,
      "åĲĳä»ĸ": 4848,
      "è·Łå¥¹": 4849,
      "è·Łä»ĸä»¬": 4850,
      "å¥¹çļĦæīĭ": 4851,
      "å¨ĩ": 4852,
      "ç²Ĵ": 4853,
      "åįĬä¸ª": 4854,
      "è¾¹ä¸Ĭ": 4855,
      "è¿Ļæł·çļĦäºº": 4856,
      "åĩºåİ»äºĨ": 4857,
      "æŁ´": 4858,
      "åĥıçīĩ": 4859,
      "éĹ´çļĦ": 4860,
      "çĪ¶åŃĲ": 4861,
      "æĸ°éĹ»": 4862,
      "æĬ¥å¤į": 4863,
      "äº¤ä»£": 4864,
      "å¤±æľĽ": 4865,
      "æ¶ĪçģŃ": 4866,
      "è°Īä¸Ģè°Ī": 4867,
      "åħ«åįģ": 4868,
      "çħ§é¡¾": 4869,
      "é»ĦåľŁ": 4870,
      "è¿ĺä¸įå¦Ĥ": 4871,
      "çļĦè¡Ĺ": 4872,
      "çİĭä¸īèĥľ": 4873,
      "æ®¡": 4874,
      "æ®¿": 4875,
      "ä¿Ŀå®ļ": 4876,
      "å²ģæķ°": 4877,
      "ä»£æĽ¿": 4878,
      "èĥĸå¤ªå¤ª": 4879,
      "èĥĮåĲİ": 4880,
      "ä¸Ģå£°ä¸įåĩº": 4881,
      "å¤ıå¤§å«Ĥ": 4882,
      "å°¤ä¸»ä»»": 4883,
      "èĦĳéĹ¨": 4884,
      "æĹłè®ºå¦Ĥä½ķ": 4885,
      "åĪ¶æľį": 4886,
      "åı¶åŃĲ": 4887,
      "å¨ģé£İ": 4888,
      "è¯ģæĺİ": 4889,
      "ç®ĢåįķçļĦ": 4890,
      "æ¸©æļĸ": 4891,
      "åĶ¯æģĲ": 4892,
      "å¯Ĥå¯ŀ": 4893,
      "çļĦè¡¨ç¤º": 4894,
      "åľ¨éĤ£åĦ¿": 4895,
      "è¾©è®º": 4896,
      "å²Ĥä¸į": 4897,
      "äºķçĶ°": 4898,
      "äººåĴĮåİĤ": 4899,
      "åħĶåĦ¿": 4900,
      "å§¨å¤ªå¤ª": 4901,
      "ä»ĭç»į": 4902,
      "æĮĩäºĨæĮĩ": 4903,
      "¥Ł": 4904,
      "è¥Ł": 4905,
      "çļĦéķ¿": 4906,
      "çļĦå¸ĮæľĽ": 4907,
      "çļĦå·¥ä½ľ": 4908,
      "ä»ĸæľĢ": 4909,
      "ä»ĸä»İ": 4910,
      "ä»ĸä»¿ä½Ľ": 4911,
      "ä»ĸæĦŁåĪ°": 4912,
      "ä¸įä¸º": 4913,
      "ä¸įæĺĵ": 4914,
      "ä¸įä½ıäºĨ": 4915,
      "ä¸įè§ģäºĨ": 4916,
      "æĺ¯æĪĳ": 4917,
      "æĺ¯åĽłä¸º": 4918,
      "æĺ¯è¿Ļä¹Ī": 4919,
      "æĺ¯åı¯ä»¥": 4920,
      "æĺ¯å¤ļä¹Ī": 4921,
      "ä¸Ģè¾Ĩ": 4922,
      "è¯ħ": 4923,
      "æĪĳè¿ĺæĺ¯": 4924,
      "æľīéĤ£ä¹Ī": 4925,
      "æīĩ": 4926,
      "æīĽ": 4927,
      "åľ¨åĵªåĦ¿": 4928,
      "ä¸Ĭå¸Ŀ": 4929,
      "åİ»è§ģ": 4930,
      "ä¼ı": 4931,
      "èĢģçļĦ": 4932,
      "ä½łæľī": 4933,
      "æĥ³ä¸Ģæĥ³": 4934,
      "å¤©çľŁ": 4935,
      "èĥ½æĬĬ": 4936,
      "çļĦè¨Ģ": 4937,
      "éĴ¦": 4938,
      "è¿ĩèĬĤ": 4939,
      "æ²¡æľīä¸Ģä¸ª": 4940,
      "åĴĮä»ĸä»¬": 4941,
      "çļĦç¨": 4942,
      "è¯Ŀè¯´": 4943,
      "åĸ½": 4944,
      "ä¸¤ä¸ī": 4945,
      "åĽŀäºĨ": 4946,
      "åĩłåı¥è¯Ŀ": 4947,
      "æĺİåĦ¿": 4948,
      "æĺİå¤ªå¤ª": 4949,
      "äºĨä¸Ģåı¥": 4950,
      "åħ¨èĥ¡åĲĮ": 4951,
      "æħ§": 4952,
      "åĲ¬æĺİçĻ½": 4953,
      "æŃ»äºº": 4954,
      "å¾Ģèµ·": 4955,
      "å¾ĢæĹ¥": 4956,
      "çľŁè¦ģ": 4957,
      "èµ·æĿ¥äºĨ": 4958,
      "æķ¢æĥħ": 4959,
      "åĲĮæĦı": 4960,
      "åķĥ": 4961,
      "é¥ºåŃĲ": 4962,
      "åĽłä¸ºå¥¹": 4963,
      "æ´»çļĦ": 4964,
      "è¿Ļä¹Īä¸Ģæĥ³": 4965,
      "ä»ĸä¸įä¼ļ": 4966,
      "åĮħæľĪ": 4967,
      "ä¸»ä¹ī": 4968,
      "åĨłå®¶çļĦ": 4969,
      "åŁº": 4970,
      "åĺ´éĩĮ": 4971,
      "ç´§äºĨ": 4972,
      "ç©ºèĻļ": 4973,
      "èħķ": 4974,
      "æĤ¬": 4975,
      "ç¼ĸ": 4976,
      "æĢ»ç®Ĺ": 4977,
      "ç¨½": 4978,
      "å«Į": 4979,
      "ç»ĵå®ŀ": 4980,
      "åħ¬åħ¬": 4981,
      "æĴķ": 4982,
      "åħµä»¬": 4983,
      "çŀªçĿĢ": 4984,
      "è¿ĳè§Ĩ": 4985,
      "ä»ĸè§īå¾Ĺèĩªå·±": 4986,
      "æķĮåħµ": 4987,
      "æľīä¸Ģç§į": 4988,
      "çĶµè¯Ŀ": 4989,
      "çļĦç¬¬": 4990,
      "æĸŃäºĨ": 4991,
      "ä¸¥éĩį": 4992,
      "æĮ¨é¥¿": 4993,
      "æĵ¦äºĨ": 4994,
      "æĻ¯çī©": 4995,
      "æŁ³æłĳ": 4996,
      "çªĿçªĿ": 4997,
      "å¹²ä»Ģä¹Īåĳ¢": 4998,
      "åİĭè¿«": 4999,
      "ä¸¾åĬ¨": 5000,
      "èĴĻ": 5001,
      "åĲ«çĿĢæ³ª": 5002,
      "æĻºæħ§": 5003,
      "çļĦè¡ĮåĬ¨": 5004,
      "å±ĳäºİ": 5005,
      "åĺŁåĽĶ": 5006,
      "åĽĽä¸ĸåĲĮ": 5007,
      "èł": 5008,
      "çļĦä¸ĢçĤ¹": 5009,
      "çļĦåĲį": 5010,
      "çļĦçĶŁæ´»": 5011,
      "ä¸įç»Ļ": 5012,
      "ä¸įçĽ¸": 5013,
      "ä¸įæĸŃ": 5014,
      "ä¸įåıĬ": 5015,
      "ä¸Ģä¸¤ä¸ª": 5016,
      "ä¸Ģæĸ¤": 5017,
      "åĪĹ": 5018,
      "äººåĳ¢": 5019,
      "æĪĳèĥ½": 5020,
      "æĪĳå¿ĥä¸Ń": 5021,
      "æĪĳæĦ¿æĦı": 5022,
      "åĩ¶": 5023,
      "çĿĢäºĽ": 5024,
      "åľ¨ä¸ĢåĿĹåĦ¿": 5025,
      "ä¸ªå¥½": 5026,
      "å¥¹ä»¥ä¸º": 5027,
      "èµģ": 5028,
      "åı¯è¯´": 5029,
      "åı¯ç¬ĳ": 5030,
      "å¤§è¤Ĥ": 5031,
      "åĪ°ä»ĸ": 5032,
      "è¯´æĺ¯": 5033,
      "åĬ«": 5034,
      "èĢģè¿ľ": 5035,
      "èĢģè¤": 5036,
      "çľĭå¥¹": 5037,
      "åĦ¿éĩĮ": 5038,
      "åĦ¿åª³": 5039,
      "èĢĮä¸įæķ¢": 5040,
      "èĩªåľ¨": 5041,
      "èĩªå¹¼": 5042,
      "ä½łèĩªå·±": 5043,
      "æĬĬçľ¼": 5044,
      "æĥ³åĩº": 5045,
      "çļĦè±": 5046,
      "çļĦèĮ": 5047,
      "ä¼ļæĬĬ": 5048,
      "å¸ĺ": 5049,
      "ä»ĸä»¬èĩªå·±": 5050,
      "å¯»": 5051,
      "ä»Ģä¹Īä¹Łæ²¡æľī": 5052,
      "å¤ļå¹´": 5053,
      "éĴ±è¯Ĺäºº": 5054,
      "å±İ": 5055,
      "èµ°è¿ĽæĿ¥": 5056,
      "ç»Ļèĩªå·±": 5057,
      "çľ¼çľĭçĿĢ": 5058,
      "æĻ®": 5059,
      "æīĵäºĨä¸ª": 5060,
      "è§ģçĿĢ": 5061,
      "è°ĵ": 5062,
      "å¼Ģä¼ļ": 5063,
      "çĶ¨åĳ¢": 5064,
      "äºĮäºº": 5065,
      "æĢİåĬŀåĳ¢": 5066,
      "æĺİçŁ¥éģĵ": 5067,
      "æģ©": 5068,
      "åĲĥåĸĿ": 5069,
      "åīįåĲİ": 5070,
      "åīįéĹ¨": 5071,
      "åĲĮäºĭ": 5072,
      "ä¹Łä¸įæĦ¿": 5073,
      "æĭ¿åİ»": 5074,
      "è¿Ļä¹Īæĥ³": 5075,
      "é¡ºçĿĢ": 5076,
      "åĿĲè½¦": 5077,
      "æ·ĺ": 5078,
      "éĽ¾": 5079,
      "æ¯Ķè¾ĥ": 5080,
      "çĲ´": 5081,
      "æ¸ħéĨĴ": 5082,
      "ç«ĭä½ı": 5083,
      "æ¶¨": 5084,
      "æŀģæħ¢": 5085,
      "çº¢äºĨ": 5086,
      "æĺİçĻ½è¿ĩæĿ¥": 5087,
      "ä»Ĭå¹´": 5088,
      "é£İåĲ¹": 5089,
      "çłĶç©¶": 5090,
      "å¢ĵ": 5091,
      "çĥŃæ°Ķ": 5092,
      "åĪļè¦ģ": 5093,
      "å·¥åıĭ": 5094,
      "æĹ©çļĦ": 5095,
      "æĹ©æĻļ": 5096,
      "åĩĨä¿Ŀ": 5097,
      "éĿĻå¯Ĥ": 5098,
      "çļĦæĺ¯ä»Ģä¹Ī": 5099,
      "é¸£": 5100,
      "å¼ºè¿«": 5101,
      "çħ§åºĶ": 5102,
      "èŃ¦å¯Ł": 5103,
      "æĪĳä¸įçŁ¥éģĵ": 5104,
      "é»ĦçļĦ": 5105,
      "æıĲåĪ°": 5106,
      "æıĲèµ·": 5107,
      "æĻļé¥Ń": 5108,
      "æĳ¸çĿĢ": 5109,
      "åĩłä¹İæĺ¯": 5110,
      "é¦Ļåĳ³": 5111,
      "ä¼ĻåŃĲ": 5112,
      "å¤ıå®¶": 5113,
      "å°¤æ¡ĲèĬ³": 5114,
      "èĦĳåŃĲ": 5115,
      "éº¦": 5116,
      "çľīçľ¼": 5117,
      "é¢¤åĬ¨": 5118,
      "åķĨéĩı": 5119,
      "è§Ĥå¯Ł": 5120,
      "å¡Ķ": 5121,
      "çļĦè·¯": 5122,
      "çļĦçĥŁ": 5123,
      "å¼ıçļĦ": 5124,
      "åĶ¯ä¸ĢçļĦ": 5125,
      "çĥĪçļĦ": 5126,
      "èĿĩ": 5127,
      "çļĦç©¿": 5128,
      "çļĦç½ªè¿ĩ": 5129,
      "çļĦçŃī": 5130,
      "åı¨åĶł": 5131,
      "æ¬£èµı": 5132,
      "çļĦçł´": 5133,
      "æĺ¨å¤©": 5134,
      "äºĮå¼ºåŃĲ": 5135,
      "æ»ĭåĳ³": 5136,
      "åĶ¾æ²«": 5137,
      "æĳ¸äºĨæĳ¸": 5138,
      "èĢģè¤ļ": 5139,
      "¨æħİ": 5140,
      "ļåŃĲ": 5141,
      "çļĦè¦ģ": 5142,
      "ä»ĸåı¯": 5143,
      "ä»ĸåĳĬè¯ī": 5144,
      "ä¸įè¯´": 5145,
      "ä¸įçĦ¶": 5146,
      "ä¸įè§ī": 5147,
      "äºĨä¼ļåĦ¿": 5148,
      "äºĨä¸ĭåİ»": 5149,
      "å®«": 5150,
      "æĿĨ": 5151,
      "æĪĳåı¯æĺ¯": 5152,
      "æľīå¤ļä¹Ī": 5153,
      "æīģ": 5154,
      "åħļ": 5155,
      "çĿĢéĤ£": 5156,
      "å¥¹å·²ç»ı": 5157,
      "è¿Ļå°±": 5158,
      "åİ»çľĭçľĭ": 5159,
      "ä¼į": 5160,
      "å¤§åŃ¦": 5161,
      "å¤§èĥĨ": 5162,
      "ä¹Łæ¯Ķ": 5163,
      "åĳľ": 5164,
      "åįĳ": 5165,
      "å¥½åĲ¬": 5166,
      "éĤª": 5167,
      "èĢĮå¿ĺäºĨ": 5168,
      "å°±ç®Ĺ": 5169,
      "å°±åĩŃ": 5170,
      "éĥ½æĥ³": 5171,
      "éĥ½é¡»": 5172,
      "ä¸ŃæĹ¥": 5173,
      "è¦ģçļĦ": 5174,
      "è¿ĺä¼ļ": 5175,
      "æĥ³çĿĢ": 5176,
      "æĥ³æĬĬ": 5177,
      "æĥ³ä¸įåĪ°": 5178,
      "çļĦèĻ": 5179,
      "ä¸ĭçĭ±": 5180,
      "ä»ĸä»¬ä¾¿": 5181,
      "ä¸İåĲ¦": 5182,
      "éģ£": 5183,
      "å¤ļéĴŁ": 5184,
      "æ²¡æľīå¤ļå°ĳ": 5185,
      "çľ¼æ³ª": 5186,
      "çĽĴ": 5187,
      "å¾Īæľī": 5188,
      "å¾Īå¿«": 5189,
      "ä»ĸçļĦå¤´": 5190,
      "æīĭä¸ĭ": 5191,
      "å£°æľº": 5192,
      "ä¸īåı·çļĦ": 5193,
      "å½ĵäºĨ": 5194,
      "èĭĹ": 5195,
      "äºĨä¸Ģéģį": 5196,
      "æķĻæĹ¥æľ¬äºº": 5197,
      "è´ª": 5198,
      "æĹłæĥħ": 5199,
      "æĹłä»İ": 5200,
      "æĹłæķħ": 5201,
      "é«ĺå£°çļĦ": 5202,
      "åı£ä¸Ĭ": 5203,
      "åĽĽå¤ĸ": 5204,
      "ç§»": 5205,
      "åĲ¬äºĨ": 5206,
      "å¾ĢéĩĮ": 5207,
      "åįģåĩł": 5208,
      "é©³": 5209,
      "éĹ®ä»ĸ": 5210,
      "é¥½": 5211,
      "æĭ¿åĪ°": 5212,
      "æĭ¿åĩºæĿ¥": 5213,
      "çĭĲ": 5214,
      "å¹²äºĨ": 5215,
      "çĪ±çļĦ": 5216,
      "æıª": 5217,
      "ä¹ĭåīį": 5218,
      "æĸĩéĽħ": 5219,
      "ç¬¬ä¸ī": 5220,
      "ç¬¬ä¸Ģä¸ª": 5221,
      "åıĺä¸º": 5222,
      "è£ģ": 5223,
      "èħ»": 5224,
      "é»ĳæĿİ": 5225,
      "æ¯ıä¸ª": 5226,
      "è®¤ä¸º": 5227,
      "è¿ĺæľīä»Ģä¹Ī": 5228,
      "å¸®çĿĢ": 5229,
      "çħ§æĹ§": 5230,
      "èĭ±æĸĩ": 5231,
      "ä¸ĢåĪĩçļĦ": 5232,
      "ä¿ĿæĮģ": 5233,
      "âĢ¦âĢ¦âĢĿ": 5234,
      "æ¥ŀä½ıäºĨ": 5235,
      "ä»ĸçļĦèĤ": 5236,
      "å¤ľéĹ´": 5237,
      "çıį": 5238,
      "éĥģ": 5239,
      "åĩºäºĨå£°": 5240,
      "ä¸Ģå£°æ²¡åĩº": 5241,
      "åĲĦç§į": 5242,
      "é£ŀæľº": 5243,
      "ç¢°åĪ°": 5244,
      "èĭ±åĽ½äºº": 5245,
      "ä¸īä¸ªæľĪ": 5246,
      "åĻ¢": 5247,
      "èĤ¡ä¸ľ": 5248,
      "çļĦçīĻ": 5249,
      "å¾·åĽ½": 5250,
      "è¯ķéªĮ": 5251,
      "æĭīè½¦çļĦ": 5252,
      "çļĦæĹ¶éĹ´": 5253,
      "èµĦæľ¬": 5254,
      "èººåľ¨": 5255,
      "æĿĳéĩĮ": 5256,
      "å§ĭç»Īæ²¡": 5257,
      "åĽŀåĪ°å®¶ä¸Ń": 5258,
      "éĤ»å±ħä»¬": 5259,
      "çļĦç²®": 5260,
      "ç£ķå¤´": 5261,
      "çŁ®åŃĲ": 5262,
      "çļĦçĹĽ": 5263,
      "æģ³åĪĩ": 5264,
      "å»ºè®®": 5265,
      "èªĵ": 5266,
      "æĬ¬èµ·å¤´æĿ¥": 5267,
      "è¿ŀè¿ŀçļĦ": 5268,
      "19": 5269,
      "´åĦ¿": 5270,
      "èŀ": 5271,
      "ä¸«": 5272,
      "ä»ĸåĪ°": 5273,
      "ä»ĸåħĪ": 5274,
      "ä»ĸåĨį": 5275,
      "ä»ĸçİ°åľ¨": 5276,
      "ä»ĸçļĦèĦĳ": 5277,
      "ä¸įåıĳ": 5278,
      "ä¸įè¿ľ": 5279,
      "ä¸įä¸ĭåİ»": 5280,
      "æĺ¯è¿Ļæł·": 5281,
      "ä¸Ģèµ°": 5282,
      "ä¸Ģç¬Ķ": 5283,
      "åĲ»": 5284,
      "æĪĳä¾¿": 5285,
      "æĪĳæīĢ": 5286,
      "æĪĳå¿ĥéĩĮ": 5287,
      "æī©": 5288,
      "åŃĲåİ»": 5289,
      "å¥¹åĨ³å®ļ": 5290,
      "ä¸Ĭä¸ĭ": 5291,
      "å¾ĹåĪ°äºĨ": 5292,
      "è¯´æĪĳ": 5293,
      "çľĭå¾Ĺ": 5294,
      "åįı": 5295,
      "åĩºå¤´": 5296,
      "å¥½äºĭ": 5297,
      "èĢĮä¸įèĥ½": 5298,
      "å°±æĬĬ": 5299,
      "éĥ½è±¡": 5300,
      "ä½łå¾Ĺ": 5301,
      "ä½łä¸įæĺ¯": 5302,
      "æĭ¢": 5303,
      "æĭ±": 5304,
      "å¦ĸ": 5305,
      "æĬĬå®ĥä»¬": 5306,
      "å¤©äº®": 5307,
      "åıªåľ¨": 5308,
      "è½®": 5309,
      "åĮº": 5310,
      "åĴĮæĪĳ": 5311,
      "åĴĮæĹ¥æľ¬äºº": 5312,
      "éģĵåĦ¿": 5313,
      "éģĵåĸľ": 5314,
      "çľ¼è§Ĵ": 5315,
      "æīĵåĢĴ": 5316,
      "ä¸¤åı¥": 5317,
      "å½ĵå·¡èŃ¦": 5318,
      "èĭı": 5319,
      "åľ°éģĵ": 5320,
      "æĺİçŁ¥": 5321,
      "æķĻä½ł": 5322,
      "å®ļçļĦ": 5323,
      "åħ¨ä¸ĸçķĮ": 5324,
      "åĽĽä¸ĭ": 5325,
      "åĲĥé£Ł": 5326,
      "åĲĥäºı": 5327,
      "ç«¹": 5328,
      "åĩºæĿ¥è¿Ľåİ»": 5329,
      "æĶ¾å¼Ģ": 5330,
      "ä¹Łä¸įä¾¿": 5331,
      "è¿ĽåĪ°": 5332,
      "æĪĳä»¬ä¿©": 5333,
      "èĦ¸ä¸ĬçļĦ": 5334,
      "è¿Ļä¹Īè¯´": 5335,
      "åħīçļĦ": 5336,
      "åħīæĺİ": 5337,
      "èī³": 5338,
      "ç²ĺ": 5339,
      "åįĬå¹´": 5340,
      "ä»ĸä¸įæĻĵå¾Ĺ": 5341,
      "æĭīäºĨ": 5342,
      "ç¥¥åŃĲçļĦ": 5343,
      "æ¯Ķä»ĸ": 5344,
      "ç®Ĺè®¡": 5345,
      "èĩªå·±çļĦå¿ĥ": 5346,
      "ä¿¡ä»»": 5347,
      "æŀģå¤§çļĦ": 5348,
      "åģĩèĭ¥å¥¹": 5349,
      "çļĦä¸Ģç¬ĳ": 5350,
      "å¼łç½Ĺ": 5351,
      "æļĳ": 5352,
      "ç»ĵäºĨ": 5353,
      "å¤ļå°ĳæ¬¡": 5354,
      "ä½ĵçļĦ": 5355,
      "çī¹ä½¿": 5356,
      "é©¬ä¸Ĭå°±": 5357,
      "çªĳ": 5358,
      "æ¦´": 5359,
      "çĶ·çļĦ": 5360,
      "ä»ĸä¹Łè®¸": 5361,
      "ç»ĿäºĨ": 5362,
      "éĹŃçľ¼": 5363,
      "å¢Ļæł¹": 5364,
      "èĵĿå¸ĥ": 5365,
      "éĹ²æī¯": 5366,
      "æ¡ĲèĬ³çļĦ": 5367,
      "è¯´äºĨå£°": 5368,
      "ç³Ĭæ¶Ĥ": 5369,
      "æ´ĹèĦ¸": 5370,
      "çļĦèĥĮ": 5371,
      "å¹¶æ²¡æľīä»Ģä¹Ī": 5372,
      "è¿·ä¿¡": 5373,
      "åĬŁè¯¾": 5374,
      "åĪºåĪĢ": 5375,
      "æĥĬå¼Ĥ": 5376,
      "åĲµéĹ¹": 5377,
      "åı³æīĭ": 5378,
      "çļĦè·Ł": 5379,
      "å§ĵåĲį": 5380,
      "çļĦçģ«": 5381,
      "å»īä¼¯å¤ªå¤ª": 5382,
      "çĻ»æĹ¶": 5383,
      "çĤ¸å¼¹": 5384,
      "é²ľèĬ±": 5385,
      "æĬ¥çº¸ä¸Ĭ": 5386,
      "å¦¹å¦¹": 5387,
      "çļĦèģĮ": 5388,
      "éĢīæĭ©": 5389,
      "èīºæľ¯å®¶": 5390,
      "å¤®åĳĬ": 5391,
      "éĢĥåĩºåĮĹå¹³": 5392,
      "è¿·è¿·ç³Ĭç³Ĭ": 5393,
      "åĺĢåĴķ": 5394,
      "©åºı": 5395,
      "įèĿĩ": 5396,
      "çļĦç¥ŀæ°Ķ": 5397,
      "ãĢĢ": 5398,
      "ä¸Ģè¯´": 5399,
      "ä¸Ģåı£æ°Ķ": 5400,
      "ä¸Ģä»¶äºĭ": 5401,
      "ä¹Į": 5402,
      "å¥Ī": 5403,
      "æĪĳèµ°": 5404,
      "æĪĳåħĪ": 5405,
      "æľīçĶ¨": 5406,
      "åħ¼": 5407,
      "åŃĲä¸İ": 5408,
      "å¥¹åľ¨": 5409,
      "å¥¹åİ»": 5410,
      "èµİ": 5411,
      "å¤§æĸ¹": 5412,
      "è¯´è¿ĩ": 5413,
      "åĬĪ": 5414,
      "èĢģåĽĽ": 5415,
      "çľĭä¸Ģçľĭ": 5416,
      "åį¡": 5417,
      "åĦ¿ä¿©": 5418,
      "éĤ£åĦ¿": 5419,
      "éĤ£ä¸¤": 5420,
      "ä¸Ńå¹´": 5421,
      "å¤©æīį": 5422,
      "å¤©æ¡¥": 5423,
      "çļĦè¾": 5424,
      "åĵ²": 5425,
      "æĹ¶çļĦ": 5426,
      "åĿ¡": 5427,
      "æ¯Ļ": 5428,
      "èĦĸ": 5429,
      "çīĪ": 5430,
      "æīĵä¸ª": 5431,
      "æīĵå¼ĢäºĨ": 5432,
      "æīĵæĭĽåĳ¼": 5433,
      "è§ģå¾Ĺ": 5434,
      "åĨįå¤ļ": 5435,
      "æĮ½": 5436,
      "çĻ½éĿ¢": 5437,
      "è¾¨": 5438,
      "åĲİæĿ¥": 5439,
      "åī¥": 5440,
      "æĢİåĬŀ": 5441,
      "äºĨä¸ĢåĿĹ": 5442,
      "çºµ": 5443,
      "ä¿Ĺ": 5444,
      "åıĳæĦģ": 5445,
      "ãĢĤ\"\"": 5446,
      "æīĢæľī": 5447,
      "æīĢèĥ½": 5448,
      "å¤ĸåŃĻ": 5449,
      "åīįéĢĶ": 5450,
      "è¥¿è¾¹": 5451,
      "æ´»æ³¼": 5452,
      "æŃ£è±¡": 5453,
      "æĽ´æľī": 5454,
      "æĳ©": 5455,
      "æį¢äºĨ": 5456,
      "åĮĹå¹³åŁİ": 5457,
      "è¡Įäºº": 5458,
      "çĳŀä¸°çļĦ": 5459,
      "æĪĳçļĦè¯Ŀ": 5460,
      "æĢİä¹ĪåĬŀ": 5461,
      "æ¢ģ": 5462,
      "ç«ĭäºĨèµ·æĿ¥": 5463,
      "æľīçĤ¹ä¸į": 5464,
      "æŁĵ": 5465,
      "çĲĨå½ĵ": 5466,
      "çĲĨåºĶ": 5467,
      "éľ¸": 5468,
      "çłį": 5469,
      "åĵ¥åĦ¿ä»¬": 5470,
      "èĢģäºĮçļĦ": 5471,
      "æĢ¥åĪĩ": 5472,
      "äº¤ç»ĻäºĨ": 5473,
      "åĵŃå£°": 5474,
      "éĶĻåĦ¿": 5475,
      "çģ«è½¦": 5476,
      "æ¯Ľåįļå£«": 5477,
      "è¿Ļä¸Ģå¥Ĺ": 5478,
      "åĩłä¸ªéĴ±": 5479,
      "æıĲçĿĢ": 5480,
      "æ¼«": 5481,
      "åĪĺåĽĽ": 5482,
      "æĪıåī§": 5483,
      "å½±å£ģ": 5484,
      "åįĹå±ĭ": 5485,
      "åħŃåı·": 5486,
      "éĹ²è°Ī": 5487,
      "éĢļçŁ¥": 5488,
      "åĿĲåľ¨äºĨ": 5489,
      "éĢĥåĩºåİ»": 5490,
      "æĢ§åĳ½": 5491,
      "ä¸īä¸ªåŃĹ": 5492,
      "åĻİ": 5493,
      "åĴ¬çĿĢ": 5494,
      "éĨĴäºĨ": 5495,
      "äº§ä¸ļ": 5496,
      "çī¹åĪ«æĺ¯": 5497,
      "å¡«": 5498,
      "ä¸įå¿ħåĨį": 5499,
      "ä½ĵéĿ¢çļĦ": 5500,
      "èĹıåľ¨": 5501,
      "èĥ¸åı£": 5502,
      "æĬĺç£¨": 5503,
      "æķĻèĤ²å±Ģ": 5504,
      "éŃĶ": 5505,
      "èľľ": 5506,
      "çĭłå¿ĥ": 5507,
      "èī¯å¿ĥ": 5508,
      "éģ¿åħį": 5509,
      "çļĦèģªæĺİ": 5510,
      "å¤©å®īéĹ¨åīį": 5511,
      "çļĦçĭĹ": 5512,
      "è¿°è¯´": 5513,
      "ä¾Ľç»Ļ": 5514,
      "æ²¿ä¸Ĭ": 5515,
      "çĤķä¸Ĭ": 5516,
      "æĥ³æĥ³çľĭ": 5517,
      "å®ģåı¯": 5518,
      "å¿ĺè®°äºĨ": 5519,
      "æ¯ķä¸ļ": 5520,
      "æ·±æ·±çļĦ": 5521,
      "çļĦèĲ½": 5522,
      "£åŃĲ": 5523,
      "½åŃĲ": 5524,
      "çļĦæľĭåıĭ": 5525,
      "çļĦåĽŀçŃĶ": 5526,
      "ä»ĸè¿ŀ": 5527,
      "ä»ĸè¶Ĭ": 5528,
      "ä»ĸéĿŀå¸¸çļĦ": 5529,
      "ä»ĸçļĦèĦ¸ä¸Ĭ": 5530,
      "åı¼": 5531,
      "ä¸įä¸ĭ": 5532,
      "ä¸įèµ·æĿ¥": 5533,
      "ä¸Ģåĩº": 5534,
      "ä¸Ģå°ı": 5535,
      "ä¸ĢæĹ¥": 5536,
      "ä¸Ģèº«": 5537,
      "ä¸Ģæ¸ħ": 5538,
      "ä¸ĢèĦļ": 5539,
      "å®ĩ": 5540,
      "åŃ£": 5541,
      "æĪĳåĢĴ": 5542,
      "æĪĳåºĶå½ĵ": 5543,
      "æĪĳç»Ļä½ł": 5544,
      "åħľ": 5545,
      "åŃĲéĥ½": 5546,
      "è¿Ļå¹´æľĪ": 5547,
      "ä¸ĬåŃ¦": 5548,
      "åİ»æīĵ": 5549,
      "åı¯éĿł": 5550,
      "å¤§å£°": 5551,
      "å¾Ĺå¤ª": 5552,
      "éĩĩ": 5553,
      "çľĭä¸Ģçľ¼": 5554,
      "åĦ¿ä¸Ĭ": 5555,
      "éĤ£åĿĹ": 5556,
      "éĤ£è¾¹": 5557,
      "å°±åıĪ": 5558,
      "å®¶äºº": 5559,
      "ä¸Ńåİ»": 5560,
      "ä¼ļæľī": 5561,
      "åıªé¡¾": 5562,
      "åĴĮéĿ¢": 5563,
      "çļĦç´": 5564,
      "ç¬¦": 5565,
      "çĽ¹": 5566,
      "éķ¿äºĨ": 5567,
      "éķ¿åŃĻ": 5568,
      "å¾Īå¥½": 5569,
      "åĸ»": 5570,
      "ä¾¿è¡£": 5571,
      "è°¨æħİ": 5572,
      "å¼Ģçİ©": 5573,
      "èĭŁ": 5574,
      "åĩłåįģ": 5575,
      "èĤł": 5576,
      "æĹ¥æľ¬äººæĺ¯": 5577,
      "åıĳæ¥ŀ": 5578,
      "åĲĥå¾Ĺ": 5579,
      "éĹ®äºĨå£°": 5580,
      "ä¸ĢçĤ¹ä¸į": 5581,
      "åĽłä¸ºä»ĸä»¬": 5582,
      "ç´ł": 5583,
      "è¿Ļä¸ªäºº": 5584,
      "å¥¹çļĦè¯Ŀ": 5585,
      "ä»ĸä¸įå¤§": 5586,
      "çķħ": 5587,
      "ä¹°ä¸ľè¥¿": 5588,
      "è¿ĺæĺ¯éĤ£ä¹Ī": 5589,
      "çļĦèĦ¾æ°Ķ": 5590,
      "çĲĨçĶ±": 5591,
      "è·ĳåĩºåİ»": 5592,
      "ç½¢äºĨ": 5593,
      "æĢİæł·åĳ¢": 5594,
      "çĥŃçļĦ": 5595,
      "ç¨¿": 5596,
      "æ¯ıæ¬¡": 5597,
      "åĨĽäºº": 5598,
      "åĨĽéĺŁ": 5599,
      "éĩįæĸ°": 5600,
      "çĹħé¸Ń": 5601,
      "çĥŁè¢ĭ": 5602,
      "æĴ©": 5603,
      "æĴħ": 5604,
      "è¯·ä½ł": 5605,
      "è¯·å®¢": 5606,
      "è®°å¿Ĩ": 5607,
      "èŃ¦åĳĬ": 5608,
      "çł´äºĨ": 5609,
      "ä¸ģåĬ¡": 5610,
      "åİŁåħĪ": 5611,
      "åĪĺå¤ªå¤ª": 5612,
      "å°ıé¡ºåĦ¿ä¸İ": 5613,
      "ä¸Ģå®ļæĺ¯": 5614,
      "ä»ĸçļĦè½": 5615,
      "ä¸įå¾Ĺå·²": 5616,
      "ä¸Ģè¾¹åĦ¿": 5617,
      "åı¦ä¸Ģ": 5618,
      "èĢĮåıªè§īå¾Ĺ": 5619,
      "æĽ¿ä»ĸ": 5620,
      "åĳ¼åĲ¸": 5621,
      "åĩīçļĦ": 5622,
      "ä¸įçŁ¥æĢİæł·": 5623,
      "å±ĭä¸Ńåİ»": 5624,
      "èµ°äºĨåĩłæŃ¥": 5625,
      "æģĲæĥ§": 5626,
      "æ··èĽĭ": 5627,
      "æķ£äºĨ": 5628,
      "æĹłè®ºæĢİ": 5629,
      "åĽłæŃ¤èĢĮ": 5630,
      "åĵĪæ¬ł": 5631,
      "æ¡Įä¸Ĭ": 5632,
      "çĺ¦é¬¼": 5633,
      "ä¸įçĶ¨è¯´": 5634,
      "æĮīçĿĢ": 5635,
      "ç¿»äºĨ": 5636,
      "æĬ¤åĽ½": 5637,
      "éĤ£çĤ¹éĴ±": 5638,
      "è¯ļæģ³": 5639,
      "ç¬ĳçĿĢè¯´": 5640,
      "çļĦè½¦å¤«": 5641,
      "èĳ¡èĲĦ": 5642,
      "æİĮæŁľçļĦ": 5643,
      "äººçī©çļĦ": 5644,
      "è¯´åĩºè¯ĿæĿ¥": 5645,
      "èľĤ": 5646,
      "åħ±åĴĮéĿ¢": 5647,
      "ç¾ŀæĦ§": 5648,
      "åĴĴéªĤ": 5649,
      "æĨĭéĹ·": 5650,
      "ç»¸ç¼İ": 5651,
      "ç´§ç´§çļĦ": 5652,
      "å±ģèĤ¡": 5653,
      "ä¸Ńå±±è£ħ": 5654,
      "éĶ£é¼ĵ": 5655,
      "ä»ĸçļĦèħ¿": 5656,
      "éĴ¦ä½©": 5657,
      "ç¨½å¯Ł": 5658,
      "èł¢": 5659,
      "ä¸ģåĬ¡æºĲ": 5660,
      "Ļè¿°": 5661,
      "çļĦèµĦæł¼": 5662,
      "äº©": 5663,
      "ä»ĸçĪ±": 5664,
      "ä»ĸåĢĴ": 5665,
      "ä»ĸæĢ»æĺ¯": 5666,
      "åıĻè¿°": 5667,
      "ä¸įå¹³": 5668,
      "ä¸įåĲ¬": 5669,
      "ä¸įçĪ±": 5670,
      "ä¸įæŃ¢": 5671,
      "äºĨäºº": 5672,
      "æĺ¯å¥¹": 5673,
      "æĺ¯æ²¡æľī": 5674,
      "ä¸ĢçŃī": 5675,
      "ä¸Ģåº§": 5676,
      "äººæĿ¥": 5677,
      "åĲĽ": 5678,
      "æĪĳæĢķ": 5679,
      "åĩĦ": 5680,
      "å¿Į": 5681,
      "çĿĢèĦļ": 5682,
      "ç»£": 5683,
      "ä¹Łç½¢": 5684,
      "åĪ°æĹ¶åĢĻ": 5685,
      "åĩºçļĦ": 5686,
      "åĩºä¸ĢçĤ¹": 5687,
      "å¥½åľ¨": 5688,
      "å¥½åĲĹ": 5689,
      "å¥½åıĭ": 5690,
      "åĦ¿éĥ½": 5691,
      "åĦ¿åĳ¢": 5692,
      "èĢĮå·²": 5693,
      "å°±éĥ½": 5694,
      "èĩªæĿĢ": 5695,
      "èĩªåĬ¨çļĦ": 5696,
      "å°ıé©¬": 5697,
      "ä½łæ²¡": 5698,
      "ä¸ŃåŃ¦": 5699,
      "è¿ĺå¾Ī": 5700,
      "æĥ³ä¸įèµ·": 5701,
      "ä¸ºäºº": 5702,
      "ä¸ºèĩªå·±": 5703,
      "æĦī": 5704,
      "ä»Ģä¹Īæĺ¯": 5705,
      "èĩªå·±æľī": 5706,
      "èĩªå·±çļĦè½¦": 5707,
      "èµ°åĳ¢": 5708,
      "ä½ľåĵģ": 5709,
      "ç¬¨": 5710,
      "çĽĲ": 5711,
      "å¾Īè±¡": 5712,
      "ä»ĸçļĦå£°éŁ³": 5713,
      "æ´Ĵ": 5714,
      "æīĭæ®µ": 5715,
      "æīĵè¿ĩ": 5716,
      "ä¾¿åı¯ä»¥": 5717,
      "è°·": 5718,
      "ä¸īä½į": 5719,
      "ä¸¤åı£": 5720,
      "å¼Ģå¼Ģ": 5721,
      "å½ĵæĹ¶": 5722,
      "çĻ½çĻ½çļĦ": 5723,
      "äºĮä½į": 5724,
      "éĹ¨åīį": 5725,
      "æķĻäººå®¶": 5726,
      "è´ŀ": 5727,
      "ä¿ĥ": 5728,
      "ä¿Ĭ": 5729,
      "é«ĺå£°": 5730,
      "åħ¨åŁİ": 5731,
      "åĲĥçļĦ": 5732,
      "å§¿": 5733,
      "å¿«äºĨ": 5734,
      "æĸ¹åĲĳ": 5735,
      "è¿ĽåŁİ": 5736,
      "åĽłä¸ºæĪĳ": 5737,
      "æĭ¿éĴ±": 5738,
      "éªļ": 5739,
      "è¿Ļä¹ĪçĿĢ": 5740,
      "åĳĬè¾ŀ": 5741,
      "åħīæ£į": 5742,
      "åĲĳåīį": 5743,
      "æį£": 5744,
      "çļĦäºĭå®ŀ": 5745,
      "ä¹°åĪ°": 5746,
      "æĦŁè§īåĪ°": 5747,
      "æĢİä¹Īæł·": 5748,
      "åĨ³ä¸įä¼ļ": 5749,
      "æľįä»İ": 5750,
      "åģĩèĭ¥ä»ĸä»¬": 5751,
      "åŃĹåı·": 5752,
      "çº¢èµ·æĿ¥": 5753,
      "äºĶä¸ª": 5754,
      "æĤĦ": 5755,
      "èĪ¹": 5756,
      "åľ°æĸ¹åİ»": 5757,
      "å©Ĩæ¯į": 5758,
      "æ»¡èĦ¸": 5759,
      "å®¢åİħ": 5760,
      "çİ©çİ©": 5761,
      "åĩĨäºĨ": 5762,
      "åĲĪçĲĨ": 5763,
      "çĥŁåį·": 5764,
      "æĴĳ": 5765,
      "æĮĩçĶ²": 5766,
      "åħ«ä¸ª": 5767,
      "ä¸įåĩºå£°": 5768,
      "çħ§çĿĢ": 5769,
      "è¯ŃçļĦ": 5770,
      "æģ¨æĹ¥æľ¬äºº": 5771,
      "èĵĦ": 5772,
      "çŁ³æ¦´": 5773,
      "éģĩè§ģäºĨ": 5774,
      "åıĺæĪĲä¸ª": 5775,
      "æ¥ŀäºĨåįĬå¤©": 5776,
      "æľīä»Ģä¹ĪçĶ¨åĳ¢": 5777,
      "çĪ¶äº²çļĦ": 5778,
      "ç¥ĸæ¯į": 5779,
      "ç£ģ": 5780,
      "æŀ¶åŃĲ": 5781,
      "çļĦèº«åĪĨ": 5782,
      "äºĨä¸¤å£°": 5783,
      "âĳ¢": 5784,
      "ç®ĢçĽ´æĺ¯": 5785,
      "å¡Į": 5786,
      "è¯ķè¯ķ": 5787,
      "çļĦç¡®æĺ¯": 5788,
      "æ±īå¥¸ä»¬": 5789,
      "ä¸¢äºº": 5790,
      "åĽ°èĭ¦": 5791,
      "ä¾ĿæĹ§": 5792,
      "å°ıè¯´ä¸Ń": 5793,
      "èĥ¸åīį": 5794,
      "æİĴéķ¿": 5795,
      "å¹´è½»çļĦ": 5796,
      "ä¸ĢçĽ´åĪ°": 5797,
      "åĬ¨äºĨå¿ĥ": 5798,
      "çļĦçģ¯": 5799,
      "è¡¥ä¸Ĭ": 5800,
      "è¶£åĳ³": 5801,
      "éĵľåŃĲ": 5802,
      "éĵľæĿ¿": 5803,
      "åį°è±¡": 5804,
      "çĮĽçļĦ": 5805,
      "æī¶çĿĢ": 5806,
      "å¨ĺå®¶å¦Ī": 5807,
      "æŀ£æłĳ": 5808,
      "èĢĲçĥ¦": 5809,
      "å¤¸èµŀ": 5810,
      "åĵªæĢķæĺ¯": 5811,
      "åģ¥åº·": 5812,
      "éĹ´å°ıå±ĭ": 5813,
      "è¯ħåĴĴ": 5814,
      "çļĦè¨Ģè¯Ń": 5815,
      "è¿ĳè§Ĩçľ¼": 5816,
      "æĬ¤åĽ½å¯º": 5817,
      "ĵĿ": 5818,
      "çļĦåľ¨": 5819,
      "çļĦæĥ³": 5820,
      "çļĦéĴ±": 5821,
      "çļĦå¾Ī": 5822,
      "çļĦåı«": 5823,
      "ä»ĸæĥ³åĪ°": 5824,
      "ä»ĸè¦ģæĺ¯": 5825,
      "äºĨä»ĸä¸Ģ": 5826,
      "æĺ¯éĿŀ": 5827,
      "æľĹ": 5828,
      "ä¸Ģæł¹": 5829,
      "äººæ°ĳ": 5830,
      "æĪĳå·²": 5831,
      "æĪĳçĪ±": 5832,
      "æľīå¥½": 5833,
      "æľīäºĭ": 5834,
      "æĹ·": 5835,
      "æĿ¥ä¸ª": 5836,
      "çĿĢæ°Ķ": 5837,
      "åľ¨éĹ¨å¤ĸ": 5838,
      "åľ¨åĵªéĩĮ": 5839,
      "å¥¹å¾Ĺ": 5840,
      "å¥¹åĳ¢": 5841,
      "å¥¹ä¸įæķ¢": 5842,
      "è¿ĻåĽŀäºĭ": 5843,
      "åı¯ä¸į": 5844,
      "å¤§è¡Ĺ": 5845,
      "å¾Ĺæľī": 5846,
      "å¾Ĺè¦ģ": 5847,
      "å¾Ĺåķ¦": 5848,
      "åĪ°ä¸Ģå¤Ħ": 5849,
      "è¯´æľī": 5850,
      "åĬ±": 5851,
      "èĢģæĺ¯": 5852,
      "èĢģèĢģå®ŀ": 5853,
      "å¥½å¥½": 5854,
      "å¥½æ±ī": 5855,
      "èĢĮèĩªå·±": 5856,
      "å°±æ²¡": 5857,
      "å°±è±¡": 5858,
      "èĩªæľī": 5859,
      "å°ıåª³å¦ĩ": 5860,
      "å°ıéĤ±": 5861,
      "æł¸": 5862,
      "è¦ģä¸įæĺ¯": 5863,
      "è¿ĺæľīçĤ¹": 5864,
      "å¤©åľ°": 5865,
      "åı¯æĺ¯æ²¡": 5866,
      "å¿ĥæĢĿ": 5867,
      "çļĦèĪ": 5868,
      "çļĦèı": 5869,
      "éĴŀ": 5870,
      "ä¸ĭæĿ¥çļĦ": 5871,
      "æĸĳ": 5872,
      "ä»ĸä»¬å°±": 5873,
      "ç¥Ń": 5874,
      "è½°": 5875,
      "çļĦçª": 5876,
      "çļĦçĺ": 5877,
      "ä½ľåĪ°": 5878,
      "åħĪåĪ«": 5879,
      "éķľ": 5880,
      "çľ¼çļ®": 5881,
      "å¾Īå°ı": 5882,
      "å¾Īéļ¾": 5883,
      "æīĭèĦļ": 5884,
      "å¯¹å¾ħ": 5885,
      "æīĵçļĦ": 5886,
      "æīĵæŃ»": 5887,
      "éĢ®": 5888,
      "éĢŁ": 5889,
      "è°İ": 5890,
      "æĮ¥": 5891,
      "å¼ĢçĿĢ": 5892,
      "å·²è¢«": 5893,
      "çĻ½äºĨ": 5894,
      "åľ°è¯´": 5895,
      "åľ°ä¸ĬçļĦ": 5896,
      "æŀķ": 5897,
      "äºĮå¤ªå¤ª": 5898,
      "ä½¿èĩªå·±": 5899,
      "èĤ¿": 5900,
      "è´©": 5901,
      "éĿ¢ç²ī": 5902,
      "å¹³éĿĻ": 5903,
      "çŁ¥éģĵèĩªå·±": 5904,
      "æĹłäºĭ": 5905,
      "æĹłæĦı": 5906,
      "å¹´æĿ¥": 5907,
      "æŃ»å¾Ĺ": 5908,
      "å¾Ģè¥¿": 5909,
      "é©´": 5910,
      "æĽ´å¤§": 5911,
      "æĽ´å¤ļ": 5912,
      "æµĩ": 5913,
      "åĲĳå¤§å®¶": 5914,
      "ä»ĸä¸įçŁ¥": 5915,
      "ç®ĹäºĨåĲ§": 5916,
      "åŁİå¢Ļ": 5917,
      "åŃĹçļĦ": 5918,
      "çĲĨä¼ļ": 5919,
      "éľľ": 5920,
      "èĻ½çĦ¶ä»ĸ": 5921,
      "åįĸåĬĽæ°Ķ": 5922,
      "ä¸ĥåįģ": 5923,
      "å«ī": 5924,
      "å²Ķ": 5925,
      "äº¤æľĭåıĭ": 5926,
      "éŁ³ä¹Ĳ": 5927,
      "åĨĽéĺĢ": 5928,
      "å°ĨæĿ¥çļĦ": 5929,
      "ä¹¦ç±į": 5930,
      "æĭĽå¼ŁçļĦ": 5931,
      "éĢģæĿ¥": 5932,
      "å°½äºĨ": 5933,
      "å°½å¿ĥ": 5934,
      "åħ«ä¹Ŀ": 5935,
      "ä»ĸä¸ĢåĲĳ": 5936,
      "å»¶": 5937,
      "çĿ¡ä¸įçĿĢ": 5938,
      "è¿ĺä¸įèĤ¯": 5939,
      "èĻİå§ĳå¨ĺ": 5940,
      "éĩİå¿ĥ": 5941,
      "å¥¹ä»¬çļĦ": 5942,
      "èĩªçĦ¶çļĦ": 5943,
      "åĵ¼åĵ¼": 5944,
      "åı°ä¸ĭ": 5945,
      "çļĦåľ°æĸ¹åİ»": 5946,
      "æ¸ħæ¥ļäºĨ": 5947,
      "ä¸įè¦ģç´§": 5948,
      "çĭ±ä¸Ń": 5949,
      "çļĦè½¬": 5950,
      "æ³¨æĦıåĪ°": 5951,
      "åĴ¬çīĻ": 5952,
      "è¿Ļç§įäºĭ": 5953,
      "çĨ¬": 5954,
      "æĺ¥å¤©": 5955,
      "æĽ¹å®ħ": 5956,
      "é¸¡èĽĭ": 5957,
      "åĲµåĺ´": 5958,
      "ç»ĻäºĨä»ĸ": 5959,
      "ä»ĸå¾Īæĥ³": 5960,
      "ä»ĸçľĭåĩºæĿ¥": 5961,
      "é¼»åŃĲä¸Ĭ": 5962,
      "è¸ı": 5963,
      "æĢĢéĩĮ": 5964,
      "æľĿä¸ĢæĹ¥": 5965,
      "èĸ¯": 5966,
      "æĭ¦ä½ı": 5967,
      "äºĨå¥½åĩł": 5968,
      "äºĨå¥½ä¹ħ": 5969,
      "çŃĶåºĶäºĨ": 5970,
      "æĪĳçľĭåĵª": 5971,
      "è¿ĻåĦ¿æĿ¥": 5972,
      "åħħå®ŀ": 5973,
      "æĭ³å¤´": 5974,
      "åĳ¨æİĮæŁľ": 5975,
      "çľŁæŃ£çļĦ": 5976,
      "ä¹ĸä¹ĸ": 5977,
      "åıªåī©ä¸ĭ": 5978,
      "çļĦçĲĨçĶ±": 5979,
      "ç»ĵæĿŁäºĨ": 5980,
      "å¦¥å½ĵ": 5981,
      "æĸ½å±ķ": 5982,
      "æĪĴæĮĩ": 5983,
      "æĥ³äºĨæĥ³": 5984,
      "å®ĹæķĻ": 5985,
      "è¢ĸåı£": 5986,
      "çļĦèĭ±éĽĦ": 5987,
      "ç§ĺå¯Ĩ": 5988,
      "å®³äºĨæĢķ": 5989,
      "äºĴçĽ¸": 5990,
      "å°ĺåľŁ": 5991,
      "åħĶåĦ¿çĪ·": 5992,
      "å¥Īä½ķ": 5993,
      "ä»ĸçļĦè½¦": 5994,
      "ç¨½å¯Łéķ¿": 5995,
      "\"ï¼ģ": 5996,
      "¯åŃĲ": 5997,
      "èŁ": 5998,
      "çļĦæĿ¥": 5999,
      "çļĦåĬ¨": 6000,
      "çļĦæĹ¥æľ¬äºº": 6001,
      "çļĦéĤ£ä¹Ī": 6002,
      "çļĦåľ°ä½į": 6003,
      "äºļ": 6004,
      "ä»ĸç»Ļ": 6005,
      "ä»ĸæĦ¿": 6006,
      "ä»ĸåį´": 6007,
      "ä»ĸèµ¶ç´§": 6008,
      "ä¸įçĶ±": 6009,
      "æĺ¯çľŁ": 6010,
      "ä¸ĢæĿ¯": 6011,
      "èĢ½": 6012,
      "äººçĶŁ": 6013,
      "åĲī": 6014,
      "æĪĳåĨį": 6015,
      "æĪĳç®ĢçĽ´": 6016,
      "æľīæ²¡æľī": 6017,
      "æīĴ": 6018,
      "æĿ¥çĿĢ": 6019,
      "æĿ¥è¯´": 6020,
      "æĿ¥çľĭçľĭ": 6021,
      "åľ¨åĲİéĿ¢": 6022,
      "å¥¹é©¬ä¸Ĭ": 6023,
      "æ²¡éĴ±": 6024,
      "ç»©": 6025,
      "ä¹ŁæľīçĤ¹": 6026,
      "åĪ°å¦Ĥä»Ĭ": 6027,
      "å¹»": 6028,
      "å¹ķ": 6029,
      "èĢģå¦Ī": 6030,
      "çľĭå¾Ĺèµ·": 6031,
      "çľĭä¸įè§ģ": 6032,
      "åĩºåįĸ": 6033,
      "å¥½æľĭåıĭ": 6034,
      "å¥½ä¹ħ": 6035,
      "åĦ¿åŃĻ": 6036,
      "èĢĮåİ»": 6037,
      "èĢĮè¢«": 6038,
      "éĤ£ç¾¤": 6039,
      "å°±åľ¨": 6040,
      "ä½łæĿ¥": 6041,
      "æĭ¼": 6042,
      "çĤ¹éĴ±": 6043,
      "æĬĬå°ı": 6044,
      "æĬĬéĹ¨": 6045,
      "æĬĬæı¡": 6046,
      "åı¯æĺ¯ä¹Ł": 6047,
      "çļĦè£": 6048,
      "çļĦèĵĿ": 6049,
      "è¿ĩå¹´": 6050,
      "è¿ĩäºĨä¸Ģä¼ļåĦ¿": 6051,
      "ä»ĸä»¬è¯´": 6052,
      "ä»ĸä»¬åıª": 6053,
      "åĵĹ": 6054,
      "å¯ĵ": 6055,
      "åıªæĺ¯ä¸ª": 6056,
      "è½½": 6057,
      "æ²¡æľīåĪ«çļĦ": 6058,
      "åĮª": 6059,
      "ä½ľé¥Ń": 6060,
      "ä½ľæĪĺ": 6061,
      "çĦī": 6062,
      "çľ¼ç¥ŀ": 6063,
      "å¾Īè¿ľ": 6064,
      "å¾Īä½İ": 6065,
      "æ³¢": 6066,
      "æīĭè¶³": 6067,
      "å¯¹å¥¹": 6068,
      "è°¦": 6069,
      "å£°æĺİ": 6070,
      "ä¸¤æŃ¥": 6071,
      "å·²ä¸įæĺ¯": 6072,
      "çĻ½æĿİ": 6073,
      "èĭįèĿĩ": 6074,
      "çĶ¨åĬĽçļĦ": 6075,
      "äºĨä¸Ģå°ı": 6076,
      "åĪ«åĨį": 6077,
      "ä½¿é¦Ĩ": 6078,
      "æķĻå¸Ī": 6079,
      "æģį": 6080,
      "å¹³å¸¸": 6081,
      "å¹³åĩ¡": 6082,
      "åıĳè´¢": 6083,
      "å¹´å²ģ": 6084,
      "æħ¨": 6085,
      "è½¦æĬĬ": 6086,
      "è½¦åİĤ": 6087,
      "æŃ»é¬¼": 6088,
      "æīįæķ¢": 6089,
      "åŃ¦èĢħ": 6090,
      "å§»": 6091,
      "çľŁæľī": 6092,
      "å¿«åĪ°": 6093,
      "åķĲ": 6094,
      "æĭ¿æĿ¥": 6095,
      "æŃ£ç¡®": 6096,
      "æĽ´åĬł": 6097,
      "åºĶéħ¬": 6098,
      "çŃīæĪĳ": 6099,
      "è¿Ļä¹Īå¤§": 6100,
      "è°ģéĥ½": 6101,
      "çĪ±æĥħ": 6102,
      "æįĤ": 6103,
      "æįĨ": 6104,
      "å¥¹çļĦä¸Īå¤«": 6105,
      "ç²¹": 6106,
      "åĪĨæĺİ": 6107,
      "åĪĨéĩı": 6108,
      "äº²å¯Ĩ": 6109,
      "åįĬæŃ»": 6110,
      "åĿĲäºĨ": 6111,
      "è¾¹çļĦ": 6112,
      "è¡ĮæĿİ": 6113,
      "æĦŁè§ī": 6114,
      "æĪĳçļĦä¸Īå¤«": 6115,
      "åĢĴåľ¨": 6116,
      "å·²ç»ıæĺ¯": 6117,
      "åĶ¬": 6118,
      "éĶĲ": 6119,
      "éĹ´æĪ¿": 6120,
      "å¸¦åĩº": 6121,
      "è¶Ĭå¤ļ": 6122,
      "èĲ½ä¸ĭæĿ¥": 6123,
      "å¿½å¿½": 6124,
      "çĸ¾": 6125,
      "é»ĳå½±": 6126,
      "é¥Ńé£Ł": 6127,
      "äºĶçĻ¾": 6128,
      "å¤§èµ¤åĮħä¸İ": 6129,
      "çĥŃå¿ĥ": 6130,
      "æĹ¢ä¸į": 6131,
      "èĪħ": 6132,
      "èĪĲ": 6133,
      "ä¸įæķ¢åİ»": 6134,
      "æľĪçļĦ": 6135,
      "å®ĺåı¸": 6136,
      "äº®äºĨ": 6137,
      "æĪĺèĥľ": 6138,
      "äº¤éĻħ": 6139,
      "è¿ĩåİ»çļĦ": 6140,
      "åŃ¦çĶŁçļĦ": 6141,
      "åĨ³å®ļäºĨ": 6142,
      "å¼Ħå¾Ĺ": 6143,
      "ä»ĸä¸Ģè¾¹": 6144,
      "åĹ¡": 6145,
      "æ¯Ľå·¾": 6146,
      "ç»Ŀä¸įä¼ļ": 6147,
      "ä½łä»¬çļĦ": 6148,
      "åĭĴ": 6149,
      "æŀªå¼¹": 6150,
      "æłĳæľ¨": 6151,
      "åħ¶ä¸Ń": 6152,
      "åħ¶ä»ĸçļĦ": 6153,
      "æĻļéĹ´": 6154,
      "æī¯çĿĢ": 6155,
      "çľ¼çĿĽéĩĮ": 6156,
      "è¿ĳäºĨ": 6157,
      "æ¥ŀèµ·æĿ¥": 6158,
      "ä»ĸçļĦè´": 6159,
      "åľĪåĦ¿": 6160,
      "çķĻå£°æľº": 6161,
      "é¡¾èĻĳ": 6162,
      "è¿ĲçĶ¨": 6163,
      "å®¶éĩĮçļĦäºº": 6164,
      "çļĦèĥ¸": 6165,
      "çĭ±éĩĮ": 6166,
      "åİĮæģ¶": 6167,
      "è°ĥåĬ¨": 6168,
      "é¼ĵåĬ±": 6169,
      "æĲ¬åĪ°": 6170,
      "æĮºçĿĢ": 6171,
      "åĶ±æĪı": 6172,
      "ç¥ģå®¶çļĦäºº": 6173,
      "æ²Ļåıĳ": 6174,
      "çĿģçľ¼": 6175,
      "æĿ¨å¤ªå¤ª": 6176,
      "è´§çī©": 6177,
      "ä¸¢å¤±äºĨ": 6178,
      "çļĦèĤ©": 6179,
      "èº²éģ¿": 6180,
      "çĭĤé£İ": 6181,
      "æĹłèģĬçļĦ": 6182,
      "çģŃäº¡": 6183,
      "çªĹæĪ·": 6184,
      "åĿŁå¤´": 6185,
      "çļĦçĽ®": 6186,
      "æ£ļåĮł": 6187,
      "èĿ¶": 6188,
      "å¿ĹæĦ¿": 6189,
      "æįŁå¤±": 6190,
      "èĪĮå¤´": 6191,
      "å°¾å·´": 6192,
      "çº¯ç²¹": 6193,
      "æĳĬåŃĲ": 6194,
      "æŃ£å¦ĤåĲĮ": 6195,
      "çļĦè±¡": 6196,
      "åĳľåĽĶ": 6197,
      "å¼Ģçİ©ç¬ĳ": 6198,
      "å«īå¦Ĵ": 6199,
      "é³": 6200,
      "ģè®¸": 6201,
      "çļĦçľŁ": 6202,
      "çļĦå¥³": 6203,
      "ä»Ķ": 6204,
      "ä»ĸå°Ĩ": 6205,
      "ä»ĸå¿ĥéĩĮ": 6206,
      "ä»ĸåĸľæ¬¢": 6207,
      "ä»ĸè¿ĺæ²¡": 6208,
      "ä»ĸçĶļèĩ³äºİ": 6209,
      "ä¸įåĵį": 6210,
      "ä¸įå¿į": 6211,
      "ä¸įå®¢æ°Ķ": 6212,
      "äºĨä½ł": 6213,
      "äºĨå¤´": 6214,
      "äºĨè¿ĩæĿ¥": 6215,
      "äºĨåĽŀåİ»": 6216,
      "ä¸Ģäºº": 6217,
      "ä¸Ģè¯Ń": 6218,
      "ä¸Ģåįĥ": 6219,
      "ä¸ĢåĪĢ": 6220,
      "ä¸Ģå¾ĭ": 6221,
      "å®ĭ": 6222,
      "åŃķ": 6223,
      "äººåĦ¿": 6224,
      "æĪĳèĢģ": 6225,
      "æĪĳæī¾": 6226,
      "æĪĳä¸įæķ¢": 6227,
      "æĪĳåıªå¥½": 6228,
      "æľīä¸ĢçĤ¹": 6229,
      "æľīæľĿä¸ĢæĹ¥": 6230,
      "åħģè®¸": 6231,
      "æĿ¥æī¾": 6232,
      "çĿĢä¸ª": 6233,
      "çĿĢä¸ĢçĤ¹": 6234,
      "åľ¨ä¸Ģä¸ª": 6235,
      "åľ¨å¿ĥéĩĮ": 6236,
      "åľ¨å¤ĸéĿ¢": 6237,
      "å¥¹å¾Ī": 6238,
      "å¥¹å¼Ģå§ĭ": 6239,
      "è¿Ļåı¥è¯Ŀ": 6240,
      "è¿Ļåĩłå¤©": 6241,
      "è¿Ļå°ıåŃĲ": 6242,
      "ä¸Ĭéĥ½": 6243,
      "ä¸Ĭè¯¾": 6244,
      "æĬ¼": 6245,
      "ä¹Łè¿ĺ": 6246,
      "ä¹Łæĺ¯ä¸ª": 6247,
      "èĩ£": 6248,
      "èĢģèĻİ": 6249,
      "çľĭæĪĳ": 6250,
      "çľĭæĺİçĻ½": 6251,
      "èĢĮæľī": 6252,
      "å®¶åŃĲ": 6253,
      "éĥ½è¯´": 6254,
      "ä½łèµ°": 6255,
      "ä½łèĢģäººå®¶": 6256,
      "çĤ¹æĿ¥": 6257,
      "çĤ¹çĤ¹å¤´": 6258,
      "çĤ¹å¤ļéĴŁ": 6259,
      "è¦ģäºº": 6260,
      "æĬĬä»ĸçļĦ": 6261,
      "è¿ĺè®¸": 6262,
      "æĥ³åĪ°äºĨ": 6263,
      "æĥ³ä¸»æĦı": 6264,
      "åı¯æĺ¯å¾Ī": 6265,
      "åı¯æĺ¯å¿ĥä¸Ń": 6266,
      "çļĦè¥¿": 6267,
      "è¿ĩæĹ¥åŃĲ": 6268,
      "ä»Ģä¹Īè¯Ŀåĳ¢": 6269,
      "åıªç®¡": 6270,
      "èµ·çłģ": 6271,
      "éĴ±ä¼ļéķ¿": 6272,
      "è¡°": 6273,
      "çļĦç¦": 6274,
      "ä½ľæ¢¦": 6275,
      "è·ĥ": 6276,
      "çľ¼éĩĮ": 6277,
      "å¾Īéķ¿": 6278,
      "æīĭæŀª": 6279,
      "å¯¹çļĦ": 6280,
      "æīĵèĥľ": 6281,
      "å£°åĵį": 6282,
      "ä¸¤åĿĹ": 6283,
      "çĻ½å¸ĥ": 6284,
      "çĶ¨å°ı": 6285,
      "éĹ¨åŃĲ": 6286,
      "åī²": 6287,
      "æķĻäºº": 6288,
      "æķĻå¤§å®¶": 6289,
      "èĤĺ": 6290,
      "æĽ²": 6291,
      "è¢ľåŃĲ": 6292,
      "ä½ıçĿĢ": 6293,
      "åıĳå±ķ": 6294,
      "ç§©åºı": 6295,
      "åĲ¬åĪ°äºĨ": 6296,
      "æīįæľī": 6297,
      "æīįè¯´": 6298,
      "æīįä¼ļ": 6299,
      "å¹¶ä¸įèĥ½": 6300,
      "èº«æĿ¥": 6301,
      "èº«ä¸ĬçļĦ": 6302,
      "è®¸ä¹ħ": 6303,
      "å¹²èĦ¸ä¸Ĭ": 6304,
      "è¿Ļä¹Īä¸Ģåı¥": 6305,
      "é¡ºæīĭ": 6306,
      "è°ģæķ¢": 6307,
      "çĪ±è¯´è¯Ŀ": 6308,
      "åĲĳå¥¹": 6309,
      "é©¬èĻİ": 6310,
      "ç²ª": 6311,
      "èĬ±äºĨ": 6312,
      "åįĬå¤ľ": 6313,
      "è¡Įå¤´": 6314,
      "åĪĩçĽ¼": 6315,
      "èĩ³å¤ļ": 6316,
      "æŁı": 6317,
      "çļĦä¸ĢäºĽ": 6318,
      "çļĦä¸ĢæĿ¡": 6319,
      "ç¥ŀç»ı": 6320,
      "é¥Ńé¦Ĩ": 6321,
      "éľĩ": 6322,
      "éľī": 6323,
      "äºĶåĿĹéĴ±": 6324,
      "æĤł": 6325,
      "æĲĵ": 6326,
      "èĻ½çĦ¶å¦ĤæŃ¤": 6327,
      "ç¼¸": 6328,
      "ç¼ł": 6329,
      "å¢¨": 6330,
      "è¡Ĺä¸ĬçļĦ": 6331,
      "éĤ£ä¸ªå°ı": 6332,
      "æĢ»ä»¥ä¸º": 6333,
      "ä¸¤ä¸ªåŃ©åŃĲ": 6334,
      "æ°¸è¿ľä¸įä¼ļ": 6335,
      "åĵŃäºĨ": 6336,
      "åĨĽå®ĺ": 6337,
      "éĢģç»Ļ": 6338,
      "å°½åĬĽ": 6339,
      "æ´ĭè½¦å¤«": 6340,
      "åĲįåŃĹ": 6341,
      "å¼ĦåĪ°": 6342,
      "äººå®¶çļĦ": 6343,
      "èĭ¦çĹĽ": 6344,
      "æ°ĳåĽ½": 6345,
      "åĵįå£°": 6346,
      "å¢Ļè§Ĵ": 6347,
      "å®Įåħ¨æĺ¯": 6348,
      "åªĴ": 6349,
      "ä¸Ģè¾¹èµ°": 6350,
      "ç¡¬çļĦ": 6351,
      "æĹ§çļĦ": 6352,
      "æľ¨å¤´": 6353,
      "è¡ĢçļĦ": 6354,
      "ä¹īæ°Ķ": 6355,
      "çĺ¾": 6356,
      "ç¤¼è²Į": 6357,
      "æĿ¿åĩ³": 6358,
      "åĨłå®¶çļĦäºº": 6359,
      "ç¥ĸçĪ¶ä¸İ": 6360,
      "åĬĿæħ°": 6361,
      "èĢģå¤´åĦ¿": 6362,
      "æĮºèµ·": 6363,
      "åľ¨ä»ĸå¿ĥä¸Ń": 6364,
      "æĬ±æĢ¨": 6365,
      "æ¡ĮåŃĲ": 6366,
      "èĤļåŃĲéĩĮ": 6367,
      "æĤ²è§Ĥ": 6368,
      "ç¬¬ä¸Ģæ¬¡": 6369,
      "åı¯çĪ±çļĦ": 6370,
      "å«ģç»Ļ": 6371,
      "è´¢äº§": 6372,
      "çļĦèµ°åĩºåİ»": 6373,
      "å°Ĭæķ¬": 6374,
      "åĳĨåĳĨçļĦ": 6375,
      "ç¦»å¼ĢåĮĹå¹³": 6376,
      "ä»įæĹ§": 6377,
      "èİ«éĿŀ": 6378,
      "çļĩå¸Ŀ": 6379,
      "è±ĨèħĲ": 6380,
      "èĲ½äºĨæ³ª": 6381,
      "ä¹ĺçĿĢ": 6382,
      "æ±ªéĢĨ": 6383,
      "çļĦçĲĨæĥ³": 6384,
      "æµªæ¼«": 6385,
      "èĮ¶é¦ĨéĩĮ": 6386,
      "èªī": 6387,
      "æĦ¤æĢĴ": 6388,
      "äºĮæĿ¥æĺ¯": 6389,
      "åĸīä¸Ń": 6390,
      "è¯¸ä½į": 6391,
      "çļĦç¬ĳäºĨç¬ĳ": 6392,
      "èĢģå¤©çĪ·": 6393,
      "æĵ¦äºĨæĵ¦": 6394,
      "çªĿçªĿå¤´": 6395,
      "çļĦèĮ¶": 6396,
      "ä¸«å¤´": 6397,
      "å°ıé¡ºåĦ¿ä¸İå¦ŀåŃĲ": 6398,
      "åĦ": 6399,
      "çļĦå¾Ģ": 6400,
      "ä»ĸäºĨ": 6401,
      "ä»ĸçļĦèĦļ": 6402,
      "äºĨåĩłåı¥": 6403,
      "ä¸Ģå¤´": 6404,
      "ä¸ĢæľĪ": 6405,
      "ä¸ĢåĽŀäºĭ": 6406,
      "ä¸ĢåıĮ": 6407,
      "ä¸Ģä»½": 6408,
      "ä¸Ģåı·çļĦ": 6409,
      "å¥ī": 6410,
      "å®Ļ": 6411,
      "å°¿": 6412,
      "è¯ĳ": 6413,
      "èĢ¶": 6414,
      "äººäºº": 6415,
      "äººå¿ĥ": 6416,
      "æĪĳä¹Łä¸į": 6417,
      "æĪĳè¿ŀ": 6418,
      "æĪĳæĺ¯ä¸ª": 6419,
      "çľ¯": 6420,
      "çĿ£": 6421,
      "åľ¨ä¹İ": 6422,
      "åľ¨å¤ĸè¾¹": 6423,
      "å¥¹åıªèĥ½": 6424,
      "èµ¢": 6425,
      "èµĸ": 6426,
      "è¿Ļä»¶": 6427,
      "åİ»å½ĵ": 6428,
      "æ²¡åħ³ç³»": 6429,
      "å¤§çĿĢ": 6430,
      "å¾Ĺåĥı": 6431,
      "åĪ°ç¥ģå®¶": 6432,
      "æĢĸ": 6433,
      "èĢģå°ĳ": 6434,
      "èĢģä¸ľè¥¿": 6435,
      "çľĭæĪĲ": 6436,
      "çľĭä¸įåĩº": 6437,
      "çľĭäºĨä¸Ģçľ¼": 6438,
      "å¥½åĳ¢": 6439,
      "èĢĮå¿ĥä¸Ń": 6440,
      "éĤ£å°ģä¿¡": 6441,
      "å°±æ²¡æľī": 6442,
      "èĩªè¨Ģ": 6443,
      "èĩªä¸ªåĦ¿": 6444,
      "å°ıå°ı": 6445,
      "ä¸Ńå¿ĥ": 6446,
      "ä¸Ńå¤®": 6447,
      "æĭ£": 6448,
      "æĬĬä½ł": 6449,
      "è¿ĺæĽ´": 6450,
      "è¿ĩä»ĸ": 6451,
      "ä»ĸä»¬ä¸į": 6452,
      "ä¸İå°ı": 6453,
      "ä»Ģä¹Īåı«": 6454,
      "å¤´ä¸ĬçļĦ": 6455,
      "çļĦçķ": 6456,
      "èµ°çļĦ": 6457,
      "åıĪæ²¡": 6458,
      "çľ¼åħī": 6459,
      "è±¡è¦ģ": 6460,
      "è±¡ä¸Ģä¸ª": 6461,
      "è±¡è¢«": 6462,
      "ä»ĸçļĦå¿ĥéĩĮ": 6463,
      "å¯¹æĪĳ": 6464,
      "å¯¹è¯Ŀ": 6465,
      "å¯¹åĪ«äºº": 6466,
      "æīĵä»ĸ": 6467,
      "æīĵé¼ĵ": 6468,
      "è§ģè¯Ĩ": 6469,
      "ä¸īçĪ·": 6470,
      "ä¸īçĻ¾": 6471,
      "ä¸¤åĿĹéĴ±": 6472,
      "çĻ½èĸ¯": 6473,
      "åĩłåĿĹ": 6474,
      "äºĮåĵ¥": 6475,
      "éĹ¨åĿİ": 6476,
      "åĽ½æ°ĳ": 6477,
      "åĽ½å®¶çļĦ": 6478,
      "äºĨä¸Ģå¤©": 6479,
      "äºĨä¸Ģçķª": 6480,
      "åĪ«çļĦäºĭ": 6481,
      "èĤĿ": 6482,
      "èĥ³èĩĤ": 6483,
      "çŃ¹": 6484,
      "éļľ": 6485,
      "æĹłç¼ĺ": 6486,
      "çĳŀå®£æ²¡": 6487,
      "ä¸įèĥ½åİ»": 6488,
      "åħ¨éĥ½": 6489,
      "åħ¨ä½ĵ": 6490,
      "åı£çļĦ": 6491,
      "æĹ¥æľ¬äººæĿ¥": 6492,
      "åıĳæĢĴ": 6493,
      "åĽĽåı·": 6494,
      "æīĢè¦ģ": 6495,
      "åĲ¬æĪı": 6496,
      "å¿ħå¾Ĺ": 6497,
      "åĲĥçĤ¹": 6498,
      "æĪĲå®¶": 6499,
      "æŃ»åĲİ": 6500,
      "æŃ»å°¸": 6501,
      "æīįæĢª": 6502,
      "åŃ¦å®¶": 6503,
      "åŃ¦è¯Ĩ": 6504,
      "èº«åĲİ": 6505,
      "çĶ±ä»ĸ": 6506,
      "æĥħæĦŁ": 6507,
      "æĢķæŃ»": 6508,
      "çĭ®åŃĲ": 6509,
      "å¹²çļĦ": 6510,
      "å¹²æ¶ī": 6511,
      "åĺ²": 6512,
      "çŃīä¸ĢçŃī": 6513,
      "è¿Ļä¹Īå¤ļ": 6514,
      "è°ģèĥ½": 6515,
      "åħīåĦ¿": 6516,
      "åıĹåĪ°": 6517,
      "è¿ŀç´¯": 6518,
      "ä¼¼çļĦéĤ£ä¹Ī": 6519,
      "éļ¾åıĹ": 6520,
      "åĪĨå®¶": 6521,
      "äº²åĪĩ": 6522,
      "ä»ĸä¸įçĶ±çļĦ": 6523,
      "è¿ľè¿ľçļĦ": 6524,
      "ä¹°æĿ¥": 6525,
      "ä¹°è½¦": 6526,
      "ä»»åĩŃ": 6527,
      "æĻĵèį·çļĦ": 6528,
      "æĦŁè°¢": 6529,
      "çĲ¢": 6530,
      "åĴ±ä¿©": 6531,
      "æ¢¨": 6532,
      "ä¿¡ä»°": 6533,
      "ä¸ŃåĽ½äººçļĦ": 6534,
      "è¶Ĭæĥ³": 6535,
      "çļĦä¸Ģç§į": 6536,
      "ç¥ŀçĪ¶": 6537,
      "è£±": 6538,
      "èħ¹": 6539,
      "å¼łåĺ´": 6540,
      "çĸĻ": 6541,
      "é»ĳäºĳ": 6542,
      "èĻ½çĦ¶æ²¡æľī": 6543,
      "æĬ¥éħ¬": 6544,
      "æĢ»æ¯Ķ": 6545,
      "åĸĿäºĨ": 6546,
      "æĪĺäºĭ": 6547,
      "æĪĺåľº": 6548,
      "ä¸ľéĺ³çļĦ": 6549,
      "åħ¬äºĭ": 6550,
      "ç¿ħ": 6551,
      "æĴµ": 6552,
      "æ´ĭæľį": 6553,
      "ä»ĸæĥ³ä¸įåĩº": 6554,
      "éķ¿é¡ºçļĦ": 6555,
      "çĹĽçĹĽå¿«": 6556,
      "åĹĿ": 6557,
      "è®²çĲĨ": 6558,
      "åĩłä¸ªæľĪ": 6559,
      "ä½ıäºĨä»ĸ": 6560,
      "æŀªæ¯Ļ": 6561,
      "ç¦»å¼ĢäºĨ": 6562,
      "æĶ¹å¤©": 6563,
      "æĳ¸åĪ°": 6564,
      "æĪıåĽŃ": 6565,
      "èĥĮæĻ¯": 6566,
      "ç»¿èĦ¸": 6567,
      "åı¦æľī": 6568,
      "å¤ıåħĪçĶŁ": 6569,
      "ä¸Īå¤«çļĦ": 6570,
      "è¢ĭéĩĮ": 6571,
      "åħ»æ´»": 6572,
      "æģĲæĢĸ": 6573,
      "åĻľ": 6574,
      "æĿ¾åĦ¿": 6575,
      "åĢ¼éĴ±": 6576,
      "æĮ¨æīĵ": 6577,
      "åĴ¬ä¸ĬäºĨ": 6578,
      "äºĨä¸¤ä¸ĭ": 6579,
      "åľ¨ä¸ĢæĹģ": 6580,
      "æķ¬éĩį": 6581,
      "çļĦè´¢": 6582,
      "ä»ĩæģ¨": 6583,
      "æĺ¥é£İ": 6584,
      "å¥½åĥıæĺ¯": 6585,
      "è¹Ń": 6586,
      "æĭ¾èµ·": 6587,
      "å¾·æ²»": 6588,
      "èģĮåĳĺ": 6589,
      "è¯»èĢħ": 6590,
      "çĿģå¼ĢäºĨ": 6591,
      "ä¼¸åĩº": 6592,
      "æĹłåı¯å¥Īä½ķ": 6593,
      "æĿ¨å®¶": 6594,
      "åĨĴäºĨ": 6595,
      "å¸Ĥåľº": 6596,
      "ãĢĭï¼Į": 6597,
      "çĮľåĪ°": 6598,
      "åĿĲçĿĢåĳ¢": 6599,
      "çļĦçģµ": 6600,
      "æĿĤéĻ¢éĩĮ": 6601,
      "çļĦè¡£è£³": 6602,
      "æ¬ºéªĹ": 6603,
      "ç¯®": 6604,
      "æĥ¨ç¬ĳäºĨä¸Ģä¸ĭ": 6605,
      "å°ĸéĶĲ": 6606,
      "è£¤åŃĲ": 6607,
      "ä¸įå°ĳçļĦ": 6608,
      "æ£īè¢į": 6609,
      "æ£īè¢Ħ": 6610,
      "æĪ´çĿĢ": 6611,
      "èµĶéĴ±": 6612,
      "çľ¨çľ¼": 6613,
      "éĽĨä¸Ń": 6614,
      "çļĦèĭ¦å¤Ħ": 6615,
      "çļĦèĭ¦çĹĽ": 6616,
      "çī¢éªļ": 6617,
      "çļĦè¡¨çİ°": 6618,
      "çĸ¯çĭĤ": 6619,
      "æĹłåı¯å¦Ĥä½ķçļĦ": 6620,
      "å²Ĥä¸įæĺ¯": 6621,
      "çļĦè°Ī": 6622,
      "å¤ĸåĽ½äºº": 6623,
      "ä¸Ģè¿ĽéĹ¨": 6624,
      "åĩ¤è´ŀ": 6625,
      "æľĪçīĻåĦ¿": 6626,
      "è¾Ľå¾·æ²»": 6627,
      "å±łæĿĢ": 6628,
      "åĽĽä¸ĸåĲĮåłĤ": 6629,
      "å®ĩå®Ļ": 6630,
      "æĦīå¿«": 6631,
      "èĩªè¨Ģèĩª": 6632,
      "¦Ĩ": 6633,
      "±åŃĲ": 6634,
      "è¦Ĩ": 6635,
      "ä¸¸": 6636,
      "ä¸¹": 6637,
      "çļĦä¸İ": 6638,
      "çļĦå¤ļ": 6639,
      "çļĦåŃ¦çĶŁ": 6640,
      "çļĦæĹ¥åŃĲ": 6641,
      "çļĦæĸ¹æ³ķ": 6642,
      "çļĦæĢģåº¦": 6643,
      "ä»ĸæĢİä¹Ī": 6644,
      "ä»ĸç«ĭèµ·æĿ¥": 6645,
      "ä¸įä½ľ": 6646,
      "ä¸įéĤ£ä¹Ī": 6647,
      "äºĨåĩºåİ»": 6648,
      "æĺ¯æĪĳçļĦ": 6649,
      "ä¸Ģéģĵ": 6650,
      "ä¸Ģæľµ": 6651,
      "ä¸Ģéģį": 6652,
      "ä¸Ģéĥ¨åĪĨ": 6653,
      "èĢĹ": 6654,
      "æĪĳä»¥ä¸º": 6655,
      "æľīæĹł": 6656,
      "æľīçļĦäºº": 6657,
      "åħ°": 6658,
      "åħ¸": 6659,
      "æĿ¥å¾Ĺ": 6660,
      "æĿ¥åĲ§": 6661,
      "çĿĢä¸¤": 6662,
      "åŃĲåŃĻ": 6663,
      "å¥¹æĻĵå¾Ĺ": 6664,
      "èµĪ": 6665,
      "èµĺ": 6666,
      "è¿Ļç¬Ķ": 6667,
      "è¿Ļä¸¤ä¸ªåŃĹ": 6668,
      "ä¸Ĭåīį": 6669,
      "åİ»ç»Ļ": 6670,
      "åİ»æĬ¥åĳĬ": 6671,
      "ä¼¶": 6672,
      "æ²¡çľĭè§ģ": 6673,
      "åĪ°åŃ¦æł¡": 6674,
      "åĪ°åĵªéĩĮ": 6675,
      "æĥ¶": 6676,
      "è¯´åĩłåı¥": 6677,
      "èĢģå¹´": 6678,
      "èĢģéĤ£ä¹Ī": 6679,
      "åĩºèº«": 6680,
      "å¥½åıĹ": 6681,
      "å¥½è¿Ĳ": 6682,
      "åĦ¿åŃĲçļĦ": 6683,
      "å°±å¿ħ": 6684,
      "è§Ī": 6685,
      "éĥ½å·²": 6686,
      "ä½łåĳĢ": 6687,
      "è¿ĺæ´»çĿĢ": 6688,
      "æĥ³ä»Ģä¹Ī": 6689,
      "äºĭéĥ½": 6690,
      "è¿ĩåº¦": 6691,
      "ä»ĸä»¬è¦ģ": 6692,
      "åĵ¨": 6693,
      "éģĹ": 6694,
      "å¤ļå¤§çļĦ": 6695,
      "æľ¬æĺ¯": 6696,
      "éĴ±æİĮæŁľ": 6697,
      "åĴĮå¦ŀåŃĲ": 6698,
      "çļĦç¿": 6699,
      "çļĦçħ": 6700,
      "èµ°è¿ĩåİ»": 6701,
      "åıĪä¸į": 6702,
      "æ°ĶæĿ¥": 6703,
      "éķ¿åı¹": 6704,
      "äºĽä»Ģä¹Ī": 6705,
      "æīĭçļĦ": 6706,
      "æīĵäºº": 6707,
      "åĸĤ": 6708,
      "å£°åĬ¿": 6709,
      "å½ĵä¸Ń": 6710,
      "èĭĳ": 6711,
      "è¾«": 6712,
      "ä¸Ģä¸ªå¤§": 6713,
      "äºĨä¸Ģè·³": 6714,
      "åĬ¨å¿ĥ": 6715,
      "è´¤": 6716,
      "æĹłåħ³": 6717,
      "çĳŀå®£ä¹Ł": 6718,
      "çĳŀå®£æĬĬ": 6719,
      "è¢ľ": 6720,
      "æĹ¥æľ¬äººè¦ģ": 6721,
      "çļĦäººäºĨ": 6722,
      "æīĢè°ĵ": 6723,
      "åĲĥä¸į": 6724,
      "æĪĲä¸ª": 6725,
      "å¤ĸåŃĻåŃĲ": 6726,
      "çľŁåĵª": 6727,
      "æĶ¾èĥĨ": 6728,
      "æľĢå¤§": 6729,
      "æľĢåĪĿ": 6730,
      "æŃ£ç»ı": 6731,
      "æĽ´å¤ļçļĦ": 6732,
      "è¢«åŃĲ": 6733,
      "çĪ±äºº": 6734,
      "çĪ±å¥¹": 6735,
      "åĲĳä¸Ĭ": 6736,
      "å±ĭåŃĲéĩĮ": 6737,
      "èĬ±åŃĲ": 6738,
      "ä»ĸä¸įåĨį": 6739,
      "ç®¡çĿĢ": 6740,
      "ç®¡æķĻ": 6741,
      "æ¯Ķåĸ»": 6742,
      "å°±æĺ¯åľ¨": 6743,
      "åĥ»": 6744,
      "æĢİä¹ĪåĽŀäºĭ": 6745,
      "æ¸ħéĿĻ": 6746,
      "èĻ½è¯´": 6747,
      "æŀģçļĦ": 6748,
      "æŀģå¤§": 6749,
      "åŁİæ¥¼": 6750,
      "ç¥ŀä»Ļ": 6751,
      "ç©ºçĿĢæīĭ": 6752,
      "ç½©": 6753,
      "äºĶåħŃ": 6754,
      "èĻ½çĦ¶æĺ¯": 6755,
      "æĿ¡ä»¶": 6756,
      "æĢİæł·çļĦ": 6757,
      "å¦ŀåŃĲçļĦ": 6758,
      "èģļ": 6759,
      "è¡¨æ¼Ķ": 6760,
      "å¿ĺäºĨä¸ĢåĪĩ": 6761,
      "æ¯ıæľĪ": 6762,
      "æĶ¶äºĨ": 6763,
      "åħ¬å®ī": 6764,
      "ç¿ģ": 6765,
      "ç¿ł": 6766,
      "çİ©èĢį": 6767,
      "åĲįçļĦ": 6768,
      "è°Īè°Ī": 6769,
      "è®°çĿĢ": 6770,
      "å¼Ħä¸ª": 6771,
      "å·®çĤ¹": 6772,
      "æł¹åĦ¿": 6773,
      "èĮ¶åı¶": 6774,
      "æģ¨ä¸įèĥ½": 6775,
      "ä½ıäºĨæ°Ķ": 6776,
      "åĮĸè£ħ": 6777,
      "ä¿ĿéĻ©": 6778,
      "çļ®éŀĭ": 6779,
      "ä¸Ģå®ļè¦ģ": 6780,
      "ä¸Ģå®ļä¸įä¼ļ": 6781,
      "åħ¶ä¸ŃçļĦ": 6782,
      "åĸĦå¿ĥ": 6783,
      "éĩİçĭĹ": 6784,
      "å±ĢéĩĮ": 6785,
      "æļĹå¨¼": 6786,
      "ä»ĸåıªè§īå¾Ĺ": 6787,
      "ä¸Ģè¾¹è¯´": 6788,
      "éľ²åĩºæĿ¥": 6789,
      "æķĮäººçļĦ": 6790,
      "èĥĮçĿĢ": 6791,
      "é¼»åŃĶ": 6792,
      "æ¨±": 6793,
      "ä¹īåĬ¡": 6794,
      "æŃ¦è£ħ": 6795,
      "é£ŀè·ĳ": 6796,
      "å¿µå¤´": 6797,
      "å¿įèĢĲ": 6798,
      "ä¸įçŁ¥ä¸įè§ī": 6799,
      "èĽĩ": 6800,
      "çļĦç¬ĳå®¹": 6801,
      "çļĦçľ¼çıł": 6802,
      "é¸¡æ¯Ľ": 6803,
      "ä»¥åīįçļĦ": 6804,
      "å¹²ä»Ģä¹ĪçļĦ": 6805,
      "çĺ¦åŃĲ": 6806,
      "æĹĹåŃĲ": 6807,
      "æį®è¯´": 6808,
      "èººçĿĢ": 6809,
      "èººä¸ĭ": 6810,
      "çŀ§çŀ§": 6811,
      "è¯´ä¸įæ¸ħ": 6812,
      "ä¸įæĦ¿åĨį": 6813,
      "çģŃäºĨ": 6814,
      "äºĨå¥½å¤§åįĬå¤©": 6815,
      "ç©·äºº": 6816,
      "æ¸©åĴĮ": 6817,
      "æı¡æīĭ": 6818,
      "çļĦç§ĳ": 6819,
      "è°¢è°¢": 6820,
      "åĽ¾çĶ»": 6821,
      "ä¸ĢæĿ¥æĺ¯": 6822,
      "ä¸ĢæĿ¥äºĮ": 6823,
      "å°¸èº«": 6824,
      "æīĵæī®å¾Ĺ": 6825,
      "ä¼Ļè®¡ä»¬": 6826,
      "éĴīåŃĲ": 6827,
      "åıªåī©äºĨ": 6828,
      "åıĳçİ°äºĨ": 6829,
      "å¤ļå¤§åħ³ç³»": 6830,
      "ç°¿": 6831,
      "æĮ£æīİçĿĢ": 6832,
      "è¯¦ç»ĨçļĦ": 6833,
      "é¸¦çīĩ": 6834,
      "è¯´ä¸įåĩºè¯ĿæĿ¥": 6835,
      "çļĦç©ºæ°Ķ": 6836,
      "åĽĽä¸ĭéĩĮ": 6837,
      "è¿·è¿·ç³Ĭç³ĬçļĦ": 6838,
      "åĴ¬çĿĢçīĻ": 6839,
      "éĴŀç¥¨": 6840,
      "æĹłç¼ĺæĹłæķħ": 6841,
      "æĿ¾åĦ¿å¤§çĪ·": 6842,
      "·åĭ¤": 6843,
      "¹ģ": 6844,
      "æª": 6845,
      "ľåĪ©": 6846,
      "çļĦå±±": 6847,
      "çļĦç»ıéªĮ": 6848,
      "çļĦè®¡åĪĴ": 6849,
      "ä»ĸçĶ±": 6850,
      "ä»ĸè½»è½»çļĦ": 6851,
      "ä»ĸä½İå£°çļĦ": 6852,
      "ä»ĸæ²¡æ³ķä¸į": 6853,
      "ä»ĸæĢ¥å¿Ļ": 6854,
      "ä¸įå¿Ļ": 6855,
      "äºĨä¼¼çļĦ": 6856,
      "äºĨåı¥": 6857,
      "ä¸Ģå¼Ģ": 6858,
      "ä¸ĢäºĮ": 6859,
      "ä¸Ģç¢Ĺ": 6860,
      "ä¸ĢéĹª": 6861,
      "æĿı": 6862,
      "äººåĳ½": 6863,
      "æĪĳäºĨ": 6864,
      "æĪĳè¿Ļ": 6865,
      "æĪĳåĪ°": 6866,
      "æĪĳè·Ł": 6867,
      "æĪĳå¹¶ä¸į": 6868,
      "æĪĳå¹¶æ²¡": 6869,
      "æĪĳè¿ĺæ²¡": 6870,
      "æĪĳè¿ĺå¾Ĺ": 6871,
      "æĿ¥èĩª": 6872,
      "çĿĢæ³ª": 6873,
      "åľ¨æĪĳçļĦ": 6874,
      "åľ¨åįĹ": 6875,
      "å¥¹æľī": 6876,
      "å¥¹åı¯ä»¥": 6877,
      "å¥¹å¿ĥä¸Ń": 6878,
      "å¥¹å¹¶ä¸į": 6879,
      "èµ´": 6880,
      "ä¸Ĭè¡Ĺ": 6881,
      "å·¨": 6882,
      "æ²¡çĶ¨": 6883,
      "ç»¢": 6884,
      "ç»ĳ": 6885,
      "å¤§å°ĳçĪ·": 6886,
      "å¾Ĺåİ»": 6887,
      "å¾Ĺä¸įåĪ°": 6888,
      "ä¹ŁåĪ«": 6889,
      "èĢģè¿Ļä¹Ī": 6890,
      "èĢģå¤«å¦ĩ": 6891,
      "çľĭåĲ§": 6892,
      "åĩºåħ¥": 6893,
      "å¥½çİ©": 6894,
      "éĤ®": 6895,
      "èĢĮåľ¨": 6896,
      "èĢĮèĥ½": 6897,
      "èĢĮä¸įæĺ¯": 6898,
      "å°±è¯´": 6899,
      "å°ıèĢģé¼ł": 6900,
      "éĥ½æĦŁåĪ°": 6901,
      "éĥ½å¸Ĥ": 6902,
      "ä½łèĥ½": 6903,
      "è¿ĺå¥½": 6904,
      "æĥ³è¿ĩ": 6905,
      "çļĦè¶": 6906,
      "éĴ®": 6907,
      "è¿ĩäºİ": 6908,
      "ä¼ļä½¿": 6909,
      "ä¸İåħ¶": 6910,
      "ä»Ģä¹Īä¹Łæ²¡": 6911,
      "èµ·åºĬ": 6912,
      "å½ķ": 6913,
      "åĴĮä»ĸçļĦ": 6914,
      "åıĪæľīäºĨ": 6915,
      "ä½ľè¯Ĺ": 6916,
      "çĽĹ": 6917,
      "çĽĽ": 6918,
      "çĽŁ": 6919,
      "èĦĤ": 6920,
      "éķ¿è¢į": 6921,
      "å¾Īé«ĺ": 6922,
      "å¾Īé»ĳ": 6923,
      "è±¡å°ı": 6924,
      "æ³Ľ": 6925,
      "è¯Ŀåı¯è¯´": 6926,
      "æ´²": 6927,
      "å¯¹èĩªå·±è¯´": 6928,
      "åĨįä¹Ł": 6929,
      "åĨįåĬłä¸Ĭ": 6930,
      "ä¸īäºĶ": 6931,
      "ä¸īè§Ĵ": 6932,
      "ç®Ń": 6933,
      "å½ĵéĵº": 6934,
      "çĶ¨äºĨ": 6935,
      "æŀī": 6936,
      "äºĮå¼Ł": 6937,
      "äºĮä¸īåįģ": 6938,
      "åīĬ": 6939,
      "äºĨä¸Ģä»¶": 6940,
      "äºĨä¸ĢæŃ¥": 6941,
      "åĪ«çļĦè¯Ŀ": 6942,
      "èĤ¢": 6943,
      "éĿ¢è²Į": 6944,
      "ä¸ľåĮĹ": 6945,
      "ä¸ľæĸ¹": 6946,
      "çĳŀå®£æĥ³": 6947,
      "é«ĺä¸ªåŃĲ": 6948,
      "åħ¨éĥ¨": 6949,
      "ä½ıçļĦ": 6950,
      "å¿ħçĦ¶": 6951,
      "æĪĲç»©": 6952,
      "ç«ĸ": 6953,
      "çľŁè¯ļ": 6954,
      "åįģä¸ª": 6955,
      "åĮĹäº¬": 6956,
      "éĤ£ä¹Īå¤ļ": 6957,
      "æī¾äºĭ": 6958,
      "æĪĳä»¬éĥ½": 6959,
      "æĪĳä»¬è¦ģ": 6960,
      "æĭ¿è¿ĩæĿ¥": 6961,
      "åı«å¥¹": 6962,
      "è¿ŀä¸Ģä¸ª": 6963,
      "å®Įåķ¦": 6964,
      "ä»ĸä¸įä½Ĩ": 6965,
      "ä¸»åĦ¿": 6966,
      "ä¹°ä¸įåĪ°": 6967,
      "ç®¡æĿŁ": 6968,
      "å®īæİĴ": 6969,
      "åĢĴæĺ¯": 6970,
      "ä¸ľè¥¿éĥ½": 6971,
      "çľĭè§ģä»ĸ": 6972,
      "çİ°åľ¨çļĦ": 6973,
      "åĴ±ä»¬æĺ¯": 6974,
      "èĩªå·±çļĦè¯Ŀ": 6975,
      "éĶĢ": 6976,
      "é¦ħ": 6977,
      "æŀģå¿«": 6978,
      "ç¢Į": 6979,
      "ç¢´åĦ¿": 6980,
      "ç¥ŀç¬¦": 6981,
      "æīĢä»¥ä»ĸ": 6982,
      "å¿½çķ¥": 6983,
      "è·ĳèħ¿": 6984,
      "çĸ¸": 6985,
      "åıįåĬ¨": 6986,
      "ä»ĬåĦ¿": 6987,
      "é£İå¤´": 6988,
      "é£İæĻ¯": 6989,
      "è¡¨æĥħ": 6990,
      "è¡¨éĿ¢ä¸Ĭ": 6991,
      "æ¯ıä¸ªäºº": 6992,
      "å®ĺèģĮ": 6993,
      "äº®èµ·æĿ¥": 6994,
      "ä¹±æĥ³": 6995,
      "æ»¡è¶³": 6996,
      "å®¢äººä»¬": 6997,
      "ç©¿çĿĢä¸Ģ": 6998,
      "åĨĽèŃ¦": 6999,
      "åħ¬å¯ĵ": 7000,
      "çªĦ": 7001,
      "éĩįåºĨ": 7002,
      "åĲįçīĩ": 7003,
      "èĥ¡éĹ¹": 7004,
      "æİ¥è§¦": 7005,
      "è¯Ńæ°Ķ": 7006,
      "é«ĺç¬¬çļĦ": 7007,
      "å¿ĺäºĨèĩªå·±": 7008,
      "æģ¨æģ¶": 7009,
      "çł´çĥĤ": 7010,
      "éĵºåŃĲéĩĮ": 7011,
      "å®³ç¾ŀ": 7012,
      "æ®·åĭ¤": 7013,
      "åĮĸäºĨ": 7014,
      "æłĳåįİ": 7015,
      "å°ıé¡ºåĦ¿åĴĮå¦ŀåŃĲ": 7016,
      "ä¸Ģå®ļä¼ļ": 7017,
      "ä»ĸèĩªå·±ä¹Ł": 7018,
      "èĢĮåĲİæĬĬ": 7019,
      "å½±åĵį": 7020,
      "ç²¾åį«": 7021,
      "æĺ¾çĦ¶": 7022,
      "èĥĸèĥĸ": 7023,
      "åĨįè¯´åĳ¢": 7024,
      "é¢Ĩç²®": 7025,
      "é¢ĨéĺŁ": 7026,
      "ä¸ºä»Ģä¹Īè¦ģ": 7027,
      "è®¨è®º": 7028,
      "å¾ħäºĨä¸Ģä¼ļåĦ¿": 7029,
      "å·¡èŃ¦ä»¬": 7030,
      "å¸¦çĿĢçĤ¹": 7031,
      "è´¹äºĨ": 7032,
      "çĺª": 7033,
      "æĸŃå®ļ": 7034,
      "åģľäºĨ": 7035,
      "åģľä½ı": 7036,
      "æĮ£é¥ŃåĲĥ": 7037,
      "ä¹Łæ²¡æľīäºĨ": 7038,
      "ä¼¤äºĨ": 7039,
      "æķ£æĸĩ": 7040,
      "çļĦèĥľåĪ©": 7041,
      "æĢ§æł¼": 7042,
      "è¿ĻçĤ¹äºĭ": 7043,
      "åĨłå®¶åİ»": 7044,
      "çļĦè½»": 7045,
      "çļĦç¬ĳèµ·æĿ¥": 7046,
      "è°ĥæŁ¥": 7047,
      "çģ°å¿ĥ": 7048,
      "çļĦçľ¼ä¸Ń": 7049,
      "æĲ¬å®¶": 7050,
      "äº§çĶŁ": 7051,
      "çĽ®çļĦ": 7052,
      "æ·¡æ·¡": 7053,
      "èİ·": 7054,
      "æĶ¿å®¢": 7055,
      "çľģéĴ±": 7056,
      "èģĮä¸ļ": 7057,
      "è¶³ä»¥ä½¿": 7058,
      "è¯ķçĿĢ": 7059,
      "çģµéŃĤ": 7060,
      "åįłé¢Ĩ": 7061,
      "èµĦæĸĻ": 7062,
      "æĤ²åĵĢ": 7063,
      "åħįå¾Ĺ": 7064,
      "æĶ¯æĮģ": 7065,
      "æŃ£åľ¨è¿Ļä¸ª": 7066,
      "èľ·": 7067,
      "åĨ²çªģ": 7068,
      "èĦ±äºĨ": 7069,
      "æļĸåĴĮ": 7070,
      "çī²åı£": 7071,
      "åĲĵäºĨä¸Ģè·³": 7072,
      "åŃĿåŃĲ": 7073,
      "åħħåĪĨ": 7074,
      "çĤ®å£°": 7075,
      "æ¤ħåŃĲä¸Ĭ": 7076,
      "åºĻéĩĮ": 7077,
      "åĴĮå¹³çļĦ": 7078,
      "åĽ¾ä¹¦": 7079,
      "å°¸é¦ĸ": 7080,
      "çĸ²åĢ¦": 7081,
      "çļĦèĬ±èįī": 7082,
      "æĺıæĺı": 7083,
      "è¯¯ä¼ļ": 7084,
      "å¦»åŃĲ": 7085,
      "çļĦèģĶ": 7086,
      "éĵ¶è¡Į": 7087,
      "æĪĲä¸Ģçīĩ": 7088,
      "è¾ĵäºĨ": 7089,
      "ä¼Łå¤§çļĦ": 7090,
      "åį«çĶŁ": 7091,
      "çĪ½æĢ§": 7092,
      "æ±ªç²¾åį«": 7093,
      "å¤¸å¥ĸ": 7094,
      "ä¸įåľ¨ä¹İ": 7095,
      "æģŃæķ¬": 7096,
      "åŃ¦ä¼ļäºĨ": 7097,
      "ç¯ĩå°ıè¯´": 7098,
      "æĹħé¦Ĩ": 7099,
      "äººç±»çļĦ": 7100,
      "éĿĻéĿĻçļĦ": 7101,
      "å®¡éĹ®": 7102,
      "æģ¢å¤įäºĨ": 7103,
      "äº¡äºĨåĽ½": 7104,
      "æĦļèł¢": 7105,
      "çļĦèº²": 7106,
      "æ¯Ķå¦Ĥè¯´": 7107,
      "å´ĩæĭľ": 7108,
      "ç»ĵäºĨå©ļ": 7109,
      "æĳ©çĻ»": 7110,
      "çļĦçĺ¦": 7111,
      "çĲ¢ç£¨": 7112,
      "çĸĻçĸ¸": 7113,
      "å³": 7114,
      "çļĦè§ĦçŁ©": 7115,
      "çļĦåį±éĻ©": 7116,
      "ä»ĸçľĭçĿĢ": 7117,
      "ä»ĸä¸ĩ": 7118,
      "ä»ĸä¿©": 7119,
      "ä»ĸæħ¢æħ¢çļĦ": 7120,
      "ä»ĸçľĭåĪ°": 7121,
      "ä»ĸç¬ĳäºĨ": 7122,
      "åıŃ": 7123,
      "æĺ¼": 7124,
      "ä¸įæĶ¾": 7125,
      "ä¸įæĭ¿": 7126,
      "ä¸įæıĲ": 7127,
      "ä¸įç¦»": 7128,
      "ä¸įæ¸ħæ¥ļ": 7129,
      "äºĨæıī": 7130,
      "è¿ģ": 7131,
      "æĺ¯ä¸Ģä¸ª": 7132,
      "æĺ¯è¢«": 7133,
      "æĺ¯æ¯Ķ": 7134,
      "ä¸Ģäº®": 7135,
      "ä¹³": 7136,
      "ä¹ŀ": 7137,
      "å®°": 7138,
      "è¯Ī": 7139,
      "è¯¯äºĨ": 7140,
      "äººä¹ĭ": 7141,
      "æĪĳç»Ļ": 7142,
      "æĪĳæĢİä¹Ī": 7143,
      "æĪĳçİ°åľ¨": 7144,
      "æĪĳä¿©": 7145,
      "æĪĳå¼Ģå§ĭ": 7146,
      "æĹº": 7147,
      "çĿĢä¸Ģä¸ª": 7148,
      "åľ¨èĩªå·±": 7149,
      "åľ¨å¥¹çļĦ": 7150,
      "ä¸ªå¤§": 7151,
      "å¥¹ä¸įæĺ¯": 7152,
      "å¥¹æĺ¯ä¸ª": 7153,
      "å¥¹çļĦèĦ¸ä¸Ĭ": 7154,
      "åĽĬ": 7155,
      "è¿ĻåĿĹ": 7156,
      "è¿ĻåĢĴ": 7157,
      "ä¸ĬéĹ¨": 7158,
      "åİ»åĪ°": 7159,
      "åİ»åĴĮ": 7160,
      "æ²¡åĨį": 7161,
      "æ²¡åĬ¨": 7162,
      "æ²¡ä½ľè¿ĩ": 7163,
      "ç»°": 7164,
      "å¤§ä¼ļ": 7165,
      "å¤§çº¢": 7166,
      "å¾Ĺå¤ļ": 7167,
      "å¾Ĺåıĳ": 7168,
      "åĪ°èĩªå·±": 7169,
      "åĪ°è¥¿": 7170,
      "å¹½": 7171,
      "è¯´è¯´": 7172,
      "èĢģäºĨ": 7173,
      "çľĭè¿ĩ": 7174,
      "åĩºä¸ª": 7175,
      "åĩºä¸Ģä¸ª": 7176,
      "åĩºå«ģ": 7177,
      "åĩºçīĪ": 7178,
      "åĦ¿ä¸į": 7179,
      "èĢĮæ²¡": 7180,
      "èĢĮä¹Ł": 7181,
      "èĢĮåĲĮ": 7182,
      "å°±å¥½": 7183,
      "å°±æĭ¿": 7184,
      "ï¼Łï¼ģ": 7185,
      "å®¶éķ¿": 7186,
      "å°ıä¹°åįĸ": 7187,
      "çĤĴ": 7188,
      "éĥ½è§īå¾Ĺ": 7189,
      "ä½łèĢģ": 7190,
      "ä½łæĥ³": 7191,
      "æĭ¥": 7192,
      "æĭ¨": 7193,
      "æĭĺ": 7194,
      "æł½": 7195,
      "è¿ĺéĥ½": 7196,
      "åı¯æĺ¯ä¸Ģ": 7197,
      "åı¯æĺ¯ä»ĸçļĦ": 7198,
      "å¿ĥè·¯": 7199,
      "å¿ĥçģµ": 7200,
      "å¿ĥçĸ¼": 7201,
      "çĪĨ": 7202,
      "ä¸ĭæīĭ": 7203,
      "ä»ĸä»¬åıĪ": 7204,
      "ä¸İæĹ¥æľ¬äºº": 7205,
      "å¤ļå¹´çļĦ": 7206,
      "å¤´ä¸Ģä¸ª": 7207,
      "éĴ±æĺ¯": 7208,
      "åĮ¾": 7209,
      "åĴĮçĳŀå®£": 7210,
      "åĴĮæĭĽå¼Ł": 7211,
      "èµ°åĪ°äºĨ": 7212,
      "èµ°è¿ĩæĿ¥": 7213,
      "åıĪä¼¼ä¹İ": 7214,
      "åıĪæĺ¯éĤ£ä¹Ī": 7215,
      "ä½ľå®¶": 7216,
      "ä½ľçĶŁæĦı": 7217,
      "ç»Ļä»ĸçļĦ": 7218,
      "è·Į": 7219,
      "å¾Īæĥ³": 7220,
      "å¾Īå°ĳ": 7221,
      "å¾Īé«ĺåħ´": 7222,
      "å¾Īå®¢æ°Ķ": 7223,
      "å¾Īç®Ģåįķ": 7224,
      "æ³°": 7225,
      "è¯ĿåĦ¿": 7226,
      "å·²æľī": 7227,
      "çĻ½çĻ½": 7228,
      "åľ°éĩĮ": 7229,
      "ä¸Ģä¸ªæĹ¥æľ¬äºº": 7230,
      "åĩłä»¶": 7231,
      "éĹ¨ä¸Ĭ": 7232,
      "æĢİä¼ļ": 7233,
      "çº±": 7234,
      "èĥģ": 7235,
      "ä¿Ń": 7236,
      "çŃĲ": 7237,
      "æĹłèĥ½": 7238,
      "çĳŀå®£è¯´": 7239,
      "ä½ıè¿ĩ": 7240,
      "åıĳä½ľ": 7241,
      "åıĳç¬ĳ": 7242,
      "åıĳæ³Ħ": 7243,
      "çļĦäººæ°ĳ": 7244,
      "å¹´äºĨ": 7245,
      "åĽĽéĿ¢": 7246,
      "ç§§": 7247,
      "åĲ¬å®Į": 7248,
      "åĲ¬æĺİçĻ½äºĨ": 7249,
      "æŃ»åķ¦": 7250,
      "ç«ŀ": 7251,
      "å¾ĢåĽŀ": 7252,
      "åŃ¦å¾Ĵ": 7253,
      "çľŁæĥ³": 7254,
      "è¶ħ": 7255,
      "å¹¶æĹł": 7256,
      "é©¾": 7257,
      "æĶ¾ä½İ": 7258,
      "é¥®": 7259,
      "æĽ´å¥½": 7260,
      "æĽ´å¤§çļĦ": 7261,
      "å¹²èĦ¸": 7262,
      "çŃīçļĦ": 7263,
      "çŃīä»ĸ": 7264,
      "æµĨ": 7265,
      "åı«çĿĢ": 7266,
      "è°ģåı«": 7267,
      "çĹķ": 7268,
      "æįı": 7269,
      "å±ĭåİ»": 7270,
      "åĮĹå¹³äººçļĦ": 7271,
      "åĪĨåĪ«": 7272,
      "åĿĲä¸ĭäºĨ": 7273,
      "è½»çľĭ": 7274,
      "çĳŀä¸°å¤ªå¤ª": 7275,
      "çĳŀä¸°å¤«å¦ĩ": 7276,
      "æĪĳçļĦåĦ¿åŃĲ": 7277,
      "ç¥ģçĳŀä¸°": 7278,
      "åĴ±ä»¬å¾Ĺ": 7279,
      "åĩºåİ»çļĦ": 7280,
      "åĳ½è¿Ĳ": 7281,
      "åħ³äºİ": 7282,
      "å¸¦åĪ°": 7283,
      "åĪ°äºĨå®¶": 7284,
      "çļĦä¸ĢåĿĹ": 7285,
      "ç¥ŀèī²": 7286,
      "è·ĳå¾Ĺ": 7287,
      "æ°´çļĦ": 7288,
      "çĸı": 7289,
      "é»ĳäºĨ": 7290,
      "æĹ¢ä¸įèĥ½": 7291,
      "æĢ¥å¾Ĺ": 7292,
      "å¤ļå°ĳå¤ļå°ĳ": 7293,
      "è®¤çľŁ": 7294,
      "æ¬¢å¿ĥ": 7295,
      "åĵŃä¸Ģåľº": 7296,
      "çļĦå°ıåŃ©": 7297,
      "åĨĽäºĭ": 7298,
      "åĨĽè¡£": 7299,
      "éĤ£äºĽäºº": 7300,
      "è¿ĺæľīä¸ª": 7301,
      "åĲįè¯į": 7302,
      "æ¶Īéģ£": 7303,
      "è°ĪåĪ°": 7304,
      "è°Īè®º": 7305,
      "ä»ĸä¹Łä¼ļ": 7306,
      "æĿĢäºĨ": 7307,
      "éķ¿é¡ºåĦ¿": 7308,
      "åĬłç´§": 7309,
      "è½¬äºĨ": 7310,
      "æģ¨èĩªå·±": 7311,
      "çł´å¸ĥ": 7312,
      "çł´åĿı": 7313,
      "è¿ĺä¸įçŁ¥éģĵ": 7314,
      "è¿ĺä¸įå¤Ł": 7315,
      "çİĭäºĶ": 7316,
      "æŀªçĤ®": 7317,
      "è¿ĻäºĽäºº": 7318,
      "çļ®è¢į": 7319,
      "æĩĪ": 7320,
      "æĪıå¼Ħ": 7321,
      "æ·±å¤Ħ": 7322,
      "è®¡ç®Ĺ": 7323,
      "åĩłä¹İè¦ģ": 7324,
      "çº¦èĢĮåĲĮ": 7325,
      "éĹ²äºĭ": 7326,
      "å©ļå§»": 7327,
      "ä¹Ĳè§Ĥ": 7328,
      "æĬĹæķĮ": 7329,
      "è®©ä»ĸ": 7330,
      "çĬ¬": 7331,
      "æŃ¦åĻ¨": 7332,
      "ç«Ļä½ı": 7333,
      "è¯´äºĨåı¥": 7334,
      "æĳĨçĿĢ": 7335,
      "æį¢ä¸Ĭ": 7336,
      "ä»ĸæ²¡æĥ³åĪ°": 7337,
      "ä»ĸä¸įèĥ½åĨį": 7338,
      "èĽ®": 7339,
      "çĻ¾å§ĵ": 7340,
      "æĮ¨äºĨ": 7341,
      "äºĨä¸ªå°ı": 7342,
      "èĢģå¤´åŃĲçļĦ": 7343,
      "å¾Ģå¤ĸè·ĳ": 7344,
      "éĨĴè¿ĩæĿ¥": 7345,
      "ç´¢è¦ģ": 7346,
      "éĺŁä¼į": 7347,
      "çī¹åĪ«æĺ¯åľ¨": 7348,
      "æľªåħį": 7349,
      "åĽŀå®¶æĿ¥": 7350,
      "èİ²": 7351,
      "åıĸå¾Ĺ": 7352,
      "å¡ĺ": 7353,
      "æĸĩåĮĸçļĦ": 7354,
      "åįłäºĨ": 7355,
      "èĹıçĿĢ": 7356,
      "èĩªçĶ±çļĦ": 7357,
      "åĿļå®ļ": 7358,
      "æºľåĦ¿": 7359,
      "å¨¶ä¸ª": 7360,
      "åĲ¦è®¤": 7361,
      "ç©¿çĿĢä»¶": 7362,
      "è¡¥åħħ": 7363,
      "å¸®åĬ©ä»ĸ": 7364,
      "ç¥¨åŃĲ": 7365,
      "å±ķè§Ī": 7366,
      "æįīä½ı": 7367,
      "ç¼ĿåŃĲ": 7368,
      "æ¼Ĥäº®çļĦ": 7369,
      "çļĦç§ĭ": 7370,
      "åĳĨåĳĨçļĦç«ĭ": 7371,
      "åįĪé¥Ń": 7372,
      "æıīäºĨæıī": 7373,
      "ä¸ĳæģ¶": 7374,
      "åĳ¨åĪ°": 7375,
      "åĽĽåįģå¤ļå²ģ": 7376,
      "çļĦçĭĤ": 7377,
      "æ±¡è¾±": 7378,
      "çŀªçľ¼": 7379,
      "å¾Ĵå¼Ł": 7380,
      "åıĳçĶŁäºĨ": 7381,
      "æ§Ĳæłĳä¸ĭ": 7382,
      "çļĦç¾İä¸½": 7383,
      "æĤ£éļ¾": 7384,
      "ä¹¡ä¸ĭäºº": 7385,
      "é¹°": 7386,
      "è´¨éĹ®": 7387,
      "å¥½æŃ¹çļĦ": 7388,
      "ä¸Ńå±±åħ¬åĽŃ": 7389,
      "åĮĨåĮĨ": 7390,
      "çĮ´åŃĲ": 7391,
      "è·ºèĦļ": 7392,
      "æĥ©ç½ļ": 7393,
      "çļĦèī¯": 7394,
      "ç»³åŃĲ": 7395,
      "æĭĮåĺ´": 7396,
      "çļĦçĹĽèĭ¦": 7397,
      "å°ıé©¬åĦ¿": 7398,
      "çļĦèıľ": 7399,
      "æªĲ": 7400,
      "¡çĮ": 7401,
      "¤Ĳ": 7402,
      "¸ç®": 7403,
      "é¤Ĳ": 7404,
      "Ŀéº»": 7405,
      "ï¼Įï¼Ī": 7406,
      "çļĦå¿ĥä¸Ń": 7407,
      "çļĦæ³ª": 7408,
      "çļĦçĿ¡": 7409,
      "ä»ĸéĤ£": 7410,
      "ä»ĸä½ľ": 7411,
      "ä»ĸæĭ¿": 7412,
      "ä»ĸæĢİæł·": 7413,
      "ä»ĸå¸ĮæľĽ": 7414,
      "ä»ĸåĿĲåľ¨": 7415,
      "ä»ĸä½İçĿĢå¤´": 7416,
      "ä»ĸé¡¾ä¸įå¾Ĺ": 7417,
      "ä¸įèµ°": 7418,
      "ä¸įæīĵ": 7419,
      "ä¸įæĺİ": 7420,
      "ä¸įåı¯ä»¥": 7421,
      "ä¸įä¸Ģå®ļ": 7422,
      "ä¸įè®©": 7423,
      "ä¸įæĩĤå¾Ĺ": 7424,
      "ä¸įå±ĳäºİ": 7425,
      "æĺ¯è¯´": 7426,
      "æĺ¯ä¸įèĥ½": 7427,
      "æĺ¯ä»¶": 7428,
      "æľ±": 7429,
      "ä¸Ģæ®µ": 7430,
      "æĪ®": 7431,
      "äººäºĭ": 7432,
      "äººæł¼": 7433,
      "åĲĨ": 7434,
      "å¾¡": 7435,
      "ï¼ģâĢĶâĢĶ": 7436,
      "æĪĳå½ĵ": 7437,
      "æľīè¿ĩ": 7438,
      "æľīä¸¤ä¸ª": 7439,
      "æľīåĩłä¸ª": 7440,
      "æľīå·¥å¤«": 7441,
      "æľīè¯´æľī": 7442,
      "æĹ¨": 7443,
      "æĿ¥åĳ¢": 7444,
      "åľ¨åīį": 7445,
      "åľ¨è¡Ĺ": 7446,
      "åľ¨åŁİå¤ĸ": 7447,
      "åľ¨ç©ºä¸Ń": 7448,
      "å¥¹ä¸Ģ": 7449,
      "å¥¹åı¯": 7450,
      "å¥¹èĥ½": 7451,
      "å¥¹çļĦèĦ¸": 7452,
      "åİ»æĥ³": 7453,
      "åİ»æĭīè½¦": 7454,
      "åİ»ä½ľäºĭ": 7455,
      "ä¼ŀ": 7456,
      "åı¯ä½ľ": 7457,
      "åı¯èĢ»": 7458,
      "æ²¡è¨Ģè¯Ń": 7459,
      "å¤§æĪĲ": 7460,
      "å¤§çĥŁ": 7461,
      "å¤§çľ¼çĿĽ": 7462,
      "ä¹Łè¡Į": 7463,
      "åĪ°çİ°åľ¨": 7464,
      "æĥ¦": 7465,
      "è¯´èµ·": 7466,
      "è¯´ä¸Ģå£°": 7467,
      "èĢģæĿİ": 7468,
      "çľĭæĺİçĻ½äºĨ": 7469,
      "çľĭçĥŃéĹ¹": 7470,
      "åĩºçĿĢ": 7471,
      "åĩºè½¦": 7472,
      "åĩºæ®¡": 7473,
      "åĦ¿ç«¥": 7474,
      "èĢĮè¦ģ": 7475,
      "èĢĮè¨Ģ": 7476,
      "èĢĮä¸įèĤ¯": 7477,
      "éĤ£åıª": 7478,
      "å°±èµ°": 7479,
      "å°±è¶Ĭ": 7480,
      "å°±å¥½è±¡": 7481,
      "å°±å¿ħå®ļ": 7482,
      "å°±å¤ŁäºĨ": 7483,
      "å®¶æĿ¥": 7484,
      "å®¶ä¸ŃçļĦ": 7485,
      "èĩªè¡Į": 7486,
      "å°ıåĩ¤": 7487,
      "ä½łåĪ«": 7488,
      "åĴļ": 7489,
      "å¦¨": 7490,
      "è¿ĺçľŁ": 7491,
      "çĶŁåľ¨": 7492,
      "çĶŁå©Ĩ": 7493,
      "ä¸ĭæĿ¥äºĨ": 7494,
      "æĸ¯": 7495,
      "ä»ĸä»¬ä»¥ä¸º": 7496,
      "å¯Ħ": 7497,
      "å¤ļåĴ±": 7498,
      "åıªè§īå¾Ĺ": 7499,
      "å¤´çĸ¼": 7500,
      "åĢº": 7501,
      "åĢŃ": 7502,
      "ä½ľçĿĢ": 7503,
      "ä½ľå¾Ĺ": 7504,
      "ç»ĻæĪĳä»¬": 7505,
      "éģĵçļĦ": 7506,
      "çľ¼åĦ¿": 7507,
      "æ´¼": 7508,
      "æīĭç©º": 7509,
      "æĻ¶": 7510,
      "æīĵèµ·": 7511,
      "æīĵåıĳ": 7512,
      "åĸĩ": 7513,
      "ä¾¿æĬĬ": 7514,
      "ä¸¤çľ¼": 7515,
      "å·²éĥ½": 7516,
      "å·²æĬĬ": 7517,
      "å½ĵæĪĳ": 7518,
      "ä¸Ģä¸ªåĬ²åĦ¿": 7519,
      "æŀ¯": 7520,
      "äºĮåıĶ": 7521,
      "æİĲ": 7522,
      "åĽ½çļĦ": 7523,
      "æĺİæľĪ": 7524,
      "äºĨä¸Ģå±Ĥ": 7525,
      "èĥĥ": 7526,
      "çĥĻ": 7527,
      "å¹³å¹³": 7528,
      "çŁ¥éģĵçļĦ": 7529,
      "é«ĺç²": 7530,
      "é«ĺåĤ²": 7531,
      "è¢ĸåŃĲ": 7532,
      "åı£åĦ¿": 7533,
      "åĲĥé¥±": 7534,
      "å¾ĢåĲİ": 7535,
      "æ±ģ": 7536,
      "æ±ł": 7537,
      "æ¸Į": 7538,
      "æ³ķåĦ¿": 7539,
      "å¿«å¿«çļĦ": 7540,
      "å°ĳå¹´": 7541,
      "å¥³ä»Ĩ": 7542,
      "éĹ®éĹ®": 7543,
      "é£ķ": 7544,
      "éĤ£ä¹ĪåĬŀ": 7545,
      "éĤ£ä¹Īå¤ļçļĦ": 7546,
      "ä¸ĢçĤ¹å¤´": 7547,
      "ä¹Łä¸įæĥ³": 7548,
      "æī¾åĩº": 7549,
      "æ´»è¯¥": 7550,
      "æĢķä»ĸ": 7551,
      "è¢«äººå®¶": 7552,
      "æµĵ": 7553,
      "åı«äºĨä¸Ģå£°": 7554,
      "é¡ºæīĭåĦ¿": 7555,
      "ä»İæĿ¥": 7556,
      "åıĹçĿĢ": 7557,
      "åıĹç½ª": 7558,
      "é©¬è£¤": 7559,
      "æįİ": 7560,
      "å¥¹çļĦå£°éŁ³": 7561,
      "åįĬæĪª": 7562,
      "ä»ĸä¸įåįķ": 7563,
      "æĭīä¸Ĭ": 7564,
      "å©¿": 7565,
      "æ¯ĶæĪĳ": 7566,
      "ç¥ģçĳŀå®£": 7567,
      "æĿİåı¸ä»¤": 7568,
      "æĢİä¹Īè¯´": 7569,
      "æ¸ħäºĨ": 7570,
      "ç®ĹäºĨ": 7571,
      "å®ĥæĺ¯": 7572,
      "åŃĻå¥³": 7573,
      "åĴ±ä»¬ä¿©": 7574,
      "æľīçĤ¹ä¸įå¤§": 7575,
      "æŀģäºĨ": 7576,
      "åŃĹçĶ»": 7577,
      "çļĦä¸Ģå®¶": 7578,
      "çļĦä¸Ģæł·": 7579,
      "çļĦä¸Ģçīĩ": 7580,
      "çĲĨæĻº": 7581,
      "ç©ºæĹ·": 7582,
      "éĻ¢çļĦ": 7583,
      "èµ¤æīĭç©º": 7584,
      "çĸ¯äºĨ": 7585,
      "åıįæĶ»": 7586,
      "ä¸ĥä¸ĥ": 7587,
      "ä¸ĥåı·": 7588,
      "åĨĻåĩº": 7589,
      "æĹ¢æ²¡": 7590,
      "åĸĿä¸¤": 7591,
      "åĸĿèĮ¶": 7592,
      "åĸĿéĨī": 7593,
      "å·¥äºº": 7594,
      "å·¥éĴ±": 7595,
      "å²¸": 7596,
      "éħĴçĵ¶": 7597,
      "äº¤å¾Ģ": 7598,
      "äº¤ç»ĻæĪĳ": 7599,
      "çļĦå°ıä¼ĻåŃĲ": 7600,
      "å®¢è§Ĥ": 7601,
      "æĶ¶è½¦": 7602,
      "æĶ¶ä¹°": 7603,
      "å¾®ç¬ĳçĿĢ": 7604,
      "èī²å½©": 7605,
      "å¤±ä¸ļ": 7606,
      "åħ¬å¼Ģ": 7607,
      "çĹħäºĨ": 7608,
      "å¹¶ä¸įåįģåĪĨ": 7609,
      "è¿ĺæľīè®¸å¤ļ": 7610,
      "è¿Ļæĺ¯æĢİåĽŀäºĭ": 7611,
      "æİ¥è¿ĳ": 7612,
      "åįķåįķ": 7613,
      "åĹ¨": 7614,
      "è¯Ńè¨Ģ": 7615,
      "èĮ¶æ°´": 7616,
      "ç¥ģèĢģäººçļĦ": 7617,
      "èĭ±ç¾İ": 7618,
      "åĩłä¸ªåŃĹ": 7619,
      "çİĭåħ«": 7620,
      "æ®ī": 7621,
      "æ¼±": 7622,
      "æ¼ı": 7623,
      "æĶ¹åıĺäºĨ": 7624,
      "çļ®éŀŃ": 7625,
      "ä¸Ģå®ļçļĦ": 7626,
      "åħ¶æ¬¡": 7627,
      "æī¯äºĨ": 7628,
      "å²ģçļĦ": 7629,
      "åıªè¦ģä½ł": 7630,
      "åĸĬäºĨå£°": 7631,
      "è·³åĪ°": 7632,
      "è·³èµ·æĿ¥": 7633,
      "é¡¶çĿĢ": 7634,
      "æķ°åĦ¿": 7635,
      "éĨĭ": 7636,
      "è®¨å¥½": 7637,
      "é½¿": 7638,
      "ä»ĸçŁ¥éģĵèĩªå·±": 7639,
      "æ¨ªçĿĢ": 7640,
      "è¡Ģèī²": 7641,
      "å¾ħä¸Ģä¼ļåĦ¿": 7642,
      "çĶµçģ¯": 7643,
      "æĬĵä½ıäºĨ": 7644,
      "è§Ĵä¸Ĭ": 7645,
      "åĩīæ±Ĺ": 7646,
      "çĶ»å®¶": 7647,
      "çĵ£": 7648,
      "åħ»çļĦ": 7649,
      "ä¸įåı¯äºĨ": 7650,
      "èıĬåŃĲçļĦ": 7651,
      "æ²¹æĿ¡": 7652,
      "ä»ĸè¿ĺè¦ģ": 7653,
      "çĨı": 7654,
      "éº»æľ¨": 7655,
      "ä»ĩäºº": 7656,
      "çĽ®åīį": 7657,
      "èĩŃèĻ«": 7658,
      "æ¡Įæ¤ħ": 7659,
      "å¨ģèĥģ": 7660,
      "ä½ľäºĨå®ĺ": 7661,
      "æ¸¸æĪı": 7662,
      "æİ¢åĲ¬": 7663,
      "ç¢İäºĨ": 7664,
      "é¢Ħå¤ĩçĿĢ": 7665,
      "è¯ļå®ŀ": 7666,
      "çļĦçº¸": 7667,
      "çĽ¼çĿĢ": 7668,
      "å¨¶äºĨ": 7669,
      "ä¹¡éĹ´": 7670,
      "ä¹¡æ°ĳ": 7671,
      "çĨŁäºº": 7672,
      "ä¸įåĲĮçļĦ": 7673,
      "äºĨå¥½å¤ļ": 7674,
      "åĲĲåĩº": 7675,
      "æī¿è®¤äºĨ": 7676,
      "åĢŁçĿĢ": 7677,
      "ä»ĸä¸įæķ¢åĨį": 7678,
      "çľ¼åīįçļĦ": 7679,
      "ç»Ŀå¯¹ä¸įèĥ½": 7680,
      "çļ±çº¹": 7681,
      "å½Ĵäºİ": 7682,
      "å¾®å¾®çļĦ": 7683,
      "çĸ²åĬĽ": 7684,
      "æ£īèĬ±": 7685,
      "æ¹¿äºĨ": 7686,
      "éĽĨåĲĪ": 7687,
      "æĵįä½ľ": 7688,
      "èĤ©èĨĢ": 7689,
      "ä»ĸåĩłä¹İè¦ģ": 7690,
      "çļĦçŃĶ": 7691,
      "å¤®æ±Ĥ": 7692,
      "æĴĴæīĭ": 7693,
      "æİ©é¥°": 7694,
      "éļĶçĿĢ": 7695,
      "è¡¨çİ°åĩº": 7696,
      "è¿ĪæŃ¥": 7697,
      "åįİåĮĹçļĦ": 7698,
      "ä»ĸæĢ»ä»¥ä¸º": 7699,
      "æľºåħ³æŀª": 7700,
      "ä¸´æĹ¶": 7701,
      "ç¼İåŃĲ": 7702,
      "ä»ĸæģ¨ä¸įèĥ½": 7703,
      "å¼ŁåħĦä»¬": 7704,
      "è¾¾åĪ°": 7705,
      "çļĦç®Ģ": 7706,
      "çŃ¾åŃĹ": 7707,
      "åīĥå¤´": 7708,
      "åºŁçī©": 7709,
      "åĨ¤æŀī": 7710,
      "çŃĭçĸ²åĬĽ": 7711,
      "èµµäºĶ": 7712,
      "å¤ļåįĬæĺ¯": 7713,
      "åĽļçĬ¯": 7714,
      "èĬ±çĶŁç±³": 7715,
      "é«ĺäºĨåħ´": 7716,
      "çļĦç¨ĭ": 7717,
      "åĺŁåĽĶçĿĢ": 7718,
      "çļĦç²®é£Ł": 7719,
      "å§¿æĢģ": 7720,
      "æį£ä¹±": 7721,
      "çļĦçģ¯åħī": 7722,
      "çĿģå¼ĢäºĨçľ¼": 7723,
      "¡çĮ¾": 7724,
      "é«ĺç²±": 7725,
      "èµ¤æīĭç©ºæĭ³": 7726,
      "ç¹ģ": 7727,
      "ĮèĤī": 7728,
      "çļĨ": 7729,
      "çļĦæľ¨": 7730,
      "ä»ª": 7731,
      "ä»ĸæī¾": 7732,
      "ä»ĸèº«ä¸Ĭ": 7733,
      "ä»ĸçĽ¸ä¿¡": 7734,
      "ä»ĸæľ¬æĥ³": 7735,
      "ä¸įé«ĺ": 7736,
      "ä¸įæŃ»": 7737,
      "ä¸įè¶³": 7738,
      "äºĨä»ĸä»¬": 7739,
      "äºĨåĳ¢": 7740,
      "äºĨæ°Ķ": 7741,
      "äºĨæīĭ": 7742,
      "äºĨåĳ½": 7743,
      "è¿Ŀ": 7744,
      "æĺ¯ä»ĸä»¬": 7745,
      "æĺ¯æĹ¥æľ¬äºº": 7746,
      "æĺ¯å¥¹çļĦ": 7747,
      "ä¸Ģçľĭè§ģ": 7748,
      "ä¸ĢéĹ´": 7749,
      "ä¸Ģç±»": 7750,
      "ä¸Ģä¸²": 7751,
      "å®¿": 7752,
      "æĪĳæĺİçĻ½": 7753,
      "æĪĳåĳĬè¯ī": 7754,
      "æĪĳä¸įä¼ļ": 7755,
      "åĩĮ": 7756,
      "çĿĢçİ©": 7757,
      "å¥¹ä¸İ": 7758,
      "å¥¹ä¼¼ä¹İ": 7759,
      "å¥¹å¿½çĦ¶": 7760,
      "æ²ı": 7761,
      "è¿Ļè¾¹": 7762,
      "ä¸Ĭåı¸": 7763,
      "åİ»åı«": 7764,
      "åİ»æĭī": 7765,
      "åİ»åįĸ": 7766,
      "å·Ŀ": 7767,
      "å·ŀ": 7768,
      "ä¼¦": 7769,
      "æĬĽ": 7770,
      "å¤§æµ·": 7771,
      "å¤§ä¼Ļè®¡": 7772,
      "å¾ĹæĦıçļĦ": 7773,
      "ä¹Łåľ¨": 7774,
      "ä¹ŁæĬĬ": 7775,
      "ä¹Łè¢«": 7776,
      "ä¹Łè¯¥": 7777,
      "åĪ°åŁİéĩĮ": 7778,
      "å¥½ä½¿": 7779,
      "å¥½åŃ©åŃĲ": 7780,
      "å¥½å®¶ä¼Ļ": 7781,
      "èĢĮçĶ¨": 7782,
      "éĤ£ä»¶": 7783,
      "å®¶å®¶": 7784,
      "å°ıæĹ¶": 7785,
      "éĥ½ä¸įæķ¢": 7786,
      "ä¸Ńåįİ": 7787,
      "ä¸Ńç§ĭ": 7788,
      "æĬĬä¸Ģ": 7789,
      "æĬĬè¿Ļä¸ª": 7790,
      "æĬĬå£°éŁ³": 7791,
      "æĥ³å¥½": 7792,
      "å¤©çļĩ": 7793,
      "åı¯æĺ¯ä¸įä¾¿": 7794,
      "å¿ĥåİ»": 7795,
      "å¿ĥåľ°": 7796,
      "ä¸ºè¿Ļä¸ª": 7797,
      "çļĦèĳ": 7798,
      "å¸ļ": 7799,
      "éĿ´": 7800,
      "ä»ĸä»¬æľī": 7801,
      "ä»ĸä»¬æĬĬ": 7802,
      "ä»ĸä»¬å¿ħé¡»": 7803,
      "å¤ļè¯´": 7804,
      "å¤ļåĸ": 7805,
      "å¤ļé«ĺ": 7806,
      "åıªçľ¼": 7807,
      "åıªé¡»": 7808,
      "è½¯äºĨ": 7809,
      "æľ¬åĦ¿": 7810,
      "æľ¬ä¹¦": 7811,
      "çŁ«": 7812,
      "éĴ±æĿ¥": 7813,
      "åĴĮä½ł": 7814,
      "åĴĮä¸ľéĺ³": 7815,
      "åıĪæľī": 7816,
      "åıĪè¯´": 7817,
      "ä½ľçĤ¹": 7818,
      "ä½ľå¥´éļ¶": 7819,
      "ç»ĻçĪ¶äº²": 7820,
      "æĶĴ": 7821,
      "å¾ĪæĢķ": 7822,
      "å¾Īäº®": 7823,
      "å¾Īä¹±": 7824,
      "å¾Īæ·±": 7825,
      "å¾Īå®¹æĺĵ": 7826,
      "äºĽä¸ª": 7827,
      "äºĽæĹ¥åŃĲ": 7828,
      "è±¡ä¸ĢæĿ¡": 7829,
      "ä»ĸçļĦäºº": 7830,
      "å¯¹äºº": 7831,
      "æĻĮ": 7832,
      "æĹ¥æľ¬å®ªåħµ": 7833,
      "è§ģè§£": 7834,
      "ä¾¿åıĪ": 7835,
      "ä¾¿è¶Ĭ": 7836,
      "è°ľ": 7837,
      "åĨįä¸Ģæĥ³": 7838,
      "ä¸¤å£°": 7839,
      "å¼Ģå¼ĢéĹ¨": 7840,
      "å·²çĦ¶": 7841,
      "åľ°çĤ¹": 7842,
      "äºĮå¹´": 7843,
      "äºĮçĻ¾": 7844,
      "äºĮå¥¶å¥¶": 7845,
      "éĹ¨éĩĮ": 7846,
      "æĢİå¥½": 7847,
      "æİª": 7848,
      "æİĢ": 7849,
      "æĺİäºĨ": 7850,
      "æĺİå®¶": 7851,
      "äºĨä¸ĢåľĪ": 7852,
      "èĤº": 7853,
      "è´¯": 7854,
      "éĺ¿": 7855,
      "éĺħ": 7856,
      "éļĻ": 7857,
      "èĬĿéº»": 7858,
      "æĹłçŁ¥": 7859,
      "ä½ıå¤Ħ": 7860,
      "æĪĲç«ĭ": 7861,
      "æĪĲç¾¤": 7862,
      "ä¸įæĺ¯ä¸ª": 7863,
      "ä¸įæĺ¯ä»Ģä¹Ī": 7864,
      "ç¬ĳèĦ¸": 7865,
      "ç¬ĳçº¹": 7866,
      "ç¬ĳä¸Ģç¬ĳ": 7867,
      "å¾Ģå¹´": 7868,
      "åįģæĿ¥": 7869,
      "åĮĹæĸ¹": 7870,
      "å°ĳäºĨ": 7871,
      "è¥¿æ´ĭ": 7872,
      "åĬŀå¾Ĺ": 7873,
      "å¤ªå¤ªä»¬": 7874,
      "åĲĮæł·": 7875,
      "æĶ¾æīĭ": 7876,
      "ä¹Łä¸įåĨį": 7877,
      "ä¹Łä¸įè¡Į": 7878,
      "æĪĳä»¬é¡»": 7879,
      "å¤§å®¶åħ¨": 7880,
      "æ´»äºº": 7881,
      "æŃ£ä¹ī": 7882,
      "åĺ»": 7883,
      "è¿Ļä¸ªå°ı": 7884,
      "ä»İå®¹": 7885,
      "è·ŁæĹ¥æľ¬äºº": 7886,
      "å±ĭä¸ŃçļĦ": 7887,
      "åĿĹçļĦ": 7888,
      "ç²½åŃĲ": 7889,
      "èĬ±æľ¨": 7890,
      "äº²åĸĦ": 7891,
      "åĮħåŃĲ": 7892,
      "ç¥¥åŃĲæĺ¯": 7893,
      "ä¸°å¯Į": 7894,
      "ä¹°ä¸Ĭè½¦": 7895,
      "åĵªæĺ¯": 7896,
      "åĵªèĥ½": 7897,
      "åĨłå¤ªå¤ª": 7898,
      "ç®¡å®ĥ": 7899,
      "ç¥ģèĢģå¤ªçĪ·": 7900,
      "å°±æĺ¯è¿Ļæł·": 7901,
      "åĢĴä»¿ä½Ľ": 7902,
      "æ¢¢": 7903,
      "çľĭè§ģä¸Ģä¸ª": 7904,
      "æ¡£åŃĲ": 7905,
      "ç³ķ": 7906,
      "åı¥åŃĲ": 7907,
      "è¶Ĭå¤§": 7908,
      "çĪ¶å¥³": 7909,
      "åĸľäºĭ": 7910,
      "çĲĨä»ĸ": 7911,
      "å¼łå¼Ģ": 7912,
      "é¥Ńç¢Ĺ": 7913,
      "å±±æľ¨": 7914,
      "é£İæł¼": 7915,
      "é£İæ½®": 7916,
      "åįĸç»Ļ": 7917,
      "åįĸåĩºåİ»": 7918,
      "ç¦Ħ": 7919,
      "æĬ¥åºĶ": 7920,
      "ç¨İ": 7921,
      "åĨĻæĻ¯": 7922,
      "åĪļçĶ±": 7923,
      "ä¼¼ä¹İå·²": 7924,
      "è·¯çļĦ": 7925,
      "çħ®": 7926,
      "æĹ©æĹ©çļĦ": 7927,
      "å²Ľ": 7928,
      "åºķåĦ¿": 7929,
      "æ»¡æĺ¯": 7930,
      "é©¬ä¸Ĭåİ»": 7931,
      "æĶ¶çĶŁå©Ĩ": 7932,
      "åľºåİ»": 7933,
      "ä»Ĭå¤©æĺ¯": 7934,
      "ç»Ĩå¿ĥ": 7935,
      "èĢħçļĦ": 7936,
      "è¦ģæĺ¯ä¸į": 7937,
      "ä»ĸæĥ³è±¡": 7938,
      "æĿĢæĪ®": 7939,
      "éĿĴèıľ": 7940,
      "åĨ·çļĦ": 7941,
      "ä»ĸä¸ĢçĽ´": 7942,
      "æĪĳä¸įæĦ¿": 7943,
      "çĿ¡äºĨ": 7944,
      "çĿ¡çĿĢäºĨ": 7945,
      "èĵ¬": 7946,
      "æłĳä¸Ĭ": 7947,
      "åģ·æĩĴ": 7948,
      "èĢģä¸īçļĦ": 7949,
      "å½±åŃĲ": 7950,
      "å½±åĦ¿": 7951,
      "åįĹåĮĹ": 7952,
      "åħŃä¸ª": 7953,
      "åħŃåĿĹéĴ±": 7954,
      "æ²¡æ³ķåĦ¿": 7955,
      "å¾Ĺå¾Īå¥½": 7956,
      "çº¸æĿ¡": 7957,
      "éľ²äºĨ": 7958,
      "å©ļäºĭ": 7959,
      "åľŁåĮª": 7960,
      "æģ¶å¿ĥ": 7961,
      "èĤīä½ĵ": 7962,
      "äºīçĿĢ": 7963,
      "ç¡¬æ£Ĵ": 7964,
      "æĽ¿å¥¹": 7965,
      "ç«Ļå²Ĺ": 7966,
      "ä¸įè¦ģèĦ¸": 7967,
      "åĩīäºĨ": 7968,
      "åģľä½ıäºĨ": 7969,
      "å¿įçĿĢ": 7970,
      "ä¸¥çļĦ": 7971,
      "æĳĨåľ¨": 7972,
      "æĳĨåĬ¨": 7973,
      "èµ°äºĨåĩºåİ»": 7974,
      "éĻĪå®¶": 7975,
      "çļĦèĥ³èĩĤ": 7976,
      "åĲĮæĹ¶ä¹Ł": 7977,
      "åĩŃä»Ģä¹Ī": 7978,
      "ä»ĸä¸įèĥ½ä¸į": 7979,
      "åŃ¦æł¡çļĦ": 7980,
      "ä¸ĭäºĨåĨ³å¿ĥ": 7981,
      "çļĦç¬ĳæĦı": 7982,
      "çļĦæīĭæ®µ": 7983,
      "åĪ»çļĦ": 7984,
      "çľīå¤´": 7985,
      "æ²īéĩį": 7986,
      "çŁŃçļĦ": 7987,
      "é¢¤èµ·æĿ¥": 7988,
      "ä»ĩæķĮ": 7989,
      "å·¦æīĭ": 7990,
      "å½ĵçĦ¶æĺ¯": 7991,
      "è®¤è¯ĨäºĨ": 7992,
      "çĸĳå¿ĥ": 7993,
      "åĲµæŀ¶": 7994,
      "åľ¨ä»ĸçľĭ": 7995,
      "æ¯ĴåĪĳ": 7996,
      "æĬ±ä½ı": 7997,
      "çļĦçīºçī²": 7998,
      "é¡¿é¥Ń": 7999,
      "æĮīè¯´": 8000,
      "å¾Ģåīįåĩĳ": 8001,
      "é¢Ħå¤ĩå¥½": 8002,
      "æĥ¹èµ·": 8003,
      "æĮĳæĪĺ": 8004,
      "åŃĺçĿĢ": 8005,
      "è¯´ä¸įåĩºæĿ¥": 8006,
      "æİıåĩºæĿ¥": 8007,
      "åľ¨äºĨåľ°ä¸Ĭ": 8008,
      "å¾Ģä¸ĭè¯´": 8009,
      "åİļçļĦ": 8010,
      "é»ĺåĲŁåħĪçĶŁ": 8011,
      "çªĹå¤ĸ": 8012,
      "åĿŁåľ°": 8013,
      "çĤ¸äºĨ": 8014,
      "å¿§éĥģ": 8015,
      "è´´çĿĢ": 8016,
      "æ´ŀéĩĮ": 8017,
      "å¹¼å¹´": 8018,
      "æĳĶæŃ»": 8019,
      "åĲĳæĿ¥ä¸į": 8020,
      "çļĦåħīèį£": 8021,
      "å¾Ĺç½ªäºº": 8022,
      "æĹ¶æĹ¶çļĦ": 8023,
      "çļĦç½ªæģ¶": 8024,
      "åħ·ä½ĵ": 8025,
      "æıĴåľ¨": 8026,
      "ç®±åŃĲ": 8027,
      "å¥½åĩłæ¬¡": 8028,
      "åĭīå¼ºçļĦ": 8029,
      "æĬĦèµ·": 8030,
      "åĲĮåŃ¦ä»¬": 8031,
      "åľ£äºº": 8032,
      "éĻĲçļĦ": 8033,
      "åħ¨èº«éĥ½": 8034,
      "æ°ĳæĹıçļĦ": 8035,
      "ç§¯èĵĦ": 8036,
      "ç©¶ç«Łæĺ¯": 8037,
      "å¤ļæķ°æĺ¯": 8038,
      "çļĦç®Ĺ": 8039,
      "éĴ±é»ĺåĲŁåħĪçĶŁ": 8040,
      "æĹ¥æľ¬åĨĽäºº": 8041,
      "è´ºåĸľ": 8042,
      "éĽĢæĸĳ": 8043,
      "è¡ĹåĿĬä»¬": 8044,
      "è¿Ļå°±æĺ¯è¯´": 8045,
      "çļĦçĽ¸è²Į": 8046,
      "åĿ¦åħĭ": 8047,
      "çĩĥ": 8048,
      "å®ħéĹ¨éĩĮ": 8049,
      "ä¼ĺè¶Ĭ": 8050,
      "å¾Ģèµ·ç«ĭ": 8051,
      "æĻ®éģį": 8052,
      "æ·ĺæ°Ķ": 8053,
      "çļĦçŃīçĿĢ": 8054,
      "è¿ŀè¿ŀçļĦçĤ¹å¤´": 8055,
      "è¿ĽåĪ°å±ĭä¸Ń": 8056,
      "åį¡è½¦": 8057,
      "åı¼çĿĢ": 8058,
      "èĢģå¦ĪåŃĲ": 8059,
      "ä»Ķç»Ĩ": 8060,
      "è£±ç³Ĭ": 8061,
      "åĥ»éĿĻ": 8062,
      "éĴ®æī£": 8063,
      "ä»ĬåĦ¿ä¸ª": 8064,
      "æłĳåįİåĨľåľº": 8065,
      "åĲĨåĸĿ": 8066,
      "åĸĩåıŃ": 8067,
      "å¤ļåĸĴ": 8068,
      "\"ï¼Ľ": 8069,
      "\"âĢĶâĢĶ": 8070,
      "¹æŀľ": 8071,
      "ÃĹ": 8072,
      "âĹ": 8073,
      "Ĥèļ": 8074,
      "ĳéĩį": 8075,
      "Ŀç¦»": 8076,
      "çļĦçľĭ": 8077,
      "çļĦéĤ£ä¸ª": 8078,
      "çļĦç»¿": 8079,
      "çļĦå¥³äºº": 8080,
      "çļĦå¥³åŃĲ": 8081,
      "çļĦæķĪæŀľ": 8082,
      "äºŃ": 8083,
      "ä»ĸæŃ£": 8084,
      "ä»ĸèĭ¥": 8085,
      "ä»ĸå¾ĹåĪ°": 8086,
      "ä»ĸåĪ°åºķ": 8087,
      "ä»ĸåĲ¬åĪ°": 8088,
      "ä»ĸå¹¶æ²¡æľī": 8089,
      "ä»ĸç¬ĳçĿĢ": 8090,
      "ä»ĸçĮľ": 8091,
      "ä»ĸåıįåĢĴ": 8092,
      "åı¬": 8093,
      "åıī": 8094,
      "ä¸įå°±": 8095,
      "ä¸įåĵŃ": 8096,
      "ä¸įèĪĴæľį": 8097,
      "æĺ¯å¥½": 8098,
      "æĺ¯çĶ¨": 8099,
      "æĺ¯æŀģ": 8100,
      "ä¸Ģä¸¾": 8101,
      "åĲ¼": 8102,
      "æĪĳåı«": 8103,
      "æĪĳçļĦäºĭ": 8104,
      "æĪĳçľĭè§ģ": 8105,
      "æĪĳæĻĵå¾Ĺ": 8106,
      "æĪĳå¿ħé¡»": 8107,
      "æĪĳä¸Ģå®ļ": 8108,
      "æĪĳä¸Ģçľ¼": 8109,
      "æĪĳæĺİçĻ½äºĨ": 8110,
      "æľīæľºä¼ļ": 8111,
      "åľ¨è¥¿": 8112,
      "åľ¨å¿ĥä¸Ń": 8113,
      "åľ¨åįĬ": 8114,
      "åľ¨å®¶ä¸Ń": 8115,
      "åľ¨éĹ¨åı£": 8116,
      "åľ¨å¢Ļä¸Ĭ": 8117,
      "åŃĲå¼¹": 8118,
      "ä¸ªæĢ§": 8119,
      "å¥¹çľĭ": 8120,
      "å¥¹å¥½è±¡": 8121,
      "å¥¹ä¸įèĤ¯": 8122,
      "å¥¹ä¸įåĨį": 8123,
      "æ²¾": 8124,
      "è¿Ļè¯Ŀ": 8125,
      "è¿ĻæīĢ": 8126,
      "è¿Ļä½¿ä»ĸ": 8127,
      "è¿Ļåº§": 8128,
      "ä¸ĬåĲĬ": 8129,
      "ä¸ĬåĮ»éĻ¢": 8130,
      "åİ»å¹´": 8131,
      "åİ»è¯·": 8132,
      "åı¯åĪ«": 8133,
      "åı¯ä¸įèĥ½": 8134,
      "æ²¡åĲ¬è§ģ": 8135,
      "æĬ¡": 8136,
      "ç»·": 8137,
      "å¤§æľī": 8138,
      "å¤§è¡£": 8139,
      "å¤§å£°çļĦ": 8140,
      "å¤§ä¸ªåĦ¿": 8141,
      "å¾ĹåħĪ": 8142,
      "ä¹Łå¹¶ä¸į": 8143,
      "åĪ°å¥¹": 8144,
      "åĪ°éĻ¢ä¸Ń": 8145,
      "æĥļ": 8146,
      "èĢģä¸Ģ": 8147,
      "èĢģåıĭ": 8148,
      "èĢģå¼ł": 8149,
      "èĢģæľĭåıĭ": 8150,
      "èĢģçĪ¶äº²": 8151,
      "èĢģèµµ": 8152,
      "åĩºéĴ±": 8153,
      "åĩºè¯ĿæĿ¥": 8154,
      "å¥½ä¸ľè¥¿": 8155,
      "å¥½å¤§åįĬå¤©": 8156,
      "éĹ¸": 8157,
      "éĹº": 8158,
      "èĢĮæĹł": 8159,
      "èĢĮä»ĸèĩªå·±": 8160,
      "èĢĮä»į": 8161,
      "éĤ£æºľåĦ¿": 8162,
      "å°±è¢«": 8163,
      "å°±è·ĳ": 8164,
      "å®¶çļĦäºº": 8165,
      "èĩªæħ°": 8166,
      "çĤŃ": 8167,
      "éĥ½ä½¿ä»ĸ": 8168,
      "ä½łä¸ª": 8169,
      "ä½łè¿ĺ": 8170,
      "ä½łè¦ģä¸į": 8171,
      "æŃªçĿĢ": 8172,
      "åĴ¯": 8173,
      "ä¸Ńæľī": 8174,
      "æłı": 8175,
      "çĤ¹ä¸ľè¥¿": 8176,
      "çĤ¹éħĴ": 8177,
      "è¦ģéĴ±": 8178,
      "å¦Ĩ": 8179,
      "æĬĬèĦ¸": 8180,
      "æĬĬè¿ĻäºĽ": 8181,
      "æ°ı": 8182,
      "æĥ³åĬŀæ³ķ": 8183,
      "æĥ³å¿µ": 8184,
      "æĥ³äºĨåįĬå¤©": 8185,
      "å¤©çĶŁ": 8186,
      "èĥ½è¯´": 8187,
      "èĥ½å¤ļ": 8188,
      "åı¯æĺ¯ä¸į": 8189,
      "åı¯æĺ¯è¿Ļ": 8190,
      "åı¯æĺ¯åĪ°åºķ": 8191,
      "å¿ĥä¸Ģ": 8192,
      "å¿ĥçĲĨ": 8193,
      "çļĦèĸ": 8194,
      "çļĦèŃ¦": 8195,
      "æĸ¥": 8196,
      "å¸ģ": 8197,
      "å¸ĸ": 8198,
      "ä»Ģä¹Īç½ª": 8199,
      "ä»Ģä¹Īæł·åŃĲ": 8200,
      "åıªæĥ³": 8201,
      "åıªä¸º": 8202,
      "åıªæ±Ĥ": 8203,
      "å¤ªå¤ļäºĨ": 8204,
      "å¤´ä¸Ģ": 8205,
      "è¡Ļ": 8206,
      "å±¡": 8207,
      "åĴĮå°ıå´Ķ": 8208,
      "åıĪå¾Ĺ": 8209,
      "ç»Ļçĳŀä¸°": 8210,
      "åħĪåİ»": 8211,
      "âĢĿï¼ģ": 8212,
      "å¾Īåĸľæ¬¢": 8213,
      "å¾Īå¥½çļĦ": 8214,
      "å¾Īå°ıçļĦ": 8215,
      "ä»ĸçļĦåĦ¿åŃĲ": 8216,
      "æ³ī": 8217,
      "éĻĭ": 8218,
      "éĢ»": 8219,
      "åĸ³": 8220,
      "ä¾¿ä¼ļ": 8221,
      "å£°åĦ¿": 8222,
      "åĨįçľĭçľĭ": 8223,
      "ä¸¤æĬĬ": 8224,
      "ä¸¤æīĭ": 8225,
      "çĻ½èį¯": 8226,
      "è¾ĸ": 8227,
      "ä¸Ģä¸ªæľĪ": 8228,
      "æĢİçĿĢ": 8229,
      "æİ°": 8230,
      "ä½¿æĪĳä»¬": 8231,
      "ä½¿åĳ½": 8232,
      "èĤ¤": 8233,
      "çº·": 8234,
      "çŃĳ": 8235,
      "ä¸ľå®¶": 8236,
      "æĹłçĸĳ": 8237,
      "çĳŀå®£åıĪ": 8238,
      "é«ĺå¤Ħ": 8239,
      "åı£çº¢": 8240,
      "åĲ¬åĲ¬": 8241,
      "åĲĥçĿĢ": 8242,
      "å¾Ģä¸ľ": 8243,
      "å¾ĢåĮĹ": 8244,
      "å¾Ģå¸¸": 8245,
      "å¤ĸéĹ´": 8246,
      "åįģä¸ī": 8247,
      "è¶´": 8248,
      "å¿«èµ°": 8249,
      "è¥¿å¤ª": 8250,
      "çģ¶": 8251,
      "éĤ£ä¹Īå¤§": 8252,
      "èº«æĹģ": 8253,
      "ä¹Łä¸įå¤§": 8254,
      "è¿ĽæĿ¥çļĦ": 8255,
      "æľĢè¿ĳ": 8256,
      "æĪĳä»¬å°±": 8257,
      "èĦ¸æĿ¥": 8258,
      "æ´»åĦ¿": 8259,
      "å¤Ħç½®": 8260,
      "è¢«æ´¾": 8261,
      "çĪ±åĲ¬": 8262,
      "åĬĽå£®": 8263,
      "æı´": 8264,
      "åĲĳçĿĢ": 8265,
      "éļ¾åĲ¬": 8266,
      "å¿ĥä¸ŃçļĦè¯Ŀ": 8267,
      "äº²è¿ĳ": 8268,
      "ä¸»å¦ĩ": 8269,
      "ä¹°æĿ¥çļĦ": 8270,
      "ä¹ĭä¸Ģ": 8271,
      "æ¯Ķä»¥åīį": 8272,
      "çĲĲ": 8273,
      "ç¥ģå¤©ä½ĳ": 8274,
      "ï¼ģâĢĿâĢľ": 8275,
      "å®īç½®": 8276,
      "åĢĴäºĨ": 8277,
      "æĢİä¹Īä¸į": 8278,
      "æĢİä¹ĪäºĨ": 8279,
      "æĢİä¹ĪçĿĢ": 8280,
      "å·²ç»ıä¸įæĺ¯": 8281,
      "æ¸ħæ°´": 8282,
      "æ¸ħæ¸ħæ¥ļ": 8283,
      "ç®Ĺä½ľ": 8284,
      "ç§įç§į": 8285,
      "ç«ĭå®ļ": 8286,
      "åĨ³ä¸įèĥ½": 8287,
      "åĴ±ä»¬å°±": 8288,
      "æľīçĤ¹å®³æĢķ": 8289,
      "å¸¦çļĦ": 8290,
      "çĽ¸åıį": 8291,
      "è¶Ĭå¥½": 8292,
      "åĸľéħĴ": 8293,
      "åģĩèĭ¥ä¸įæĺ¯": 8294,
      "çĲĨåıĳ": 8295,
      "ç©ºæ°Ķ": 8296,
      "æĸ°å¹´": 8297,
      "å¼łåı£": 8298,
      "æŃ¤å¤ĸ": 8299,
      "ä½ķåĨµ": 8300,
      "å¢©": 8301,
      "è¡Ĺåı£": 8302,
      "çĥŃçĥĪ": 8303,
      "æĪ¿éĩĮ": 8304,
      "æĪ¿ç§Ł": 8305,
      "èµ¶æĺİåĦ¿": 8306,
      "åĨĻçļĦ": 8307,
      "åĨĻå°ıè¯´": 8308,
      "ä¼¼ä¹İéĥ½": 8309,
      "åĽĽçĪ·çĪ·": 8310,
      "å¿ĺä¸įäºĨ": 8311,
      "è·¯æĹģ": 8312,
      "åŃ©åŃĲçļĦ": 8313,
      "çħŀ": 8314,
      "æĹ©ä¸Ĭ": 8315,
      "å©Ĩåª³": 8316,
      "éħĴé¥Ń": 8317,
      "æ»¡èº«": 8318,
      "æĶ¶åĽŀ": 8319,
      "ç»Ĩå¿ĥçļĦ": 8320,
      "å°Ĩå°±": 8321,
      "åıªæľīä¸Ģä¸ª": 8322,
      "ä¸ĸä¸Ĭ": 8323,
      "ä¸ĸéĹ´": 8324,
      "æľºåĻ¨": 8325,
      "éĩįåŃĻåŃĲ": 8326,
      "è¿Ļæĺ¯ä»Ģä¹Ī": 8327,
      "åħµåıĺ": 8328,
      "æİ¥çĿĢ": 8329,
      "åĪ«äººéĥ½": 8330,
      "ä»ĸä¹Łæ²¡": 8331,
      "ä»ĸä¹Łå°±": 8332,
      "åĬłäºĨ": 8333,
      "ä»ĸä¸Ģå£°": 8334,
      "æ¯ĽçļĦ": 8335,
      "æĪĳä¸įæĢķ": 8336,
      "æĪĳä¸įç®¡": 8337,
      "çĿ¡å¾Ĺ": 8338,
      "ç¥ģèĢģäººåĴĮ": 8339,
      "è¿Ļä¸Ģå¤©": 8340,
      "åĩłä¸ªäºº": 8341,
      "æ¼ł": 8342,
      "æŀªå£°": 8343,
      "åĪĺèĢģå¤´åŃĲ": 8344,
      "ä¸Ģå¤©çļĦ": 8345,
      "å¸ĮæľĽèĥ½": 8346,
      "è¿ĳä¹İ": 8347,
      "åĸĦäºİ": 8348,
      "éĩİèĽ®": 8349,
      "éĹŃäºĨ": 8350,
      "åıªè¦ģæľī": 8351,
      "æĳ¸ä¸įæ¸ħ": 8352,
      "æĪıæ³ķ": 8353,
      "ä»ĸå°±ä¼ļ": 8354,
      "æĦŁåĪ°ä¸ĢçĤ¹": 8355,
      "åĵįäºĨ": 8356,
      "åĵįåĬ¨": 8357,
      "é¬¼æ··": 8358,
      "éªĤä»ĸ": 8359,
      "æķ´çĲĨ": 8360,
      "åĵ¼åĶ§": 8361,
      "èĢĮæĺ¯ä¸º": 8362,
      "é¡¶ä¸Ĭ": 8363,
      "å¿ħå®ļä¼ļ": 8364,
      "éĥĳéĩį": 8365,
      "åĬ²çļĦ": 8366,
      "æŀľåŃĲ": 8367,
      "é¢ĨåŃĲ": 8368,
      "è¿Ĳæ°Ķ": 8369,
      "åı¦ä¸Ģä¸ª": 8370,
      "æľīä¸ªå°ı": 8371,
      "çĬ¹": 8372,
      "æŃ¦åĬĽ": 8373,
      "æŃ¦æ±ī": 8374,
      "é£ŁæĮĩ": 8375,
      "æ¸ħæ¥ļçļĦ": 8376,
      "åĲĦèī²": 8377,
      "åĳ¼å£°": 8378,
      "åħ»çĿĢ": 8379,
      "æ´Ĺæ¾¡": 8380,
      "åįģåĪĨçļĦ": 8381,
      "æĢĴçģ«": 8382,
      "éĤ£éĩĮåİ»": 8383,
      "çļĦèĥĨ": 8384,
      "åĩŃçĿĢ": 8385,
      "å±ĪèĨĿ": 8386,
      "åĻĹ": 8387,
      "çļĦèº«éĩı": 8388,
      "çļĦçľ¼ç¥ŀ": 8389,
      "éº»å°Ĩ": 8390,
      "é¢¤çĿĢ": 8391,
      "âĳ£": 8392,
      "æħĮå¼ł": 8393,
      "å®¢æ°ĶçļĦ": 8394,
      "èĤ¡åŃĲ": 8395,
      "è§Ĥå¿µ": 8396,
      "æĬ¢åĬ«": 8397,
      "æ²ĻèĢģå¸Ī": 8398,
      "äºĮåįģå¹´": 8399,
      "çĸ¼çĹĽ": 8400,
      "æĪĺäºīçļĦ": 8401,
      "æ¥¼ä¸Ĭ": 8402,
      "èĢģå©Ĩå©Ĩ": 8403,
      "çļĦèĤļåŃĲ": 8404,
      "çļĦèĤĮèĤī": 8405,
      "èħ°éĩĮ": 8406,
      "èĹıèµ·åİ»": 8407,
      "æĥ¹ç¥¸": 8408,
      "åĽ¢ä½ĵ": 8409,
      "æĭįäºĨ": 8410,
      "æĭ¦ä¸įä½ı": 8411,
      "èĨĽ": 8412,
      "è¯ģæį®": 8413,
      "èĢģå®ŀçļĦ": 8414,
      "å§ĭç»Īæ²¡æľī": 8415,
      "å¢ŀå¤ļäºĨ": 8416,
      "æł¹æľ¬æ²¡æľī": 8417,
      "éªĨé©¼çļĦ": 8418,
      "å°ıç¦ıåŃĲçļĦ": 8419,
      "çĤ®çģ«": 8420,
      "åºĻä¼ļ": 8421,
      "çļ±ä¸Ĭ": 8422,
      "éĢıäºĨ": 8423,
      "çĽĳè§Ĩ": 8424,
      "çĽĳçī¢": 8425,
      "åĹĵéŁ³": 8426,
      "åĴķåĻľ": 8427,
      "éĢĴç»Ļ": 8428,
      "ç«¯è¯¦": 8429,
      "åºĹä¼Ļ": 8430,
      "èĲ¥æķĳ": 8431,
      "çļĩåĨĽ": 8432,
      "éĺ»æŃ¢": 8433,
      "çļĦèĦĳè¢ĭ": 8434,
      "çļĦè¡¨æĥħ": 8435,
      "ç¤¾ä¼ļä¸Ĭ": 8436,
      "éģ®ä½ı": 8437,
      "è®Ńè¯Ŀ": 8438,
      "èĮ«çĦ¶": 8439,
      "åĭīå¼ºçļĦç¬ĳ": 8440,
      "ä¸įè§ģå¾Ĺ": 8441,
      "ä¸ĬåĵªåĦ¿åİ»": 8442,
      "éģĵçĲĨæĿ¥": 8443,
      "æĭļåĳ½çļĦ": 8444,
      "ä»ĸçļĦèĥĮ": 8445,
      "æŁĲç§į": 8446,
      "å¿ħè¦ģçļĦ": 8447,
      "ä¼´åĦ¿": 8448,
      "çļĦç®¡": 8449,
      "æĹħè¡Į": 8450,
      "è¦ģç´§çļĦäºĭ": 8451,
      "åķ¼åĵŃ": 8452,
      "çªģçĦ¶": 8453,
      "çļĦèĥ¡åŃĲ": 8454,
      "è¯´ä¸įä¸ĬæĿ¥": 8455,
      "æĬĬè½¦æĭī": 8456,
      "æħĪåĸĦ": 8457,
      "æĥ©æ²»": 8458,
      "æ¸ºèĮ«çļĦ": 8459,
      "ä¿ıçļ®": 8460,
      "åħ¶ä½ĻçļĦ": 8461,
      "å°±è¡ĮäºĨ": 8462,
      "åĽŀäºĨå®¶": 8463,
      "æĤ¬çĿĢ": 8464,
      "é¥½é¥½": 8465,
      "èººåľ¨åºĬä¸Ĭ": 8466,
      "æī©å¤§": 8467,
      "çªĳåŃĲ": 8468,
      "æĹłè®ºæĢİè¯´": 8469,
      "åĲĽåŃĲ": 8470,
      "èĢģèĢģå®ŀå®ŀçļĦ": 8471,
      "æīĵé¼ĵåĦ¿çļĦ": 8472,
      "åĴ¬ä¸ĬäºĨçīĻ": 8473,
      "èĩªè¨Ģèĩªè¯Ń": 8474,
      "æĥ¶æĥĳ": 8475,
      "çļĦç§ĳéķ¿": 8476,
      "æĺ¼å¤ľ": 8477,
      "åĢŃçĵľ": 8478,
      "é©¬è£¤åħĪçĶŁ": 8479,
      "æĻĮåįĪ": 8480,
      "âĹĭ": 8481,
      "æ¸ħæ¸ħæ¥ļæ¥ļ": 8482,
      "´èĿ¶": 8483,
      "»èľ": 8484,
      "æ©": 8485,
      "ĥåľ": 8486,
      "çļĦçĶ¨": 8487,
      "çļĦåĮĹå¹³": 8488,
      "çļĦæĸ°": 8489,
      "çļĦæĻ¯": 8490,
      "çļĦæĤ²": 8491,
      "çļĦç»ıè¿ĩ": 8492,
      "ä»ĸæľ¬": 8493,
      "ä»ĸæķ¢": 8494,
      "ä»ĸè¢«": 8495,
      "ä»ĸåı«": 8496,
      "ä»ĸèĻ½": 8497,
      "ä»ĸä¾¿æĺ¯": 8498,
      "ä»ĸç®ĢçĽ´": 8499,
      "ä»ĸå¿½çĦ¶çļĦ": 8500,
      "åı±": 8501,
      "ä¸įå¿«": 8502,
      "ä¸įçŃī": 8503,
      "ä¸įå®Įåħ¨": 8504,
      "ä¸įè¯´ä»Ģä¹Ī": 8505,
      "äºĨä¸įå¾Ĺ": 8506,
      "æĺ¯ä¼ļ": 8507,
      "æĺ¯çľŁçļĦ": 8508,
      "ä¸ĢåĪ°": 8509,
      "ä¸Ģè½¬": 8510,
      "ä¸ĢåłĨ": 8511,
      "ä¸Ģå±Ĥ": 8512,
      "ä¸Ģæī¬": 8513,
      "è¯¡": 8514,
      "æĪĳä¸İ": 8515,
      "æĪĳå¯¹": 8516,
      "æĪĳæ°¸è¿ľ": 8517,
      "æĪĳä¸Ģä¸ªäºº": 8518,
      "æĪĳåıªèĥ½": 8519,
      "æľīæīį": 8520,
      "æľīåĬĽ": 8521,
      "åĩĿ": 8522,
      "æĿ¥çļĦäºº": 8523,
      "çĿĢèĩªå·±": 8524,
      "çĿĢéĹ¨": 8525,
      "çĿĢèħ°": 8526,
      "åľ¨æĪĳä»¬": 8527,
      "åŃĲäºĨ": 8528,
      "å¥¹è¿ĺæĺ¯": 8529,
      "å¥¹åºĶå½ĵ": 8530,
      "å¥¹æĦŁåĪ°": 8531,
      "å¥¹åıªå¥½": 8532,
      "æ²Ł": 8533,
      "è¿Ļè¡Į": 8534,
      "ä¸Ĭçľĭ": 8535,
      "ä¸Ĭè¿ĩ": 8536,
      "åİ»åĳĢ": 8537,
      "åı¯ä¹Łä¸į": 8538,
      "åı¯åĸľ": 8539,
      "æĬļ": 8540,
      "å¾ĹçļĦ": 8541,
      "å¾ĹéĤ£ä¹Ī": 8542,
      "ä¹ŁåĴĮ": 8543,
      "åĨĢ": 8544,
      "å¹ħ": 8545,
      "è¯´ç»Ļ": 8546,
      "è¯´çĽ¸": 8547,
      "èĢģæľī": 8548,
      "èĢģåľ¨": 8549,
      "èĢģéĤ»å±ħ": 8550,
      "èĢģå¹¼": 8551,
      "åįľ": 8552,
      "åĩºæģ¯": 8553,
      "å¥½æ¶Īæģ¯": 8554,
      "å¼ĵ": 8555,
      "èĢĮæĿ¥": 8556,
      "èĢĮæĹ¥æľ¬äºº": 8557,
      "éĤ£åıĮ": 8558,
      "ï¼Łï¼ģ\"": 8559,
      "å°ıçĻ½": 8560,
      "å°ıæĹ¶åĢĻ": 8561,
      "å°ıè¤Ĥ": 8562,
      "å°ıè´©": 8563,
      "éĥ½å¥½": 8564,
      "éĥ½çĶ¨": 8565,
      "éĥ½çŁ¥éģĵ": 8566,
      "éĥ½éĤ£ä¹Ī": 8567,
      "ä½łåıĪ": 8568,
      "ä½łæķ¢": 8569,
      "ä½łæĢİæł·": 8570,
      "ä½łç»ĻæĪĳ": 8571,
      "ä½łåĵ¥åĵ¥": 8572,
      "åĴ¸": 8573,
      "è®½": 8574,
      "æĭ¬": 8575,
      "è¦ģåİ»": 8576,
      "è¦ģå¾Ĺ": 8577,
      "è¦ģçĶ¨": 8578,
      "æĬĬçĳŀå®£": 8579,
      "æĬĬä¸ĢåĪĩ": 8580,
      "æĬĬçīĮ": 8581,
      "æĥ³è¦ģ": 8582,
      "åı¯æĺ¯ä½ł": 8583,
      "åı¯æĺ¯çİ°åľ¨": 8584,
      "å¿ĥä¸İ": 8585,
      "å¿ĥè·³": 8586,
      "ä¸ºä¸»": 8587,
      "çļĦèľ": 8588,
      "éĴ©": 8589,
      "ä¸ĭè¿ĩ": 8590,
      "è¿ĩè¿Ļä¸ª": 8591,
      "è¿ĩä¸įåİ»": 8592,
      "å¸ķ": 8593,
      "ä»ĸä»¬åľ¨": 8594,
      "ä»ĸä»¬èµ°": 8595,
      "ä»ĸä»¬å·²": 8596,
      "ä»ĸä»¬éĥ½æĺ¯": 8597,
      "éģµ": 8598,
      "ä»¥åħį": 8599,
      "å¤ļä¹ħ": 8600,
      "å¤ļè´¹": 8601,
      "åıªçŁ¥éģĵ": 8602,
      "èµ·çļĦ": 8603,
      "èµ·ä¸ĢäºĽ": 8604,
      "èµ·åĪĿ": 8605,
      "éĴ±åĳ¢": 8606,
      "æĹ¥åĲİ": 8607,
      "åĴĮå¤§": 8608,
      "åĴĮå¤§å®¶": 8609,
      "åĴĮèĢģäºĮ": 8610,
      "åĴĮé«ĺç¬¬": 8611,
      "çļĦç¢": 8612,
      "çļĦçŀ": 8613,
      "åıĪèĥ½": 8614,
      "åıĪæĢķ": 8615,
      "ä½ľä»Ģä¹Ī": 8616,
      "ä½ľæĪĲ": 8617,
      "ä½ľç§ĳéķ¿": 8618,
      "ç»Ļè°ģ": 8619,
      "ç»Ļäººä»¬": 8620,
      "éķ£": 8621,
      "éķ¶": 8622,
      "è±ª": 8623,
      "æ°Ķå¾Ĺ": 8624,
      "å¾Īæħ¢": 8625,
      "ä»ĸçļĦéĴ±": 8626,
      "ä»ĸçļĦæ³ª": 8627,
      "æīĭæĿ¥": 8628,
      "æīĭä¸ŃçļĦ": 8629,
      "å¯¹å¤§å®¶": 8630,
      "ä¾¿éģĵ": 8631,
      "åĨįèµ°": 8632,
      "ä¸¤å¼ł": 8633,
      "ä¸¤æłª": 8634,
      "å·²æľīäºĨ": 8635,
      "çĻ½çľ¼": 8636,
      "è¾ĳ": 8637,
      "ä¸Ģä¸ªä¸ª": 8638,
      "ä¸Ģä¸ªåŃĹ": 8639,
      "ä¸Ģä¸ªéĵľæĿ¿": 8640,
      "åĲİéĹ¨": 8641,
      "æŀĦ": 8642,
      "äºĮå°ıå§Ĳ": 8643,
      "äºĮæĸ¤": 8644,
      "æĺİè¯´": 8645,
      "ä½¿çĳŀå®£": 8646,
      "æķĻèĢģäºº": 8647,
      "å®£å¸ĥ": 8648,
      "éĿ¢å¯¹": 8649,
      "èĥ¶": 8650,
      "çĥ¤": 8651,
      "çĥĽ": 8652,
      "éĺģ": 8653,
      "æĹłå£°çļĦ": 8654,
      "æĹ¥æľ¬äººä¼ļ": 8655,
      "ä½ıèĩªå·±": 8656,
      "åıĳåĬ¨": 8657,
      "åĽĽä¸ªäºº": 8658,
      "èĢģäººåıĪ": 8659,
      "èĢģäººçļĦçľ¼": 8660,
      "è½¦éĴ±": 8661,
      "è½¦é©¬": 8662,
      "åĲ¬å¾Ĺ": 8663,
      "åĲĥä»Ģä¹Ī": 8664,
      "åĲĥéħĴ": 8665,
      "æĪĲå¤©": 8666,
      "ç¬ĳå¾Ĺå¾Ī": 8667,
      "æŃ»åİ»çļĦ": 8668,
      "å¾ĢåĵªéĩĮ": 8669,
      "è§īåĩºæĿ¥": 8670,
      "æīįæĬĬ": 8671,
      "åŃ¦ä¹ł": 8672,
      "çľŁä¸į": 8673,
      "çľŁå®ŀ": 8674,
      "èµ·æĿ¥çļĦ": 8675,
      "è¥¿æ´ĭäºº": 8676,
      "é©±": 8677,
      "å¥³éĥİ": 8678,
      "éĹ®äºĨ": 8679,
      "ä¸ĢçĤ¹éĴ±": 8680,
      "åĲĮæł·çļĦ": 8681,
      "æī¾ä¸įåĩº": 8682,
      "åķ¡": 8683,
      "åķ·": 8684,
      "æ´»è·ĥ": 8685,
      "æĥħçļĦ": 8686,
      "æŃ£åĴĮ": 8687,
      "åºĶä»ĺ": 8688,
      "åĺĽ": 8689,
      "è¿Ļä¸ªäºĭ": 8690,
      "æµĬ": 8691,
      "çİ°æĪĲ": 8692,
      "åı«äºº": 8693,
      "é¡ºå½ĵ": 8694,
      "é¡ºåı£": 8695,
      "è°ģæĺ¯": 8696,
      "è°ģè¿ĺ": 8697,
      "è°ģèĤ¯": 8698,
      "åıĹèĭ¦": 8699,
      "åĲĳçĳŀå®£": 8700,
      "çĹ´": 8701,
      "åı¯ä»¥ä¸į": 8702,
      "é©¬è¤Ĥ": 8703,
      "é©¬é©¬èĻİ": 8704,
      "è·Łå¤´": 8705,
      "æį¶": 8706,
      "æįŀ": 8707,
      "åĪĨå¯¸": 8708,
      "èĬ±æł·": 8709,
      "ä»ĸä¸įæĥ³": 8710,
      "æĭīåĮħæľĪ": 8711,
      "åĮħè½¦": 8712,
      "åĮħåĽ´": 8713,
      "ç¥¥åŃĲæ²¡": 8714,
      "ä¹°çļĦ": 8715,
      "ä¹°ä¸Ĭ": 8716,
      "åĵªæĹ¶": 8717,
      "éĽķ": 8718,
      "æĭĽæĿ¥": 8719,
      "çĳŀä¸°çļĦå°ı": 8720,
      "æĪĳçļĦçľ¼": 8721,
      "åŁ¹": 8722,
      "ç¬¬åĽĽ": 8723,
      "ç¥ģå¤§çĪ·": 8724,
      "æĿİåħĪçĶŁ": 8725,
      "å®īå¸Ĥåľº": 8726,
      "åĺ´ä¸Ĭ": 8727,
      "çľĭè§ģå¥¹": 8728,
      "æ¡ĳ": 8729,
      "åŃĻæİĮæŁľ": 8730,
      "ä½İä¸ĭåİ»": 8731,
      "åıĺæĪıæ³ķ": 8732,
      "ä¸ŃåĽ½è¯Ŀ": 8733,
      "èĲ½åĪ°": 8734,
      "åŁİæł¹": 8735,
      "åŁİåĨħ": 8736,
      "è¿ĺæĺ¯æ²¡æľī": 8737,
      "æīĢä»¥ä»ĸä»¬": 8738,
      "ç©ºæ´ŀ": 8739,
      "çº¢çĿĢ": 8740,
      "èĢĮä¸Ķä¹Ł": 8741,
      "èĢĮä¸Ķè¦ģ": 8742,
      "èĢĮä¸ĶæĬĬ": 8743,
      "çĸ¤": 8744,
      "å±±ä¸Ĭ": 8745,
      "èĻ½çĦ¶æ²¡": 8746,
      "åĳĬè¯īç»Ļ": 8747,
      "æĢ»ä¼ļ": 8748,
      "æĢ»è§īå¾Ĺ": 8749,
      "æĢ»è¯¥": 8750,
      "çļĦè¯ĿæĿ¥": 8751,
      "åĨĻæ³ķ": 8752,
      "åĨĻä¿¡": 8753,
      "ä½Ĩæĺ¯ä»ĸ": 8754,
      "åĽŀæĿ¥çļĦ": 8755,
      "è·¯åŃĲ": 8756,
      "ä¸įä¼ļæľī": 8757,
      "æ¯ıæ¯ı": 8758,
      "æĪĺå£«": 8759,
      "ç¾İå¥½çļĦ": 8760,
      "äº¤æ¶ī": 8761,
      "ä¹±äºĨ": 8762,
      "ä¹±åŃĲ": 8763,
      "çī¹æĦı": 8764,
      "åĵŃå¾Ĺ": 8765,
      "éŁ³æľº": 8766,
      "èĦļçļĦ": 8767,
      "èĦļä¸ĭ": 8768,
      "ä»Ĭå¤©çļĦ": 8769,
      "çª¦": 8770,
      "åıªæľīä¸ĢæĿ¡": 8771,
      "åľ¨è¿ĻæĹ¶åĢĻ": 8772,
      "åĲĪèµ·æĿ¥": 8773,
      "æ´ĭéĴ±": 8774,
      "è¯·æ±Ĥ": 8775,
      "æ¶Īæ¯Ĵ": 8776,
      "æ¶ĪæŀģçļĦ": 8777,
      "æĮĩæĮ¥": 8778,
      "æİ¥åĪ°": 8779,
      "æİ¥è¿ĩåİ»": 8780,
      "æİ¥çĿĢè¯´": 8781,
      "åħ«åľĪ": 8782,
      "åĨ·ç¬ĳ": 8783,
      "åĬłåħ¥": 8784,
      "æł¹æį®": 8785,
      "ç»Ŀä¸įæĺ¯": 8786,
      "ä½łä»¬ä¿©": 8787,
      "è¶³äºĨ": 8788,
      "ä¿Ŀä½ĳ": 8789,
      "ä¹Łæ²¡æĥ³åĪ°": 8790,
      "åĪ©çĽĬ": 8791,
      "èĢĮåĲİåĨį": 8792,
      "æĳ¸æĳ¸": 8793,
      "ä»ĸå°±åı¯ä»¥": 8794,
      "å¥¹ä»¬ä¿©": 8795,
      "å¾Ĺå¾Īæħ¢": 8796,
      "èĩªçĦ¶æĺ¯": 8797,
      "åŃĻä¸ĥçļĦ": 8798,
      "ä¸įå¤§å¥½": 8799,
      "å¼ĢäºĨåı£": 8800,
      "å¿ħå®ļæĺ¯": 8801,
      "å·´å·´": 8802,
      "åľŁåľ°": 8803,
      "ä¼ĻåĦ¿": 8804,
      "ä¸įç®¡æĺ¯": 8805,
      "ä¸Ģä¼ļåĦ¿å°±": 8806,
      "é¢ĨçĿĢ": 8807,
      "ä¹Łæĺ¯å¥½çļĦ": 8808,
      "çĭĹä¼¼çļĦ": 8809,
      "çĭĹå±İ": 8810,
      "æ±Ĺçıł": 8811,
      "ç¥ĸå®Ĺ": 8812,
      "çīĽå®ħ": 8813,
      "æĬĹæĹ¥": 8814,
      "æŃ¦èīº": 8815,
      "åĲĦæł·": 8816,
      "ä¸įè¦ģè¯´": 8817,
      "é£ŀåĪ°": 8818,
      "å¿µéģĵ": 8819,
      "å¿įè¾±": 8820,
      "å°¤å¤§åħ´": 8821,
      "ä¸įçŁ¥æĢİä¹Ī": 8822,
      "ç¢°äºĨ": 8823,
      "æĿ¿çĿĢèĦ¸": 8824,
      "åĲ¸çĿĢ": 8825,
      "é»ĺé»ĺ": 8826,
      "æ´ĹåĪ·": 8827,
      "éĻĪåħĪçĶŁ": 8828,
      "ä¸įä¸ĬæĿ¥": 8829,
      "è¿ĻéĩĮçļĦ": 8830,
      "ç²®åºĹ": 8831,
      "ä»¤äºº": 8832,
      "æĬ¬èµ·æĿ¥": 8833,
      "åıªæĺ¯éĤ£ä¹Ī": 8834,
      "ä»·åĦ¿": 8835,
      "æµģè¡Ģ": 8836,
      "ä¸īä¸ªäºº": 8837,
      "èĢ³ä¸Ń": 8838,
      "æ³¨æĦıçļĦ": 8839,
      "åĪºåĦ¿": 8840,
      "çĶŁæ´»çļĦ": 8841,
      "è§Ħè§ĦçŁ©": 8842,
      "çļĦèº«åŃĲ": 8843,
      "çļĦèº«ä»½": 8844,
      "èį¯ç®±": 8845,
      "æ´»çĿĢåĳ¢": 8846,
      "åĪ¶éĢł": 8847,
      "çļĦè´§": 8848,
      "æħĮäºĨ": 8849,
      "æ¢¦ä¸Ń": 8850,
      "æĲ¬è¿Ĳ": 8851,
      "åĲµåļ·": 8852,
      "åĶ±çĿĢ": 8853,
      "å·®ä¸įå¤ļæĺ¯": 8854,
      "å¾·èĥľ": 8855,
      "æ¸¸èīº": 8856,
      "æİ¢å¤´": 8857,
      "äºĮåįģä¸ĥ": 8858,
      "åŀĥåľ": 8859,
      "ä»ĸçľĭæĺİçĻ½": 8860,
      "è½¯å¼±": 8861,
      "èĩ³å°ĳæľī": 8862,
      "åĨĴçĿĢ": 8863,
      "é¦ĸé¥°": 8864,
      "ä¸¢å¤±": 8865,
      "æľĿçĿĢ": 8866,
      "ç¢İçļĦ": 8867,
      "åıĳäºĨåħī": 8868,
      "åļİ": 8869,
      "ä¸¾æŃ¢": 8870,
      "éĢĤå½ĵ": 8871,
      "å¹´è½»åĬĽå£®": 8872,
      "çŀ§çĿĢ": 8873,
      "åĲ¦åĪĻ": 8874,
      "åĽ½å®¶å¤§äºĭ": 8875,
      "è¡¥æķĳ": 8876,
      "éĤ£ä¸Ģå¥Ĺ": 8877,
      "è¿ĽäºĨåŁİ": 8878,
      "å¢ŀé«ĺ": 8879,
      "å«ģä¸ª": 8880,
      "æĪĳçŁ¥éģĵä½ł": 8881,
      "æīĶåľ¨": 8882,
      "æīĶåľ¨åľ°ä¸Ĭ": 8883,
      "åħĥå®Ŀ": 8884,
      "çĬ¯çĹħ": 8885,
      "çĬ¯ä¸įä¸Ĭ": 8886,
      "æ²¡äººæķ¢": 8887,
      "çļĦç§ĺ": 8888,
      "åįĹäº¬éĻ·èĲ½": 8889,
      "æĪĳæľīæĪĳçļĦ": 8890,
      "çļ±çľī": 8891,
      "ç¾ŀèĢ»": 8892,
      "è¿½çĿĢ": 8893,
      "åģıåģı": 8894,
      "ç¥¸æĤ£": 8895,
      "æĪ´ä¸Ĭ": 8896,
      "å¾Ĺç½ªäºĨ": 8897,
      "ä½İå£°çļĦåı«": 8898,
      "äºĶåįģå¤ļå²ģ": 8899,
      "èĴ²": 8900,
      "èĴľ": 8901,
      "å¦ĩå¥³ä»¬": 8902,
      "çļĦçĥŃéĹ¹": 8903,
      "ç»ĻæĹ¥æľ¬äººä½ľäºĭ": 8904,
      "çŀİæī¯": 8905,
      "åĭĩæķ¢çļĦ": 8906,
      "æ£įåĦ¿": 8907,
      "ç»ĥä¹ł": 8908,
      "çīºçī²äºĨ": 8909,
      "æį§çĿĢ": 8910,
      "éĽ¶éĴ±": 8911,
      "ä»ĸçļĦèº«ä½ĵ": 8912,
      "åĪ®èĦ¸": 8913,
      "ä¾ĭå¤ĸ": 8914,
      "ä»ĸçļĦèĥ¸": 8915,
      "åĵĪåĵĪçļĦç¬ĳèµ·æĿ¥": 8916,
      "ï¼īï¼Į": 8917,
      "ç°§": 8918,
      "æĹ¥æľ¬åĨĽéĺĢ": 8919,
      "çłĸå¤´": 8920,
      "åİ¨æĪ¿åİ»": 8921,
      "ä¸ĥåħ«ç³Ł": 8922,
      "èĶ¼": 8923,
      "èħ®ä¸Ĭ": 8924,
      "çļĦèĥ¡åĲĮ": 8925,
      "åĴĤæĳ¸": 8926,
      "çļĦèīº": 8927,
      "è½¬è¿ĩèº«æĿ¥": 8928,
      "èĦĬèĥĮ": 8929,
      "çļĦèįī": 8930,
      "èĸªæ°´": 8931,
      "åı°éĺ¶ä¸Ĭ": 8932,
      "æĬĢå·§": 8933,
      "åĲĮäºĭä»¬": 8934,
      "å¾ĢéĩĮèµ°": 8935,
      "ä»ĸçļĦèĦĳåŃĲ": 8936,
      "æļĳåģĩ": 8937,
      "ä¸Ńå¹´äºº": 8938,
      "èĭŁå®ī": 8939,
      "çļĦè£ħ": 8940,
      "äºĨä¸Ģå°ıä¼ļåĦ¿": 8941,
      "å¿½å¿½çļĦ": 8942,
      "æĮºèµ·èĥ¸": 8943,
      "è¶Ĭæĥ³è¶Ĭ": 8944,
      "çĹĽçĹĽå¿«å¿«çļĦ": 8945,
      "çļĦçģµéŃĤ": 8946,
      "åĪ°åŃ¦æł¡åİ»": 8947,
      "æ¨±æ¡ĥ": 8948,
      "èĥĸèĥĸçļĦ": 8949,
      "å³°": 8950,
      "å¹½é»ĺ": 8951,
      "çŃĭçĸ²åĬĽå°½": 8952,
      "çļĦç¨ĭåº¦": 8953,
      "çŁ«æŃ£": 8954,
      "»èľĵ": 8955,
      "é©¬é©¬èĻİèĻİ": 8956,
      "è§Ħè§ĦçŁ©çŁ©": 8957,
      "åŀĥåľ¾": 8958,
      "\"ï¼Į\"": 8959,
      "½ç«ł": 8960,
      "Â·": 8961,
      "īçĴĥ": 8962,
      "ĸåķ¡": 8963,
      "ĹåŃĲ": 8964,
      "Ľçİī": 8965,
      "ŃèĦĤ": 8966,
      "çļĦæĪĲ": 8967,
      "çļĦæŀª": 8968,
      "çļĦåĸĬ": 8969,
      "çļĦæ··": 8970,
      "çļĦä»·éĴ±": 8971,
      "ä»ĸæ¥ŀ": 8972,
      "ä»ĸæĪĸèĢħ": 8973,
      "ä»ĸèµ°åĪ°": 8974,
      "ä»ĸè®°å¾Ĺ": 8975,
      "ä»ĸå§ĭç»Ī": 8976,
      "ä»ĸæľ¬æĿ¥": 8977,
      "ä»ĸçĮĽ": 8978,
      "ä»ĸè§īåĩº": 8979,
      "ä»ĸåĩĨçŁ¥éģĵ": 8980,
      "ä»ĸå¥½è±¡æĺ¯": 8981,
      "ä»ĸå¿ĥéĩĮè¯´": 8982,
      "æĺł": 8983,
      "ä¸įçľĭ": 8984,
      "ä¸įæķĻ": 8985,
      "ä¸įåºĶ": 8986,
      "ä¸įæĶ¶": 8987,
      "ä¸įå°½": 8988,
      "ä¸įä½ĵéĿ¢": 8989,
      "äºĨè¯Ŀ": 8990,
      "äºĨåĮĹå¹³": 8991,
      "äºĨä»¥åĲİ": 8992,
      "æĺ¯çĻ½": 8993,
      "æľ½": 8994,
      "ä¸Ģè¿ĩ": 8995,
      "ä¸ĢåĲ¬": 8996,
      "ä¸ĢæŃ»": 8997,
      "ä¸ĢåĪĨ": 8998,
      "ä¸Ģéĥ¨": 8999
    },
    "merges": [
      [
        "ï",
        "¼"
      ],
      [
        "ä",
        "¸"
      ],
      [
        "ï¼",
        "Į"
      ],
      [
        "ç",
        "ļ"
      ],
      [
        "çļ",
        "Ħ"
      ],
      [
        "ä",
        "º"
      ],
      [
        "ä",
        "»"
      ],
      [
        "ã",
        "Ģ"
      ],
      [
        "ãĢ",
        "Ĥ"
      ],
      [
        "å",
        "¤"
      ],
      [
        "ä»",
        "ĸ"
      ],
      [
        "å",
        "ı"
      ],
      [
        "æ",
        "ĺ"
      ],
      [
        "ä¸",
        "į"
      ],
      [
        "äº",
        "Ĩ"
      ],
      [
        "è",
        "¿"
      ],
      [
        "æĺ",
        "¯"
      ],
      [
        "æ",
        "ľ"
      ],
      [
        "ä¸",
        "Ģ"
      ],
      [
        "ä",
        "¹"
      ],
      [
        "å",
        "¥"
      ],
      [
        "æ",
        "Ī"
      ],
      [
        "ä",
        "½"
      ],
      [
        "å",
        "®"
      ],
      [
        "å",
        "°"
      ],
      [
        "å",
        "Ī"
      ],
      [
        "æ",
        "Ŀ"
      ],
      [
        "è",
        "¯"
      ],
      [
        "å",
        "Ń"
      ],
      [
        "è",
        "Ģ"
      ],
      [
        "äº",
        "º"
      ],
      [
        "å",
        "ľ"
      ],
      [
        "å",
        "Ĳ"
      ],
      [
        "å",
        "¾"
      ],
      [
        "ï¼",
        "ģ"
      ],
      [
        "æĪ",
        "ĳ"
      ],
      [
        "æľ",
        "ī"
      ],
      [
        "æ",
        "ī"
      ],
      [
        "ç",
        "ľ"
      ],
      [
        "ç",
        "Ŀ"
      ],
      [
        "å",
        "ħ"
      ],
      [
        "æ",
        "Ĺ"
      ],
      [
        "â",
        "Ģ"
      ],
      [
        "å",
        "ĩ"
      ],
      [
        "æĿ",
        "¥"
      ],
      [
        "å",
        "¿"
      ],
      [
        "çĿ",
        "Ģ"
      ],
      [
        "å",
        "İ"
      ],
      [
        "åľ",
        "¨"
      ],
      [
        "ĥ",
        "½"
      ],
      [
        "ç",
        "Ķ"
      ],
      [
        "åŃ",
        "Ĳ"
      ],
      [
        "ä¸",
        "ª"
      ],
      [
        "å¥",
        "¹"
      ],
      [
        "è",
        "µ"
      ],
      [
        "æ",
        "²"
      ],
      [
        "ä»",
        "¬"
      ],
      [
        "å",
        "Ľ"
      ],
      [
        "è¿",
        "Ļ"
      ],
      [
        "ä¸",
        "Ĭ"
      ],
      [
        "åİ",
        "»"
      ],
      [
        "å",
        "·"
      ],
      [
        "ä",
        "¼"
      ],
      [
        "åı",
        "¯"
      ],
      [
        "æ²",
        "¡"
      ],
      [
        "æ",
        "Ĭ"
      ],
      [
        "ç",
        "»"
      ],
      [
        "å¤",
        "§"
      ],
      [
        "å¾",
        "Ĺ"
      ],
      [
        "ä¹",
        "Ł"
      ],
      [
        "åĪ",
        "°"
      ],
      [
        "ä¹",
        "Ī"
      ],
      [
        "å",
        "ĳ"
      ],
      [
        "å",
        "Ĩ"
      ],
      [
        "Ħ",
        "¿"
      ],
      [
        "é",
        "ĩ"
      ],
      [
        "æ",
        "ĥ"
      ],
      [
        "å",
        "¹"
      ],
      [
        "è¯",
        "´"
      ],
      [
        "æ",
        "Ģ"
      ],
      [
        "è",
        "ĩ"
      ],
      [
        "å",
        "Ĭ"
      ],
      [
        "èĢ",
        "ģ"
      ],
      [
        "çľ",
        "ĭ"
      ],
      [
        "å",
        "į"
      ],
      [
        "åĩ",
        "º"
      ],
      [
        "å¥",
        "½"
      ],
      [
        "å",
        "Ħ¿"
      ],
      [
        "é",
        "Ĥ"
      ],
      [
        "é",
        "Ĺ"
      ],
      [
        "å",
        "¼"
      ],
      [
        "èĢ",
        "Į"
      ],
      [
        "æ",
        "ķ"
      ],
      [
        "éĤ",
        "£"
      ],
      [
        "å°",
        "±"
      ],
      [
        "ï¼",
        "Ł"
      ],
      [
        "å®",
        "¶"
      ],
      [
        "è",
        "§"
      ],
      [
        "èĩ",
        "ª"
      ],
      [
        "å°",
        "ı"
      ],
      [
        "ç",
        "Ĥ"
      ],
      [
        "é",
        "ĥ½"
      ],
      [
        "ä½",
        "ł"
      ],
      [
        "æ",
        "Ń"
      ],
      [
        "å",
        "Ĵ"
      ],
      [
        "ä¸",
        "Ń"
      ],
      [
        "è",
        "®"
      ],
      [
        "æ",
        "ĭ"
      ],
      [
        "æ",
        "ł"
      ],
      [
        "¦",
        "ģ"
      ],
      [
        "éĩ",
        "Į"
      ],
      [
        "ï¼",
        "Ľ"
      ],
      [
        "çĤ",
        "¹"
      ],
[...]
